#version: 0.2
t h
i n
a n
th e</w>
e r
a r
t i
r e
o u
o n
in g</w>
e n
e s</w>
t o</w>
e r</w>
o r
A S
M AS
MAS K
[ MASK
[MASK ]</w>
an d</w>
a l
o n</w>
e d</w>
i s</w>
o f</w>
a t</w>
s t
a t
i t
i n</w>
r o
o r</w>
o m
i c
D ></w>
< D></w>
a c
a n</w>
e l
e s
e c
i l
e n</w>
a s
v e</w>
w h
u s
i t</w>
a l</w>
T h
l y</w>
h a
l i
l e</w>
o u</w>
th at</w>
l o
u r
d i
ti on</w>
n o
ar e</w>
y ou</w>
r i
s i
a s</w>
l e
a m
th e
t s</w>
o l
f or</w>
a b
m a
r a
u n
en t</w>
c h
ou r</w>
W h
e t
o s
e v
< B
<B ></w>
g h
o p
er e</w>
c e</w>
i s
Th e</w>
e m
a y</w>
p ro
it h</w>
k e</w>
a g
e x
b e</w>
e t</w>
c om
o w</w>
c on
ti on
er s</w>
w ith</w>
a r</w>
u l
u c
ha ve</w>
o o
d o
f f
l d</w>
s h
ou t</w>
b u
d o</w>
s p
i r
ou n
i d
a d
no t</w>
or e</w>
p l
on e</w>
v er
c an</w>
y our</w>
t r
al ly</w>
ou ld</w>
al l</w>
n e
gh t</w>
q u
at e</w>
b e
a p
th er</w>
u m
t er</w>
d s</w>
a tion</w>
s e
ro m</w>
s o</w>
' s</w>
w or
th is</w>
2 0
the y</w>
t er
b y</w>
t h</w>
p er
f rom</w>
t a
i m
p e
d e
w e
il l</w>
it y</w>
o w
in g
m e</w>
i r</w>
us e</w>
re s
s u
a y
m o
s e</w>
s om
bu t</w>
t o
c i
w e</w>
a d</w>
f or
i g
m ore</w>
an y</w>
b o
es s</w>
ur e</w>
tion s</w>
k ing</w>
v i
us t</w>
' t</w>
h e
w ill</w>
w as</w>
m e
n 't</w>
20 1
Wh at</w>
g e</w>
p ar
d e</w>
in e</w>
p o
i c</w>
A n
ti c
wh en</w>
es t</w>
p h
os t</w>
’ s</w>
an t</w>
H ow</w>
c o
wh at</w>
i f</w>
st ar
p p
k s</w>
li ke</w>
t ed</w>
m y</w>
f e
en ce</w>
t u
ag e</w>
ab out</w>
t ing</w>
op le</w>
am e</w>
o ther</w>
u p</w>
ab le</w>
l a
Wh y</w>
I t</w>
ha s</w>
s t</w>
d ing</w>
the ir</w>
do es</w>
e l</w>
th ing</w>
no w</w>
c h</w>
h ow</w>
ic h</w>
g et</w>
ff er
com p
i es</w>
pe ople</w>
e p
c re
en ts</w>
d er
e ar
th ere</w>
u t
g o
uc h</w>
e y</w>
d er</w>
I n
a use</w>
w ould</w>
ic e</w>
m ent</w>
el l</w>
at ed</w>
b ec
oun d</w>
ac k</w>
g h</w>
ou r
u s</w>
r e</w>
. .
st r
th an</w>
oo d</w>
ti me</w>
o c
i d</w>
v er</w>
en t
re c
it s</w>
u t</w>
wh ich</w>
ou gh</w>
- -
j ust</w>
ar d</w>
an s</w>
c l
it e</w>
ti ve</w>
el y</w>
ay s</w>
as t</w>
i ght</w>
es s
l l</w>
on s</w>
es e</w>
Th is</w>
w ay</w>
a v
b er</w>
b et
di ffer
ar y</w>
al l
p re
ac e</w>
h i
som e</w>
r u
on g</w>
ec t</w>
o f
I f</w>
at er</w>
S t
g i
the m</w>
p or
in d</w>
as e</w>
an ce</w>
st e
d ay</w>
om e</w>
ing s</w>
I n</w>
som e
ev er</w>
d uc
C h
an g
lo o
Y ou</w>
w s</w>
u e</w>
ou s</w>
a m</w>
s y
m on
wh y</w>
s w
d y</w>
m ost</w>
c ol
a f
il e</w>
star t
w n</w>
in k</w>
si on</w>
< start
ev er
e st
s c
os e</w>
s ti
- -</w>
i z
Q u
al s</w>
con t
at es</w>
t w
or s</w>
al so</w>
re e</w>
’ t</w>
bec ause</w>
b le</w>
re d</w>
.. .</w>
p s</w>
b l
v id
n o</w>
ma ke</w>
g r
on ly</w>
-- T
n ’t</w>
en ti
e d
ac c
or y</w>
in to</w>
e p</w>
ic al</w>
v ing</w>
m in
wh o</w>
en er
com m
k now</w>
s er
an d
t y</w>
at ing</w>
i f
s o
a in</w>
ver y</w>
in ter
wor k</w>
we en</w>
s el
re n
h o
p res
m ar
v es</w>
t ra
g y</w>
m any</w>
f l
ti c</w>
p le</w>
p r
m uch</w>
g ra
o b
en d</w>
us ed</w>
re s</w>
be en</w>
f ir
--T --</w>
ac h</w>
m s</w>
w ere</w>
U n
e f
w ater</w>
h el
U R
n ing</w>
th en</w>
lo w</w>
y p
ev en</w>
0 0</w>
a tions</w>
p os
s m
t e
el l
en c
f i
ac t</w>
_ q
i l</w>
Qu es
ti m
h e</w>
t e</w>
il l
u m</w>
as s
c ar
bet ween</w>
t ri
ol d</w>
i st
lo w
k e
w i
ma y</w>
C om
a in
th ese</w>
s ame</w>
a st
UR L
an c
wh ere</w>
URL _
se e</w>
o ver</w>
N e
p ri
C on
S o</w>
ne ed</w>
k es</w>
s ec
tion al</w>
sh ould</w>
An d</w>
u b
g re
t ly</w>
ear s</w>
m il
I s</w>
s ur
D o</w>
c oun
Ques tion
Wh en</w>
f in
a ></w>
Question ></w>
<start Question></w>
differ ent</w>
c ould</w>
f u
k ed</w>
li ght</w>
a u
t ur
g o</w>
sp ec
m er
W e</w>
lo c
b r
l ess</w>
l es</w>
R e
y ing</w>
pro b
s a
tw o</w>
B ut</w>
ha pp
ti es</w>
g s</w>
ne w</w>
i a</w>
g n
ri ght</w>
en d
di s
th r
bo dy</w>
g u
ha d</w>
A l
c ur
an ge</w>
or t</w>
th ink</w>
d r
s on</w>
di d</w>
fir st</w>
m at
si de</w>
g e
a il
b ack</w>
d es
e ff
b i
g ood</w>
af ter</w>
P ro
w ays</w>
b re
ste m</w>
Th ere</w>
w ant</w>
g er</w>
c ri
sp e
wi th
F or</w>
be ing</w>
in s</w>
T o</w>
n um
b as
y ears</w>
en s</w>
re ally</w>
ta ke</w>
do wn</w>
d ec
D o
e g
v ed</w>
P o
t en</w>
el ec
N o
li f
ac h
e ar</w>
i al</w>
m p
t le</w>
as s</w>
u d
pl an
E n
b el
Th ey</w>
s k
un der
c or
d ev
thr ough</w>
n a
1 9
sti ll</w>
l ine</w>
u p
in t</w>
M ar
a ve</w>
s uch</w>
em ber</w>
l ar
d u
pro duc
ex p
ch ar
h um
l m
f r
D i
W or
s 2
el s</w>
tr y</w>
e y
w r
com e</w>
s2 s
< s2s
< lm
w ell</w>
ac tu
c er
d ic
it ed</w>
a ir</w>
p ow
tim es</w>
oo k</w>
an y
t yp
20 0
ow n</w>
ig h</w>
s ure</w>
ec h
O n
ic s</w>
of f</w>
ic k</w>
h is</w>
us ing</w>
in t
A mer
a ke</w>
e b
s ay</w>
th ings</w>
Amer ic
sel f</w>
re as
m an
en g
some thing</w>
id e</w>
st s</w>
re qu
o ff
th ose</w>
1 0</w>
wor ld</w>
ti v
sy stem</w>
por t
v o
si ble</w>
S h
wh ile</w>
E x
per i
is m</w>
e as
ul ar</w>
An sw
is e</w>
em ent</w>
at t
re ad
tr an
go ing</w>
1 0
r y</w>
l ong</w>
y s
be f
w ar
s ol
c a
Th at</w>
th er
ac k
is t</w>
f ac
ar i
bef ore</w>
ec ts</w>
ro w
f t</w>
e i
in v
ar ound</w>
su pp
A r
mon ey</w>
m us
ou s
lo t</w>
id e
us es</w>
i e
M o
qu es
to o</w>
il y</w>
lif e</w>
hel p</w>
g ener
t re
L i
ag es</w>
k no
vi e
n ed</w>
un i
t ure</w>
' re</w>
ic es</w>
s en
c lo
su b
c a</w>
_ d
ma de</w>
pro c
d re
l it
al ity</w>
A c
ul t</w>
fu l</w>
st ed</w>
so ci
ma g
A u
at ure</w>
fe el</w>
prob le
ta in</w>
d ri
e ach</w>
sh i
t or</w>
ur ing</w>
loo k</w>
ma tion</w>
h ere</w>
ic k
ch o
f un
al e</w>
ex am
ic ally</w>
oo l</w>
j o
s ing</w>
ser v
u al</w>
o p</w>
f ind</w>
em s</w>
on d</w>
le g
d et
P l
Y our</w>
c u
in es</w>
ever y
bet ter</w>
he al
oun t</w>
s h</w>
in cl
ou t
b est</w>
for m
in ce</w>
p ol
r an
c all
ver n
on es</w>
gh ts</w>
n ec
ra in</w>
a k
h igh</w>
ex t</w>
v en</w>
le ep</w>
tic al</w>
A s</w>
under st
p er</w>
S p
actu ally</w>
ar t</w>
c le
y ear</w>
am es</w>
' m</w>
p a
ever y</w>
v el</w>
g l
num ber</w>
ch ange</w>
v al
with out</w>
ul l</w>
an t
al ways</w>
th ough</w>
201 8</w>
Do es</w>
z e</w>
si gn
f ood</w>
d it</w>
m ents</w>
D r
o m</w>
c r
Answ er
ub li
m as
con si
em p
d ro
o re
s ci
il ity</w>
URL_ 0</w>
ow ever</w>
re g
for mation</w>
lo gy</w>
res s</w>
cur ren
par t</w>
bo th</w>
m an</w>
li m
vid e
an ds</w>
in cre
A d
sa id</w>
for m</w>
per son</w>
si ve</w>
s es</w>
im port
B o
differ ence</w>
n et</w>
ch il
at s</w>
at h</w>
po int</w>
A re</w>
lo g
f il
is h</w>
n ess</w>
m ight</w>
f ol
_ a></w>
Answer ></w>
<start Answer></w>
<s2s _q
<lm _q
f ree</w>
si d
to p</w>
pow er</w>
p ut</w>
k et</w>
se ar
c ap
h er</w>
m is
di rec
st u
s ed</w>
ener gy</w>
fe w</w>
H e
et ting</w>
M y</w>
g en
at ur
hi gh
v en
c ul
of ten</w>
t al
S u
de p
pl ace</w>
some one</w>
ir e</w>
d ed</w>
di a</w>
h ar
s on
e qu
re f
n or
b er
ma kes</w>
b it</w>
s s</w>
a ff
cont ro
pro vid
comp le
t t
a k</w>
t ors</w>
s et</w>
in ess</w>
as h</w>
bu il
re ad</w>
an other</w>
an im
ig n</w>
le t</w>
ic i
p op
g ame</w>
pos sible</w>
p i
tic s</w>
on om
d at
go vern
n ever</w>
exam ple</w>
ar e
In ter
u ter</w>
C an</w>
t es</w>
or ies</w>
s it
U S</w>
call ed</w>
E ar
ent ly</w>
p e</w>
c al
dev el
o ver
b ur
re sp
le ar
me ans</w>
import ant</w>
d uring</w>
t em
str uc
v ir
di st
o d</w>
n er</w>
ang u
ec tion</w>
at ter
lit tle</w>
ou ght</w>
n s</w>
j ect</w>
h y
ay ing</w>
i on</w>
ex pl
it ing</w>
li on</w>
or der</w>
201 7</w>
o t</w>
st ate</w>
an ts</w>
se e
ke ep</w>
c our
et y</w>
as es</w>
m ul
an sw
u ally</w>
b ers</w>
o s</w>
B l
b an
D e
me an</w>
re la
ad v
c ar</w>
2 0</w>
m em
ph one</w>
ou se</w>
w om
ver s
c ep
a ir
a tive</w>
a w
or g
g g
b us
in formation</w>
A ll</w>
0 0
ab ly</w>
ques tion</w>
P re
s um
incl u
n i
th ers</w>
b ad</w>
en ough</w>
S e
k ing
th s</w>
f ace</w>
a way</w>
p ur
M a
am s</w>
Ne w</w>
s ha
w at
lo ad</w>
P h
star t</w>
ex peri
am er
t ech
C ol
un der</w>
h ard</w>
. .</w>
al i
m et
en ds</w>
sp ace</w>
elec tr
s ite</w>
' ve</w>
spe ed</w>
u tion</w>
ap p
S y
s ch
ta in
sh ow
y s</w>
ro w</w>
c ause</w>
ap pe
in st
w in
st ory</w>
f am
ch ang
gre at</w>
W ith</w>
proble m</w>
u res</w>
O n</w>
f ri
N o</w>
Dr .</w>
s ound</w>
sm all</w>
we e
loo d</w>
ec ted</w>
v ol
shi p</w>
P ar
u ro
govern ment</w>
c ase</w>
l ed</w>
is su
enc es</w>
ar s</w>
po si
l and</w>
s ince</w>
l ing</w>
L e
ou th</w>
’ re</w>
pro t
our s</w>
id s</w>
ap er</w>
vide o</w>
ver se</w>
v e
sear ch</w>
bi g</w>
re e
t ers</w>
f ound</w>
l ast</w>
s leep</w>
S ome</w>
m en
mas king
masking ></w>
< masking></w>
gi ve</w>
le ase</w>
l angu
underst and</w>
On e</w>
tr ac
I N
mo ve</w>
tur n</w>
R ep
m ust</w>
b ro
d el
ain st</w>
tri es</w>
D is
par tic
O f</w>
ra di
e ds</w>
ell s</w>
hum an</w>
P e
b rain</w>
si ons</w>
F or
al iz
h ome</w>
it al</w>
1 2</w>
vie w</w>
o t
comm on</w>
comp uter</w>
p ubli
e at</w>
reas on</w>
as h
ec onom
pl ic
en ing</w>
H ome</w>
T H
dat a</w>
v ari
read y</w>
bec ome</w>
C o
f oo
p ay</w>
M on
C l
he ad</w>
ag o</w>
d ays</w>
f act</w>
enc y</w>
Ear th</w>
devel op
pro f
at ely</w>
a ti
J u
do w
re al</w>
B y</w>
s ing
in king</w>
low ing</w>
ab ility</w>
s of
c le</w>
tem per
o ve</w>
d em
ag ainst</w>
U S
om s</w>
li sh</w>
di vid
t ro
at or</w>
ma king</w>
in a</w>
bas ed</w>
sh e</w>
wh e
de f
Th ese</w>
ha ving</w>
le ft</w>
R es
an ding</w>
us ually</w>
201 6</w>
H owever</w>
g etting</w>
gra ph
am ount</w>
mo vi
do c
ast er</w>
tran s
in c
wor ks</w>
re l
Americ an</w>
3 0</w>
ch e
th ree</w>
0 00</w>
ent al</w>
coun try</w>
in f
enti al</w>
st er
ph ys
ci al</w>
pl ac
im p
P er
s al
kno wn</w>
col d</w>
proc ess</w>
t or
cont in
j u
resp on
wor ds</w>
d ra
ch ing</w>
com es</w>
1 1</w>
du ce</w>
un e</w>
A b
m i
J o
Po sted</w>
ad s</w>
s cre
S o
Un ited</w>
li k
No t</w>
1 5</w>
et c</w>
N ow</w>
b lood</w>
il i
st om
P r
ma j
go t</w>
W e
f f</w>
om e
F e
lar ge</w>
li ve</w>
di es</w>
En g
gr ou
an n
pl ay</w>
N or
de fin
b en
d ru
coun tries</w>
ar ds</w>
Com p
R E
m or
ar ly</w>
typ e</w>
S er
ag ain</w>
ey es</w>
dow n
leg al</w>
c are</w>
Di ffer
o thers</w>
o le</w>
comm un
c en
c es</w>
wor d</w>
bel ie
5 0</w>
di sc
be g
T V</w>
n atur
f ar</w>
p ic
oun ds</w>
pl ay
heal th</w>
s af
w o</w>
d am
B e
A N
ac tion</w>
E l
lo ve</w>
T o
G re
a z
1 2
sh ow</w>
on ger</w>
a p</w>
T r
mus ic</w>
cer tain</w>
uc le
happ ens</w>
201 5</w>
k en</w>
de b
re li
lik ely</w>
th y</w>
po li
n ight</w>
lo y
la w</w>
p ass
low er</w>
ti l</w>
any thing</w>
d en
k ey</w>
n ame</w>
gh t
b or
comp any</w>
nor m
sk in</w>
I S
p m</w>
m ing</w>
G u
sec ond</w>
dre n</w>
do ing</w>
ec k</w>
H ere</w>
mat ter</w>
r un
c op
bl ack</w>
wom en</w>
g ed</w>
ti ce</w>
we ight</w>
spec if
A f
s our
M ost</w>
der ed</w>
d en</w>
ac y</w>
n ext</w>
ste ad</w>
l in
ous ly</w>
I s
to day</w>
ap pro
ma in</w>
ess ay</w>
r ate</w>
h or
a king</w>
u r</w>
B u
W i
ar tic
h al
we b
st er</w>
e ts</w>
op er
f ull</w>
St ates</w>
answ er</w>
s ays</w>
A T
ro om</w>
requ i
ch es</w>
k er</w>
O c
A s
do m</w>
na tional</w>
h and</w>
as ed</w>
c ir
g en</w>
ti s
en ding</w>
ro ss</w>
le vel</w>
on line</w>
si m
ra tion</w>
t able</w>
st op</w>
W in
M e
fun c
sti tu
contro l</w>
ge ts</w>
un til</w>
fl u
S ci
st re
le ast</w>
gr ound</w>
ru n</w>
um p</w>
el ing</w>
h ol
b ed</w>
st ri
est ing</w>
H e</w>
an ies</w>
hi m</w>
org an
st ates</w>
el d</w>
an ti
d ge</w>
ir d</w>
g le</w>
M us
si mp
or d
bus iness</w>
tu res</w>
ide a</w>
wh ite</w>
he at</w>
ac tly</w>
belie ve</w>
me as
E uro
v is
Un i
201 4</w>
, 000</w>
temper ature</w>
experi ence</w>
p ing</w>
high er</w>
c ra
si mil
c at
anim als</w>
a th
d ate</w>
ail able</w>
b all</w>
a ther</w>
do ws</w>
loo king</w>
n t</w>
ul ts</w>
min ut
T ra
bu y</w>
in al</w>
ar k</w>
al ready</w>
prob ably</w>
l s</w>
i mag
ei ther</w>
ff ic
S .</w>
per c
d one</w>
or ig
pre t
loc k</w>
t ell</w>
201 2</w>
B i
st ud
b al
M ay</w>
langu age</w>
m en</w>
O b
U .
d le</w>
s uc
k ind</w>
M ore</w>
C an
anc es</w>
or i
ur y</w>
c an
ho t</w>
h ours</w>
co ho
hum ans</w>
ca uses</w>
ill s</w>
ri s
E R
happ en</w>
i m</w>
p ain</w>
C re
on ce</w>
oc k</w>
con nec
mar ket</w>
ph o
publi c</w>
o d
C ar
201 3</w>
B et
G et</w>
cour se</w>
con di
ge ther</w>
an k</w>
det er
p ost</w>
' ll</w>
es p
t en
h un
ist s</w>
t on</w>
g as</w>
f ast</w>
in ing</w>
ha ir</w>
pl es</w>
ac ter
p aper</w>
F l
an a</w>
ben ef
op en</w>
b oo
o x
p tion</w>
with in</w>
a x
sp l
ec i
g ar
chil dren</w>
ar ing</w>
F rom</w>
col l
ucle ar</w>
A n</w>
d ue</w>
B ec
Th e
f er
_d ></w>
<s2s _d
<lm_q d
av ailable</w>
re por
n on</w>
m ember</w>
wor king</w>
ex actly</w>
f ic
T im
se ems</w>
si on
ter m</w>
ta st
per son
sid ent</w>
S ec
Af ter</w>
g ames</w>
com par
A t</w>
di g
rec ei
no logy</w>
comp anies</w>
b ri
c y
li es</w>
si ze</w>
ul ation</w>
He al
F ac
s ever
p en
i ous</w>
M ic
1 1
qu e</w>
m y
as k</w>
to gether</w>
ef ore</w>
oo gle</w>
are a</w>
res t</w>
Pe ople</w>
us h</w>
Wor ld</w>
ma ge</w>
typ es</w>
h er
us si
th ought</w>
at ures</w>
lo b
every thing</w>
b atter
ic an</w>
ec tive</w>
cre ate</w>
w ar</w>
er y</w>
co ver
h ouse</w>
some times</w>
gra m</w>
ch em
p ed</w>
av es</w>
eas y</w>
a tional</w>
inclu ding</w>
ar g
hi story</w>
en ed</w>
simp ly</w>
o il</w>
in i
it ch</w>
d om
ul es</w>
1 6</w>
iz ed</w>
in ts</w>
pr ice</w>
ul ly</w>
tiv ely</w>
sel ves</w>
a ut
tic ally</w>
eff ect</w>
ol s</w>
lear n</w>
ex c
n er
w al
1 4</w>
lo ws</w>
in divid
n et
for ce</w>
U. S.</w>
or d</w>
wh ole</w>
al most</w>
sim ple</w>
l onger</w>
natur al</w>
whe ther</w>
tr ue</w>
sing le</w>
1 8</w>
pro per
no thing</w>
c ost</w>
lo g</w>
se en</w>
c la
sen se</w>
st or
tr ying</w>
b s</w>
F i
on g
1 3</w>
li st</w>
A R
tiv ity</w>
c ard</w>
w ard</w>
um e</w>
emp loy
, ,
t ow
L o
is h
val ue</w>
m er</w>
h and
col or</w>
pres sure</w>
O r
str y</w>
w a
on t</w>
go es</w>
1 8
Americ a</w>
end ed</w>
k ers</w>
curren t</w>
el se</w>
B est</w>
D ec
en se</w>
le v
see m</w>
Wh ile</w>
m ind</w>
b ab
b il
w ing</w>
ab ove</w>
em ents</w>
c all</w>
p u
ur ity</w>
pr ac
st ra
ma il</w>
supp ort</w>
c ha
coho l</w>
re gi
ev ol
b ook</w>
in stead</w>
st and
A M</w>
if ic
g row
simil ar</w>
iz e</w>
ch i
in side</w>
2 5</w>
b ar
Com m
in e
w on
R o
as si
an al
pro gr
est s</w>
r it
Eng lish</w>
ic y</w>
or ts</w>
me di
con sum
r ing</w>
i er</w>
Ne ws</w>
serv ice</w>
F ir
mo ving</w>
sch ool</w>
n al</w>
sever al</w>
m ic
in ed</w>
re search</w>
cre dit</w>
1 00</w>
R el
pret ty</w>
M any</w>
ad ing</w>
ta kes</w>
he ar</w>
t op
A p
every one</w>
c anc
f aster</w>
c ou
f all</w>
proble ms</w>
inv ol
1 .
H ave</w>
L a
Au g
et h</w>
j ects</w>
tw are</w>
ne eds</w>
st ems</w>
v ers</w>
R ussi
if e</w>
di o</w>
an ing</w>
artic le</w>
’ ve</w>
eff ects</w>
an u
res ult</w>
d ol
k y</w>
sh ort</w>
norm al</w>
me th
C O
sh ed</w>
ra ther</w>
wr it
s un
F ree</w>
po t
Differ ence</w>
clo se</w>
sci enti
e e</w>
c ells</w>
t al</w>
cor rec
201 1</w>
ta x</w>
h ind</w>
R ec
J ust</w>
p age</w>
er g
gi ven</w>
qu ality</w>
Bec ause</w>
P ol
ro r</w>
P ri
P M</w>
Ch ri
b ir
show s</w>
maj or</w>
y et</w>
lo se</w>
mul ti
des cri
num bers</w>
G o
uc k</w>
in ation</w>
con f
incre ase</w>
log ical</w>
mat er
Al so</w>
uni verse</w>
ri bu
mil lion</w>
ey e</w>
2 4</w>
ow n
ne ws</w>
the ory</w>
S tu
chil d</w>
am ing</w>
n y</w>
ques tions</w>
f ore
di ffic
op e</w>
m os
posi tion</w>
sur ance</w>
h u
t est</w>
b ul
ch ed</w>
d es</w>
Aug ust</w>
hal f</w>
L E
mo der
bo t
am a</w>
F r
G oogle</w>
id dle</w>
le ge</w>
ta king</w>
k et
vir on
us h
f oc
al low</w>
wr ong</w>
des ig
dri ve</w>
a il</w>
s we
s mo
c y</w>
bo ard</w>
h ur
b ack
s er</w>
reas ons</w>
p ast</w>
expl ain</w>
1 7</w>
Inter net</w>
en sive</w>
ut ure</w>
eci ally</w>
qu ite</w>
it self</w>
fam ily</w>
est ed</w>
al ism</w>
ic a</w>
ag s</w>
t el
esp ecially</w>
c ent
O ur</w>
he ad
h ic
star ted</w>
nec ess
der al</w>
the m
f ree
com b
ver age</w>
ke ts</w>
tr u
Ab out</w>
per f
inter net</w>
or ity</w>
r ou
bel ow</w>
cep t</w>
inter est</w>
issu e</w>
wee k</w>
em o
ear th</w>
URL_ 1</w>
he art</w>
Wh ere</w>
pri v
i sion</w>
se x</w>
s or
ear ly</w>
re co
produc ts</w>
o id</w>
grou p</w>
minut es</w>
provid e</w>
suc c
our self</w>
ex per
f requ
si b
par t
L I
Fir st</w>
soci al</w>
f la
vers ity</w>
re p
ti z
T u
ail s</w>
B ri
on ds</w>
: 4
su n</w>
sour ce</w>
fi ed</w>
ell ing</w>
s il
scre en</w>
ac ks</w>
ut e</w>
m a</w>
gra v
mon ths</w>
m ach
it ary</w>
cle ar</w>
ad e</w>
n uclear</w>
El ec
Ch ina</w>
cl es</w>
G er
on ic</w>
h old</w>
fol lowing</w>
low ed</w>
’ m</w>
er c
sit es</w>
an e</w>
om es</w>
m ass</w>
ne y</w>
st at
--T --
TH E</w>
com ing</w>
gener al</w>
ad d
tech nology</w>
bo x</w>
t ou
v ent</w>
c amer
li gh
out side</w>
b it
tast e</w>
V ide
par ts</w>
di se
an tly</w>
proc ess
pro duce</w>
st ing</w>
me d
ad di
qu ick
6 0</w>
dr ink</w>
ec h</w>
char ge</w>
any one</w>
ar m</w>
ro c
b ig
ep ing</w>
ass es</w>
A pp
consi dered</w>
im um</w>
be hind</w>
: 3
2 .
ex tre
1 5
i mage</w>
: 0
ref er
S ome
Ju ly</w>
fr ont</w>
O r</w>
in du
an ks</w>
all s</w>
0 %</w>
d ers</w>
W ell</w>
E ven</w>
l er</w>
201 0</w>
re member</w>
2 1</w>
M ake</w>
er ing</w>
specif ic</w>
g es</w>
bi o
st y
t ely</w>
n am
jo b</w>
ex t
im m
h owever</w>
fi eld</w>
st o
chang es</w>
tu ally</w>
sur face</w>
at ch</w>
y ourself</w>
ch eck</w>
Mar ch</w>
l ines</w>
H el
pop ular</w>
Bet ween</w>
i gh
O R
Wor k</w>
Win dows</w>
u es</w>
J ap
Li ke</w>
fe eling</w>
de l</w>
sit u
x es</w>
de al</w>
f ile</w>
f lo
P ho
im pro
f our</w>
stu dy</w>
re pres
them selves</w>
id enti
er ed</w>
ou d</w>
J une</w>
k i
Wh o</w>
l ab
movi e</w>
al cohol</w>
19 9
ep t
f ur
W ater</w>
li g
pi ec
au th
rel ated</w>
id ence</w>
produc t</w>
do g</w>
sci ence</w>
tr a</w>
acc ount</w>
ph ones</w>
at ors</w>
I m
A pri
Apri l</w>
Nor th</w>
vi ous</w>
me dic
­ ­
ou ble</w>
ne ed
s le
ad d</w>
en viron
p t</w>
A L
: 5
E R</w>
m om
ys is</w>
disc us
li ving</w>
T e
d a</w>
s qu
inclu de</w>
pr in
poli tical</w>
cont ent</w>
spec ies</w>
lob al</w>
C oun
mo v
f av
ep s</w>
c oo
l y
web site</w>
cre ated</w>
H um
anu ary</w>
f o
car s</w>
Ser v
M in
N O
per form
sc ri
de ath</w>
f at</w>
No v
or ding</w>
pro gram</w>
3 .
Re ad</w>
ar ed</w>
ma in
av ing</w>
2 2</w>
c ell</w>
comple tely</w>
f uture</w>
li qu
ac ross</w>
a verage</w>
f ing
al ong</w>
g est</w>
dep end
St e
reli gi
ic ity</w>
t in
w an
read ing</w>
diffic ult</w>
J anuary</w>
pho to
m ess
R a
p ain
down load</w>
ill ed</w>
S T
Th en</w>
st ore</w>
r ac
bre a
run ning</w>
v s</w>
tal k</w>
O p
F eb
’ ll</w>
Sh ould</w>
sy stems</w>
I S</w>
R ev
co ver</w>
e ating</w>
f y</w>
ter ms</w>
sm ell</w>
ne g
i an</w>
1 9</w>
acc ess</w>
ob ject</w>
i p
p ose</w>
b ra
il s</w>
t un
M ed
U K</w>
y oun
phys ical</w>
u l</w>
m ine</w>
do gs</w>
G ener
M an
ill ing</w>
vi sion</w>
E s
c ut</w>
f ig
sh are</w>
in ks</w>
bl ue</w>
un ch</w>
0 .
tre at
sof tware</w>
sign ific
ad a</w>
1 4
con st
A M
r ange</w>
all er</w>
str ong</w>
er ous</w>
Y es</w>
adv ant
T i
ru ary</w>
M il
pp ed</w>
f ully</w>
D es
l ater</w>
batter y</w>
ver sion</w>
N et
G ra
der ing</w>
quick ly</w>
f em
tra vel</w>
st ay</w>
E S</w>
A C
movi es</w>
su gg
lo ss</w>
i tion</w>
heal thy</w>
li st
eas ily</w>
S ol
c ame</w>
wat ch</w>
me dia</w>
om a
pp ing</w>
ris k</w>
b acter
en ted</w>
eb ook</w>
saf e</w>
ar ti
ut ri
li ghts</w>
L et</w>
al es</w>
Feb ruary</w>
w it
ab les</w>
p ay
S ch
g ar</w>
tri c</w>
A fr
m el
' d</w>
co de</w>
di an</w>
in j
Heal th</w>
ve hic
c ases</w>
cu stom
e duc
O N
ac tive</w>
st a
str ic
deb t</w>
d ang
H ar
s ex
F in
res ults</w>
op h
as tic</w>
E N
sion al</w>
ast e</w>
plan e</w>
1 6
vi ol
ti sh</w>
f er</w>
stu ff</w>
ta ken</w>
g ir
di e</w>
c am
T ran
ap plic
U p
par ty</w>
t ter</w>
m ental</w>
wr iting</w>
as ing</w>
ex ist
P ow
s ounds</w>
pr ices</w>
fir e</w>
m ed</w>
S ub
la ws</w>
mag ne
ie w</w>
S ept
to m</w>
acc ep
U se</w>
w ake</w>
foo ds</w>
th ro
Tim e</w>
con cer
C or
iz ation</w>
t oms</w>
canc er</w>
eng ine</w>
ac tions</w>
s tic
st op
si st
d on
pos ed</w>
L ear
st ock</w>
w id
li ons</w>
as ked</w>
um ent</w>
C ur
in surance</w>
us ion</w>
to ber</w>
g row</w>
B re
T ur
--T-- <B></w>
c ed</w>
te eth</w>
ti ci
st ro
li c</w>
m ol
O N</w>
G od</w>
issu es</w>
for ms</w>
2 3</w>
se qu
he ard</w>
it es</w>
dru g</w>
pa ti
vo te</w>
b le
B as
A m
serv ices</w>
loc al</w>
le ad</w>
gener ally</w>
se par
ne w
bre ak</w>
wr ite</w>
ear ch</w>
oun d
Nov ember</w>
ech an
h ands</w>
1 7
qu i
x ed</w>
at est</w>
aff ect</w>
po ints</w>
Sept ember</w>
Oc tober</w>
Ph one</w>
ta ins</w>
appe ar</w>
peri od</w>
sof t</w>
wor th</w>
T a
p es</w>
g er
sur vi
econom y</w>
ef ul</w>
pur ch
en ter</w>
tr al</w>
en jo
fi ve</w>
buil d</w>
mon th</w>
Sci ence</w>
Bl ack</w>
s aying</w>
ma y
W ar</w>
th inking</w>
sy mp
le ave</w>
g ing</w>
w ent</w>
tu m</w>
Jo h
duc tion</w>
200 9</w>
4 0</w>
stud ents</w>
cal cul
sy n
expl ain
f ru
moder n</w>
mem ory</w>
m ary</w>
m outh</w>
s et
IN G</w>
0 s</w>
func tion</w>
w are</w>
s ell</w>
ach es</w>
Dec ember</w>
oc c
z z
er o</w>
re ly</w>
en tion</w>
an i
d ark</w>
o ts</w>
pe ti
are as</w>
dru gs</w>
man ag
ha vi
h it</w>
cho ose</w>
cover ed</w>
gre en</w>
vari ous</w>
mo d
char ac
p an
ri c</w>
plan et</w>
st ly</w>
ca used</w>
t ar
dev ice</w>
ri ghts</w>
stand ard</w>
2 8</w>
pol ice</w>
eas ier</w>
incl ud
ne ar</w>
com for
F il
ut ting</w>
tal king</w>
perc ent</w>
an g</w>
off ic
es ti
T er
S ince</w>
med ical</w>
i ve</w>
gl ass</w>
Y ou
dr y</w>
bas ic</w>
need ed</w>
C r
di spl
F ri
S k
w le
E ver
W ill</w>
s l
spec ial</w>
fil m</w>
2 6</w>
I C
2 5
D N
no se</w>
S outh</w>
re le
D own
loo ks</w>
partic ular</w>
G e
bab y</w>
pa id</w>
si g
at e
r ic
at eg
pre vent</w>
do or</w>
.. ..</w>
oun ts</w>
a h</w>
e f</w>
as soci
K ore
rela tion
S m
O ther</w>
mo on</w>
individ ual</w>
200 8</w>
exp ensive</w>
exp lo
St ate</w>
Pre sident</w>
radi o</w>
D ef
direc tly</w>
hu ge</w>
av y</w>
reg ul
mil itary</w>
ut ers</w>
Vide o</w>
net work</w>
vi a</w>
an cial</w>
it ted</w>
c ity</w>
Au str
requi red</w>
ail y</w>
orig inal</w>
b ing</w>
del i
ex ist</w>
x i
ou gh
k ids</w>
w ide</w>
c el
J e
1 3
bil lion</w>
2 7</w>
differ ences</w>
th re
2 9</w>
is ed</w>
y es</w>
re mo
off er</w>
in ning</w>
mor ning</w>
D em
p sy
le ts</w>
cl ass</w>
ban k</w>
on y</w>
Americ ans</w>
r ates</w>
sec urity</w>
f ish</w>
lev els</w>
il legal</w>
pl an</w>
P ost</w>
man u
p ul
B ro
th es
person al</w>
ci es</w>
happ ened</w>
vie ws</w>
al ax
fe et</w>
g ain</w>
D ri
B e</w>
um s</w>
ev idence</w>
fu el</w>
t old</w>
enti re</w>
m iddle</w>
P ubli
commun ic
o logy</w>
c li
sm aller</w>
R i
hel ps</w>
ju ana</w>
y gen</w>
g ress</w>
pres sion</w>
e ding</w>
R O
il d</w>
curren cy</w>
t i</w>
n ers</w>
b on</w>
k in
S pe
grav ity</w>
C al
dam age</w>
pop ulation</w>
reg ular</w>
C a
t end</w>
ser ies</w>
i juana</w>
t ook</w>
sol ar</w>
buil ding</w>
ro ad</w>
v ic
Fac ebook</w>
u red</w>
fur ther</w>
ph ere</w>
correc t</w>
to tal</w>
war m</w>
te am</w>
z ing</w>
d ating</w>
L ife</w>
vo ice</w>
camer a</w>
g ro
eff ici
ex erc
D id</w>
in fl
ess es</w>
bur n</w>
or t
h our</w>
al ter
reco gn
al lows</w>
f a
fri ends</w>
tran sm
n ia</w>
p lease</w>
consi der</w>
ti ves</w>
tion ary</w>
necess ary</w>
S un
tr act</w>
sh ar
o ds</w>
benef its</w>
H ist
P lease</w>
av oid</w>
Euro pe
sc en
ne l</w>
oc cur
T ech
re fl
pic ture</w>
i ed</w>
ra y</w>
tra v
l ay
econom ic</w>
R ed
fri end</w>
th ous
wan ted</w>
gi ves</w>
f li
all ing</w>
C ha
re comm
in dic
v al</w>
comm er
neg ative</w>
in ary</w>
Uni versity</w>
le y</w>
in ese</w>
dr inking</w>
ob jects</w>
-- --
or k</w>
na tive</w>
w ise</w>
fil es</w>
sty le</w>
b a
desig ned</w>
V o
Se e</w>
be havi
Russi a</w>
we b</w>
on d
e an</w>
B us
des ign</w>
I T
contin ue</w>
lar ger</w>
bor n</w>
se as
d _a></w>
_q a></w>
_d a></w>
<s2s_q d_a></w>
<s2s_q _da></w>
<s2s_q _d></w>
<s2s_q _a></w>
<s2s_d _qa></w>
<s2s_d _a></w>
<lm_qd a></w>
<lm_qd ></w>
<lm_q a></w>
<lm_q ></w>
<lm _d></w>
<lm _a></w>
d ow</w>
L O
may be</w>
pl u
um ents</w>
us ers</w>
deter min
plac es</w>
al lowed</w>
in flu
cle an</w>
dist ance</w>
compar ed</w>
Wh ich</w>
R em
dise ase</w>
pres s</w>
cont act</w>
b om
c ast</w>
am ong</w>
bacter ia</w>
bu tt
m ir
me aning</w>
bel i
oo ds</w>
vide os</w>
n e</w>
inv est
prof es
star s</w>
ob s</w>
extre m
actu al</w>
Wh ite</w>
el low</w>
ff ic</w>
a vi
m echan
su per
k ill</w>
mo del</w>
situ ation</w>
K e
C our
anim al</w>
e th
col lege</w>
ev en
multi ple</w>
pres ent</w>
s is</w>
j ud
sp ir
lo st</w>
wh at
we ap
imag es</w>
s low</w>
stom ach</w>
ag ree</w>
is es</w>
Euro pe</w>
S ur
in come</w>
Ever y
it or</w>
produc tion</w>
ren t</w>
treat ment</w>
acc ording</w>
ste p</w>
foc us</w>
int ro
gre es</w>
progr am
l ar</w>
sen s
T op</w>
condi tions</w>
fe deral</w>
et er</w>
F ood</w>
A T</w>
enti ally</w>
er gy</w>
col ors</w>
direc tion</w>
oc r
at trac
d ates</w>
con ver
Ch ar
p le
st and</w>
M ag
G r
On line</w>
P C</w>
we ar</w>
mater ial</w>
Answ er</w>
por t</w>
n ature</w>
indu stry</w>
un ity</w>
ant i</w>
cor por
sig n</w>
ex tra</w>
op tion</w>
lo ts</w>
c lim
inter esting</w>
anc ed</w>
I I</w>
requ ire</w>
R e</w>
th ird</w>
youn g</w>
Sy stem</w>
lim ited</w>
wle dge</w>
int en
id es</w>
V i
h om
writ ten</w>
App le</w>
aliz ed</w>
pl aying</w>
ci tiz
comple te</w>
com ment</w>
struc ture</w>
un k</w>
B r
er t</w>
T yp
su gar</w>
S im
ec ting</w>
mach ine</w>
O S</w>
f ine</w>
I r
l l
tri ed</w>
s mar
N ational</w>
S ha
g res
mem bers</w>
r ules</w>
sa ve</w>
develop ment</w>
sk y</w>
t ext</w>
ent ation</w>
ac king</w>
w ind</w>
D ay</w>
eff ective</w>
B ar
hur t</w>
z ed</w>
as leep</w>
Su n</w>
co in</w>
n utri
vi ously</w>
Ob ama</w>
war ds</w>
pos sib
har d
symp toms</w>
ti n</w>
Com ments</w>
re d
eng th</w>
l ink</w>
acc ur
imp act</w>
priv ate</w>
b row
fol low</w>
w aves</w>
re ma
S en
ox ygen</w>
P S</w>
u bl
mo b
b and</w>
h on
ther n</w>
aliz e</w>
comm ents</w>
g lobal</w>
cat eg
res h</w>
Can ada</w>
s ong</w>
il ing</w>
H igh</w>
s ent</w>
pow er
plan ts</w>
Gre at</w>
ing ly</w>
tra di
sh ot</w>
c ro
anc y</w>
environ ment</w>
perf ect</w>
liqu id</w>
mus cle</w>
G en
mil k</w>
mo tion</w>
id ed</w>
par ents</w>
li d</w>
st ar</w>
f low</w>
sh e
al ia</w>
sh oo
it ch
H ouse</w>
Bi g</w>
piec e</w>
gu n</w>
Serv ice</w>
li ves</w>
ap p</w>
l ate</w>
grow th</w>
o g
magne tic</w>
ri d</w>
Sp ace</w>
c ool</w>
me at</w>
mol ec
elec tric</w>
de grees</w>
is sion</w>
we ather</w>
bas ically</w>
Th er
E D</w>
electr icity</w>
D I
shi ps</w>
us er</w>
f re
C ap
br ing</w>
car ds</w>
con sci
ol der</w>
buil t</w>
w in</w>
t ball</w>
y m
bo dies</w>
rec ent</w>
graph y</w>
dig ital</w>
sub st
grou ps</w>
G ood</w>
es day</w>
pur pose</w>
co sts</w>
W om
de ep</w>
Chri sti
it am
Bri tish</w>
gen e
l ic
la w
e mail</w>
sal t</w>
V er
n a</w>
o es</w>
4 .
ar ies</w>
dev ices</w>
dri ving</w>
Down load</w>
y er</w>
pot ential</w>
b its</w>
s end</w>
On ce</w>
cou ple</w>
ro t
att emp
H O
S tr
anal ysis</w>
gh ter</w>
plan ets</w>
gi ving</w>
bec omes</w>
ren ch</w>
ho le</w>
ch ance</w>
e m</w>
repor t</w>
le ad
c ore</w>
C ar</w>
is on</w>
w ood</w>
underst anding</w>
ro le</w>
s ort</w>
soci ety</w>
pp er</w>
add ress</w>
li ed</w>
di et</w>
n ames</w>
U p</w>
c ent</w>
Tu be</w>
Y ork</w>
ne u
vi l</w>
happ ening</w>
S to
E S
la u
f ic</w>
D ep
wee ks</w>
F ind</w>
D ev
respon se</w>
Ch inese</w>
en ter
tur ned</w>
M ay
H app
langu ages</w>
con tain
F un
b loc
develop ed</w>
reg ar
lar s</w>
min al</w>
meth od</w>
in s
p atter
re lease</w>
ad ded</w>
p at
at mos
u als</w>
cal ories</w>
Ne w
di sp
ch ec
US A</w>
commun ity</w>
re move</w>
T re
s us
G l
con duc
my self</w>
ff er</w>
1 /
re ach</w>
mus cles</w>
.. ..
A si
wom an</w>
tu al</w>
i um</w>
B el
chem ical</w>
pol icy</w>
m u
cho ice</w>
chang ed</w>
d ated</w>
rec ently</w>
so on</w>
Lear n</w>
om ic</w>
ha ps</w>
our ces</w>
os ed</w>
p ass</w>
A t
sp end</w>
C ali
er n</w>
oo th</w>
ri ed</w>
Europe an</w>
boo ks</w>
ad ver
wor k
c k</w>
ac hi
cla im
ri se</w>
f ail
ar ms</w>
T I
8 0</w>
im medi
f ly</w>
ili ties</w>
rec ord</w>
Bus iness</w>
doc tor</w>
fin ancial</w>
c o</w>
Su pp
To day</w>
mov ement</w>
cer tain
T ags</w>
no ise</w>
fu n</w>
mob ile</w>
C i
Mo vi
extrem ely</w>
b on
ta xes</w>
re duce</w>
L in
st anding</w>
deter mine</w>
D on
bot tom</w>
wor se</w>
f ight</w>
for nia</w>
perform ance</w>
An im
mis sion</w>
struc tion</w>
E ff
up on</w>
B log</w>
att ack</w>
ti red</w>
tion ed</w>
sec onds</w>
se ts</w>
ach ing</w>
F ull</w>
f it</w>
tur ns</w>
as p
posi tive</w>
pro te
it ting</w>
W ar
invol ved</w>
in ner</w>
DN A</w>
prot ect</w>
no te</w>
fac tors</w>
an ese</w>
de ad</w>
Ac cor
radi ation</w>
ev ent</w>
ak er</w>
pic tures</w>
lit er
maj ority</w>
ren g
ac ts</w>
enc ed</w>
an tum</w>
o l</w>
curren tly</w>
s .</w>
op pos
Hist ory</w>
sc ale</w>
tion ally</w>
id ent</w>
Mus ic</w>
2 4
co ff
AN D</w>
mo stly</w>
M et
sol ution</w>
at er
meas ure</w>
duc ed</w>
sign al</w>
vie w
h ate</w>
H D</w>
Joh n</w>
no tic
stra ight</w>
in ate</w>
tow ards</w>
comple x</w>
et er
tra ffic</w>
contin u
W H
H y
educ ation</w>
in o</w>
cul ture</w>
b y
es sion</w>
what ever</w>
cour t</w>
i als</w>
recei ve</w>
min ist
Rep ubl
sp orts</w>
prac tice</w>
S he</w>
w ants</w>
ad es</w>
M c
lear ning</w>
sy m
Tr ump</w>
St re
se a</w>
A ir
con ven
succ ess
re ality</w>
ra p
ab sor
al though</w>
il li
mic ro
I mag
C ri
ti fic
3 0
s ent
ab sol
z y</w>
thr ough
tu be</w>
for ward</w>
sp ac
it ely</w>
sh if
por ts</w>
Al though</w>
fe atures</w>
A P
cu r</w>
l a</w>
d y
cen ter</w>
ch all
pre sident</w>
g old</w>
La w</w>
8 0
You Tube</w>
tra de</w>
g ree</w>
re pe
s ick</w>
pre dic
fav or
w ish</w>
beg in</w>
sp o
com peti
re turn</w>
I D
sub ject</w>
op tions</w>
A no
ag ed</w>
ach ed</w>
Sh are</w>
ac tivity</w>
Accor ding</w>
v eg
am p
Con t
met al</w>
L ast</w>
po or</w>
supp ly</w>
v el
Hel p</w>
ther efore</w>
al ing</w>
exper im
i p</w>
ex plan
m al
relation ship</w>
comp uters</w>
plac ed</w>
s li
ag ing</w>
R om
signific ant</w>
l ap
con cept</w>
is tic</w>
Some times</w>
happ y</w>
our ce</w>
dol lars</w>
In dia</w>
progr ams</w>
Mic ro
direc t</w>
dang erous</w>
at ell
scienti sts</w>
depend ent</w>
Cre dit</w>
ou ghts</w>
typ ically</w>
ser ious</w>
dre am</w>
is ing</w>
cra ft</w>
A D
U s</w>
connec tion</w>
pe dia</w>
W ould</w>
mom ent</w>
proper ty</w>
Is ra
I N</w>
C he
ci gar
att ention</w>
Cali fornia</w>
stitu tion</w>
form ed</w>
bir th</w>
sha pe</w>
wal k</w>
ini ti
ag re
cri me</w>
V ir
aut oma
z es</w>
i e</w>
de gree</w>
tim ate</w>
w all</w>
an k
defin ition</w>
devel op</w>
play ers</w>
f el
su d
el ess</w>
fig ure</w>
cigar et
T ake</w>
int el
Elec tr
coff ee</w>
B ur
ev ed</w>
Le ave</w>
u n</w>
B en
power ful</w>
dist ribu
rele ased</w>
The ir</w>
E d
fla v
sur pri
res ol
kno wledge</w>
M i
G o</w>
vehic le</w>
al one</w>
H o
c able</w>
play er</w>
vol ume</w>
l am
partic les</w>
S al
L ight</w>
ligh tly</w>
loc ation</w>
butt on</w>
7 0</w>
aw are</w>
coun t</w>
wat ching</w>
Ano ther</w>
m ale</w>
h ope</w>
A ir</w>
hy dro
Mon ey</w>
l un
ar ch
au ti
r or
T ri
pl ant</w>
v il
off ice</w>
ing ton</w>
grow ing</w>
fore ign</w>
at ter</w>
r ace</w>
am ple</w>
pre ci
d aily</w>
Es say</w>
b ase</w>
re view</w>
ac ked</w>
at ory</w>
a ur
enjo y</w>
un ited</w>
9 9
cep tion</w>
Sp ec
B ra
cont ribu
D ig
spe ak</w>
oc cur</w>
Kore a</w>
A ma
am az
An dro
through out</w>
ti ps</w>
ti l
min imum</w>
E very</w>
O R</w>
ev ents</w>
R ed</w>
the ma
Jap an</w>
cla im</w>
mar ijuana</w>
ser ve</w>
re sist
uni que</w>
ar m
bal ance</w>
g alax
op s</w>
s em
di men
B oo
sec tion</w>
A L</w>
K now</w>
O U
5 00</w>
addi tion</w>
ra m</w>
intel lig
et ing</w>
l ess
N E
z ero</w>
c at</w>
om ing</w>
fem ale</w>
sex ual</w>
er ve</w>
bec ame</w>
V al
ur ch</w>
B ab
b ill</w>
li er</w>
cy cle</w>
vi sible</w>
in ated</w>
tou ch</w>
elec tion</w>
T wo</w>
b log</w>
ser ver</w>
u le</w>
bu d
answ ers</w>
equ al</w>
e k</w>
fe els</w>
e ve</w>
cl ick</w>
su e</w>
tran sp
j obs</w>
g am
Mo on</w>
top ic</w>
ket ing</w>
lim it</w>
200 7</w>
esti g
sa w</w>
un less</w>
ad m
p ack
ic ans</w>
S E
f as
app ly</w>
N um
inter national</w>
n ation</w>
Pro duc
mil es</w>
star ting</w>
produc ed</w>
3 D</w>
con tains</w>
r ich</w>
tr ack</w>
no tice</w>
pri mary</w>
C u
B efore</w>
evol ution</w>
os p
exerc ise</w>
ag ged</w>
C ity</w>
19 8
est ab
M P
x im
Ac t</w>
A N</w>
NO T</w>
po sted</w>
pre gn
t a</w>
T O</w>
3 1</w>
k a</w>
vir us</w>
thous ands</w>
th us</w>
C le
Po li
5 0
part ment</w>
Wi th
L eg
mess age</w>
gre ater</w>
Afr ica</w>
cir c
in fin
L oc
l ack</w>
Pow er</w>
O ut</w>
ide as</w>
C P
w ave</w>
c ats</w>
al d</w>
psy cho
ar ily</w>
li ber
fl ic
for ces</w>
Go vern
URL_ 2</w>
W r
ru le</w>
atmos phere</w>
st reng
or ing</w>
ex ec
at a</w>
co ol
big ger</w>
can di
provid es</w>
Sy ri
hel d</w>
cho ols</w>
or ds</w>
P or
see ing</w>
N AS
he aring</w>
associ ated</w>
ac he</w>
Austr alia</w>
B er
N ext</w>
st ation</w>
pr int</w>
n ect</w>
t age</w>
Mar s</w>
con tain</w>
­­ ­­
spec i
car bon</w>
ig n
I P</w>
t ory</w>
Wom en</w>
y r
re action</w>
M em
star ts</w>
u re
n ice</w>
et ed</w>
i on
dro p</w>
di ag
I R
de stro
p ick</w>
set t
saf ety</w>
pl astic</w>
d i</w>
bu ying</w>
W al
d ou
P res
li ght
il os
f light</w>
ap e</w>
p aying</w>
o ther
he avy</w>
b an</w>
i red</w>
impro ve</w>
Th anks</w>
contro l
s ’</w>
C op
ne arly</w>
it ems</w>
4 0
on to</w>
D eb
ang le</w>
5 .
Gener al</w>
oppos ite</w>
tur al</w>
no w
gu y</w>
wa it</w>
ick en</w>
e es</w>
c ash</w>
D el
u b</w>
B it
2 3
O ff
bre ath</w>
p on
connec ted</w>
prin ci
dol lar</w>
ca using</w>
T wit
tra ining</w>
s ou
ri g
B C</w>
win ter</w>
h ood</w>
C H
dep ends</w>
requi res</w>
co t
e .
C D</w>
al ist</w>
Do gs</w>
D uring</w>
Inter national</w>
T or
sec re
gu ess</w>
car ry</w>
i Phone</w>
an ity</w>
I ts</w>
ci ent</w>
bl es</w>
l ength</w>
ad dic
p un
a ult</w>
ec tions</w>
oun ding</w>
ul arly</w>
Pl an
b es</w>
An y</w>
pro ject</w>
s lightly</w>
ev ision</w>
E ast</w>
am m
Ad v
20 0</w>
en ses</w>
dec ision</w>
Ti ps</w>
ir ing</w>
cl assi
D V
benef it</w>
E con
us eful</w>
a h
w el
it ation</w>
weap ons</w>
d ar
R ight</w>
c e
ta tions</w>
U sing</w>
a tion
Ph ys
we al
even tually</w>
Di rec
s av
profes sional</w>
ban ks</w>
m ent
R et
G i
comfor table</w>
d ouble</w>
gra de</w>
Jap anese</w>
eng ine
o de</w>
v s.</w>
P art</w>
p ap
sc r
chang ing</w>
incre ased</w>
in de
En ergy</w>
br and</w>
s n
S of
in ion</w>
sid ential</w>
ti tu
ad ed</w>
si x</w>
u g
g one</w>
kno ws</w>
ran dom</w>
O ver</w>
y ed</w>
bro ad
exp ect</w>
ar t
fe ar</w>
b ly</w>
r ound</w>
1 ,
l and
C ateg
dec ide</w>
ac u
ab o
individ uals</w>
stud ent</w>
Andro id</w>
Ne ed</w>
thes is</w>
y right</w>
j our
G ame</w>
D oc
Red dit</w>
high ly</w>
ak ers</w>
sp read</w>
commer cial</w>
M y
ent y</w>
L ab
ash ing</w>
p rec
custom ers</w>
S ing
mil lions</w>
Sec urity</w>
en cies</w>
S c
th oughts</w>
Con tro
l an
ap s</w>
f le
Ger many</w>
dem and</w>
stic k</w>
ru p
includ es</w>
S w
gu ys</w>
condi tion</w>
char ged</w>
ke y
b lock</w>
h ous
N i
advant age</w>
p h</w>
P age</w>
seas on</w>
An y
cent ury</w>
defin itely</w>
st ers</w>
F rench</w>
x ing</w>
prof it</w>
st ress</w>
Cour t</w>
dep ending</w>
Cl ick</w>
G B</w>
ffer ing</w>
re less</w>
gl asses</w>
dec ided</w>
frequ ency</w>
win dow</w>
F o
immedi ately</w>
as er</w>
certain ly</w>
y ellow</w>
op port
lar gest</w>
ne e
cap ac
On ly</w>
C ould</w>
fl at</w>
sw itch</w>
Comp uter</w>
u de</w>
gen der</w>
vari ety</w>
m es</w>
un it</w>
Un der
pl us</w>
B ack</w>
bot tle</w>
ri age</w>
ush ing</w>
batter ies</w>
er e
exp ected</w>
I T</w>
sh own</w>
supp or
O ver
el er
M or
favor ite</w>
tech ni
in te
Res earch</w>
or bit</w>
Ex pl
fli x</w>
comp on
O F</w>
proper ly</w>
m ur
separ ate</w>
H ol
ti vi
S hi
appe ars</w>
ec tor</w>
dre ams</w>
ass um
const ant</w>
? <B></w>
on ing</w>
exam ples</w>
i ons</w>
all erg
im possible</w>
mic row
So cial</w>
c as
ag ue</w>
M is
fac ts</w>
el ements</w>
en ess</w>
ad ap
sen si
Col lege</w>
p ull</w>
S el
A C</w>
R ef
as y</w>
H or
smo ke</w>
scienti fic</w>
Pri v
heal th
fi gh
tech n
I L
S af
com mon
In st
di ed</w>
j us
ap y</w>
om et
ip ment</w>
g ery</w>
b ar</w>
l atest</w>
i or</w>
st age</w>
S S
3 2</w>
so lid</w>
po sts</w>
b et</w>
spec tive</w>
le gs</w>
u tions</w>
A ff
A g
P al
C anc
vers al</w>
re r</w>
ir s</w>
tru th</w>
res ources</w>
fer ence</w>
as king</w>
Hum an</w>
f resh</w>
ilos oph
sus p
C old</w>
phys ics</w>
explan ation</w>
E ach</w>
V iew</w>
ri er</w>
bu b
Ch eck</w>
2 6
vo tes</w>
purch ase</w>
I D</w>
survi ve</w>
w age</w>
s atell
d ings</w>
In v
ic o</w>
wor kers</w>
ci ties</w>
x imum</w>
be y
U N
cre ating</w>
p il
par ties</w>
partic ularly</w>
r a</w>
back ground</w>
W atch</w>
po in
mas sive</w>
H er
le ading</w>
beg inning</w>
respon sible</w>
at oms</w>
re ci
arg ument</w>
os s</w>
applic ation</w>
ex change</w>
clim ate</w>
Med ic
smo king</w>
au dio</w>
son gs</w>
sum mer</w>
re di
det ails</w>
tion ing</w>
auti ful</w>
photo s</w>
fac tur
Pro t
pl at
har m
pro ve</w>
So ci
big gest</w>
9 0</w>
E mp
P en
W est
f alling</w>
B ad</w>
religi on</w>
C en
inv estig
US B</w>
f ro
M ul
effici ent</w>
p ages</w>
Fe deral</w>
aliz ation</w>
Ar tic
8 .
qu ick</w>
n on
Bo dy</w>
p ush</w>
mater ials</w>
com plic
r o</w>
m m</w>
S ta
fi x</w>
We b</w>
19 7
qu o
oc ean</w>
ti li
mar k</w>
ph en
ti ll</w>
ou l
en sure</w>
re vol
M uch</w>
is ms</w>
tin y</w>
Pl ay
ish ed</w>
Rev iew</w>
imag ine</w>
z en</w>
l ands</w>
no v
F am
ra ft</w>
bey ond</w>
tre at</w>
li e</w>
sel ling</w>
L ong</w>
Ac c
ma gn
H ear
pho to</w>
il et</w>
ing redi
N atur
con trac
T ru
a id</w>
uc k
S A</w>
t on
W est</w>
y n
Pho to
Isra el</w>
su per</w>
w aste</w>
clo ser</w>
Russi an</w>
for tun
Con gress</w>
gu ide</w>
sour ces</w>
ch ers</w>
S il
O ut
ke eping</w>
tis m</w>
elec tro
A tt
ord ers</w>
Ama z
hy dr
pro of</w>
acc eler
D et
f ra
con flic
it ors</w>
fel t</w>
Rep ly</w>
charac ters</w>
wor ked</w>
St ar
supp osed</w>
xi ety</w>
re main</w>
re al
n it
neu tr
Th ings</w>
2 7
rela tive</w>
pres cri
6 0
norm ally</w>
spe aking</w>
M en</w>
displ ay</w>
con nect</w>
amer ican</w>
web sites</w>
b ow
Sch ool</w>
it able</w>
mo ther</w>
em erg
sti mul
addi tional</w>
sal es</w>
D O
a i</w>
Net flix</w>
s ity</w>
sto red</w>
M ex
sh or
p ful</w>
pass ed</w>
S we
po p</w>
W eb
sto res</w>
veg et
f an</w>
inter ested</w>
Bu y</w>
ar ity</w>
sid es</w>
fac es</w>
ro l
e br
oun ded</w>
NAS A</w>
te ach
res sion</w>
sp ot</w>
thro at</w>
ra ti
foo t</w>
f air</w>
advant ages</w>
incre ases</w>
Gu ide</w>
P O
ri es</w>
occur s</w>
ac id</w>
oc ks</w>
t an
res sed</w>
tur ning</w>
infl ation</w>
no tes</w>
cap it
off ers</w>
s chools</w>
electr ical</w>
inst all
Ca uses</w>
pre vious</w>
C are</w>
ra tic</w>
ver si
per haps</w>
program ming</w>
s low
men tioned</w>
an nel</w>
G ames</w>
Sci enti
stor age</w>
bas is</w>
pr on
fru it</w>
W ed
T al
st eps</w>
i .
s old</w>
be er</w>
un s</w>
ter ror
ing ing</w>
dr inks</w>
loo ked</w>
mir ror</w>
V ol
D ru
E g
electr ons</w>
behavi or</w>
le tter</w>
rela tively</w>
z one</w>
J av
Ar chi
foo tball</w>
ad em
imm ig
c lock</w>
hol es</w>
minut e</w>
ing u
provid ed</w>
C ard</w>
tradi tional</w>
inst ance</w>
bro ken</w>
h op
beg an</w>
prote in</w>
in k
pu bl
win dows</w>
sle eping</w>
me et</w>
Th ose</w>
eg gs</w>
9 9</w>
th es</w>
op inion</w>
natur ally</w>
P ic
sti c</w>
to x
cam pa
r on
S atur
V is
Or g
equ i
ur ies</w>
hi stor
P i
char acter
z a</w>
influ ence</w>
con serv
ic als</w>
tt ers</w>
Bo th</w>
R ob
regi on</w>
meth ods</w>
bir ds</w>
W ay</w>
avi d</w>
4 5</w>
lear ned</w>
sur r
Amaz on</w>
di um</w>
’ d</w>
v itam
W ash
stu dies</w>
f ake</w>
play ed</w>
accur ate</w>
har der</w>
T R
ex cept</w>
defin ed</w>
ed ly</w>
Wh e
in os
remo ved</w>
dri ver</w>
stre am</w>
cen tr
molec ules</w>
won der</w>
ar r
oun ced</w>
ma p</w>
P u
Twit ter</w>
for c
et e</w>
inc t</w>
m ig
S am
ess ays</w>
notic ed</w>
kin ds</w>
B al
re sear
s y</w>
Micro soft</w>
ma thema
f ill</w>
e u
Stu d
e .</w>
200 6</w>
le ment</w>
in esses</w>
Wi ki
st ain
fr ame</w>
P S
qu antum</w>
st ories</w>
mat h</w>
su s</w>
cle arly</w>
c us
Fri day</w>
ra ise</w>
vis it</w>
p et
imm une</w>
charac ter</w>
Ke ep</w>
T ex
ep is
appro pri
s it</w>
S earch</w>
tel evision</w>
che ap</w>
qu ar
ou ra
oper ating</w>
t el</w>
St ar</w>
B ook</w>
y l
estab li
Bl ue</w>
ol er
S leep</w>
amaz ing</w>
fam ous</w>
fe ature</w>
l oud</w>
cri sis</w>
graph ic</w>
Au th
tra in</w>
at tle</w>
ph ot
Mus li
ex act</w>
on ym
E L
f ar
me ant</w>
E M
V E</w>
fin al</w>
common ly</w>
trans fer</w>
Ir an</w>
eng ines</w>
m ist
stat ement</w>
F ol
t ally</w>
Ch o
bur ning</w>
am p</w>
May be</w>
val u
P an
ac tivi
a i
spe eds</w>
loc ated</w>
t ab
tici p
pop ul
ti s</w>
spe ech</w>
j e
const antly</w>
s nee
roc k</w>
Re al</w>
circ um
c ell
am ounts</w>
Sol ar</w>
prot ection</w>
clo sed</w>
de pression</w>
sign s</w>
S ign</w>
oo th
5 %</w>
bo tt
a str
l u
ut ely</w>
t ex
i v
deb ate</w>
c up</w>
P op
M al
Govern ment</w>
sp ending</w>
L ove</w>
en s
M iddle</w>
gir ls</w>
over all</w>
M an</w>
an ish</w>
3 5</w>
W as</w>
Ger man</w>
mo di
stre t
ic ks</w>
pre par
con cl
a ks</w>
pres sed</w>
Par ty</w>
flo or</w>
om en
we ird</w>
ro te</w>
s ale</w>
Can a
for get</w>
k illed</w>
P ress</w>
Gre en</w>
specif ically</w>
s m</w>
Ex p
main tain</w>
L ook</w>
form er</w>
success ful</w>
pati ents</w>
doc tors</w>
Differ ent</w>
bre ak
r yp
gener ation</w>
S cot
st ations</w>
hand le</w>
ep t</w>
sol ve</w>
9 .
dis covered</w>
equ ipment</w>
Th ink</w>
ef ully</w>
ex ter
T el
ie ws</w>
in si
g a
G ar
publi shed</w>
dre ds</w>
Uni verse</w>
call s</w>
ro ll</w>
H un
f al
0 1</w>
In stead</w>
la m</w>
fac tor</w>
incre asing</w>
o k
A B
Ge or
Dig ital</w>
pe e</w>
plan es</w>
ha m
ex pos
ser ved</w>
m al</w>
e ase</w>
consi st
sit ting</w>
ear lier</w>
pro mo
appro ach</w>
P at
p utting</w>
: 00</w>
list en</w>
A R</w>
mor t
slow ly</w>
pro per</w>
adver ti
With out</w>
b ol
dra w</w>
Ques tion</w>
iz ing</w>
ox ide</w>
Sh ow
p al
go al</w>
sign als</w>
te e</w>
f air
mo de</w>
i ther</w>
lo an</w>
F i</w>
O ff</w>
den ly</w>
bl ing</w>
S i
co m</w>
citiz ens</w>
1 st</w>
gir l</w>
a c</w>
al ty</w>
temper atures</w>
Wash ington</w>
19 6
g in</w>
F ree
show er</w>
gra du
stric t</w>
ra w</w>
cen tral</w>
ad ults</w>
ec tively</w>
au l</w>
Au g</w>
religi ous</w>
7 .
C el
t ests</w>
We ight</w>
M e</w>
bec oming</w>
au di
al ed</w>
tw ice</w>
Li ve</w>
le t
mi x</w>
Do g</w>
enc ing</w>
gr y</w>
T it
F oo
I ra
des p
y e</w>
S O
S ou
h osp
cir cu
h ome
offic ial</w>
ess ential</w>
v acc
requi re
ass ume</w>
Dem ocr
6 .
gene tic</w>
C enter</w>
el ds</w>
ri ble</w>
/ 0
b right</w>
Pho to</w>
D ata</w>
high est</w>
m oun
ac ting</w>
Un der</w>
ten sion</w>
gg ed</w>
aff ected</w>
Un ion</w>
i. e.</w>
sp ort</w>
con tr
I tal
E r
L it
func tions</w>
ha el</w>
B ank</w>
ul a</w>
ex cl
he ads</w>
lap top</w>
w rote</w>
manu factur
ati ves</w>
Ch il
al lowing</w>
fing er</w>
si mul
pre fer</w>
ci l</w>
re ve
con stitu
k ies</w>
to ols</w>
Wor ds</w>
cop y</w>
gl and</w>
p ter</w>
dou b
en ta
C y
oc ratic</w>
H I
ent ary</w>
ol ate</w>
streng th</w>
o v
employ ment</w>
fin ally</w>
t ree</w>
won dering</w>
ke ys</w>
ti tle</w>
le aves</w>
H al
li fe
l d
Comm un
ob vious</w>
dom in
s etting</w>
d less</w>
D avid</w>
g .</w>
in struc
us ual</w>
en ge</w>
S top</w>
in str
a f</w>
bab ies</w>
ad ult</w>
U T
ic ide</w>
descri be</w>
tar get</w>
brow ser</w>
acu um</w>
ke eps</w>
comb ination</w>
accep t</w>
inst all</w>
b ought</w>
sp ring</w>
other wise</w>
hor iz
bud get</w>
bro wn</w>
par ent</w>
de ep
s ul
down lo
w ash</w>
at omic</w>
su ff
employ ees</w>
s ev
m as</w>
inf ection</w>
val ent</w>
l ying</w>
di c</w>
ur al</w>
c os
n ar
H ome
brea thing</w>
gr am
pl ans</w>
hy po
su it</w>
g ers</w>
lay er</w>
rema ins</w>
Mon day</w>
col our</w>
ath room</w>
T agged</w>
r are</w>
n u
k new</w>
S ource</w>
y ers</w>
comp are</w>
cri minal</w>
par ticip
mat ch</w>
val ues</w>
T op
st able</w>
P A</w>
for ced</w>
do ors</w>
re alize</w>
z er</w>
uni ties</w>
p et</w>
ab or
L angu
Re ally</w>
ple as
chem icals</w>
20 00</w>
t v</w>
br ought</w>
ec t
V s</w>
own ers</w>
inter nal</w>
piec es</w>
uc ks</w>
la un
be autiful</w>
ong ue</w>
bu t
ari an</w>
Publi c</w>
gu il
M ob
p re</w>
ast s</w>
ph er
bus inesses</w>
For um</w>
id ing</w>
fun ny</w>
dec i
D E
artic les</w>
ap art</w>
B ill</w>
g ave</w>
T S</w>
id a</w>
th row</w>
pati ent</w>
le tters</w>
P sy
w est</w>
consci ous</w>
hun dreds</w>
O rig
gener ate</w>
200 5</w>
ec e</w>
proc ed
No te</w>
Dev el
ru b
gu ar
B rit
pre me</w>
resol ution</w>
B ir
ne igh
c in
invest ment</w>
ad ly</w>
re duc
M er
Ar ab
In formation</w>
ste in</w>
Ad d</w>
res ses</w>
P D
10 0
con v
2 8
ta il</w>
G ol
sp ent</w>
re place</w>
Syri a</w>
H is</w>
di am
ath le
ar ri
qu es</w>
Chri st
p ath</w>
Me dia</w>
so da</w>
et ary</w>
as ks</w>
electr onic</w>
c ross</w>
H ot</w>
shif t</w>
poli tics</w>
s now</w>
pass word</w>
v oc
pos es</w>
mod els</w>
E dit</w>
recei ved</w>
o logical</w>
Re as
includ ed</w>
vehic les</w>
activi ties</w>
ash es</w>
vic ti
if y</w>
capac ity</w>
w et</w>
tru ly</w>
A A</w>
stri al</w>
mar riage</w>
ast ing</w>
Wor ks</w>
os ing</w>
pi x
or ized</w>
ma tic</w>
P E
J es
Tim es</w>
par al
tr ouble</w>
y ou
an cient</w>
per form</w>
Be ing</w>
S ound</w>
cre am</w>
Sto ck</w>
M O
con sequ
,, ,
air craft</w>
w er</w>
w ine</w>
L ist</w>
t ool</w>
ate gy</w>
E U</w>
O ld</w>
col on
wor ry</w>
possib ly</w>
end ment</w>
k ept</w>
Sec ond</w>
hydro gen</w>
fin ding</w>
fun dam
che aper</w>
fing ers</w>
nor th</w>
pl ate</w>
hol ding</w>
sur gery</w>
u x</w>
off ici
F L</w>
att acks</w>
ph r
ti t
determin ed</w>
dise ases</w>
om y</w>
mar keting</w>
Per son
fortun ately</w>
fam ili
dom es
dri vers</w>
clo thes</w>
medic ine</w>
D C</w>
po t</w>
G H
t esting</w>
D own</w>
6 4</w>
Com ment</w>
sensi tive</w>
cle an
mach ines</w>
el im
cl ass
patter n</w>
w ire</w>
mo ves</w>
cigaret tes</w>
C am
sub scri
any way</w>
st uck</w>
ma ximum</w>
ba g</w>
br an
in d
show ing</w>
th m</w>
experi enced</w>
ol ine</w>
ess ed</w>
ed ge</w>
bom b</w>
ess entially</w>
reas on
ha ven
J an</w>
c au
e ast</w>
alter native</w>
g as
lo sing</w>
ad ding</w>
H D
whe el</w>
J er
di r
if ied</w>
ho p</w>
D ol
r ors</w>
inj ury</w>
str onger</w>
le aving</w>
ag er</w>
to ilet</w>
LE D</w>
absol utely</w>
Fr ance</w>
acc ounts</w>
the tic</w>
st one</w>
c ru
explain ed</w>
tr um</w>
tr ust</w>
sta ur
g age</w>
Tran s
titu de</w>
re staur
s ons</w>
t y
compar ison</w>
C hi
explain s</w>
n or</w>
d enti
i ously</w>
any where</w>
en ever</w>
exist ing</w>
T em
D re
E LI
L ar
Tech nology</w>
wal king</w>
ad y</w>
repor ted</w>
re lev
Afr ican</w>
Pol icy</w>
N uclear</w>
e. g.</w>
l ation</w>
e ous</w>
ist an</w>
lin ks</w>
qu al
anal y
V en
cop e</w>
d d
iz ations</w>
stop ped</w>
r out
p as
h ost</w>
10 0%</w>
Mic hael</w>
Op en</w>
ven tion</w>
anc ing</w>
Ther efore</w>
in ations</w>
applic ations</w>
identi fy</w>
E duc
ch icken</w>
K no
oo d
sud denly</w>
cri pt</w>
intellig ence</w>
nec k</w>
emp ty</w>
Wiki pedia</w>
ur s
g ori
so ap</w>
M ac
perc ent
H igh
Ta x</w>
microw ave</w>
t own</w>
cl ou
/ or</w>
complic ated</w>
necess arily</w>
is s</w>
DV D</w>
oun ce</w>
G lobal</w>
s ad</w>
Dri ve</w>
oc olate</w>
per man
se em
A G
wee k
r is</w>
succ ess</w>
pol l
char ges</w>
The ory</w>
M ach
v a</w>
incre di
ur ation</w>
Tu esday</w>
eff ort</w>
G rou
b one</w>
G ree
sign ed</w>
discus sion</w>
n ations</w>
and /or</w>
desp ite</w>
k n
m it</w>
ac tors</w>
Natur al</w>
be at</w>
L Y</w>
res ul
y st
resist ance</w>
res er
adv ice</w>
g ay</w>
g all
stre et</w>
cap able</w>
Bit coin</w>
extre me</w>
ac tiv
ob serv
vir uses</w>
le g</w>
Anim als</w>
enc oura
phen omen
dro me</w>
figh ting</w>
manag ement</w>
ti le</w>
An al
Ch ange</w>
W W
K ey
L E</w>
ffer ed</w>
S up
ou se
appropri ate</w>
to tally</w>
Pro ble
squ are</w>
row ing</w>
con fir
oo p</w>
ond on</w>
stitu te</w>
lo gi
ec tly</w>
sec ts</w>
af ter
claim s</w>
conflic t</w>
an xiety</w>
Con tin
proper ties</w>
Tex as</w>
loc ks</w>
enti rely</w>
C amer
s outh</w>
clo s
T ry</w>
is tics</w>
itch en</w>
ec raft</w>
tre es</w>
Ra dio</w>
De partment</w>
I M
cat ch</w>
st on</w>
scen e</w>
ell ed</w>
aut om
rep ly</w>
some where</w>
le x</w>
refer ence</w>
C er
I mage</w>
F re
frequ ently</w>
spe akers</w>
Pro f
. [
p ool</w>
En gland</w>
F la
W at
D en
M at
S au
attemp t</w>
por tion</w>
onym ous</w>
char ging</w>
D ark</w>
fe ed</w>
es ome</w>
P ur
tri al</w>
il ies</w>
ra ine</w>
Sun day</w>
P aul</w>
any more</w>
tow ard</w>
Re gi
in dependent</w>
D s</w>
il ed</w>
tra ding</w>
ab ilities</w>
U l
St art</w>
plu g</w>
fi xed</w>
Rem ember</w>
op tim
sk ills</w>
t ren
rati o</w>
An g
f ans</w>
ci vil</w>
sch ed
f illed</w>
fi re
sev ere</w>
cre ates</w>
As soci
se at</w>
P ages</w>
partic le</w>
gra ph</w>
tre ated</w>
refer red</w>
Stre et</w>
am ent</w>
hel pful</w>
Hum ans</w>
wh ose</w>
fl ying</w>
Pro c
C I
N on</w>
ap ps</w>
pro p
po st
l uc
ch ro
t ells</w>
u tive</w>
C R
O il</w>
n ic
st om</w>
automa tically</w>
dem on
am a
experim ent</w>
stat us</w>
weal th</w>
cor n</w>
exist ence</w>
ingredi ents</w>
hard ware</w>
Th an</w>
leg is
S um
E qu
Sup er</w>
so le</w>
Med ical</w>
wh ere
S how</w>
viol ence</w>
perc ei
B O
it ar</w>
Devel op
cri tical</w>
Su per
il lion</w>
anti bio
form at</w>
Mo der
un d
Mar ket</w>
run s</w>
pol ic
custom er</w>
n esday</w>
Rep ort</w>
smar t</w>
def ense</w>
Pr ice</w>
Republ ican</w>
Ma c</w>
perf ectly</w>
communic ation</w>
qu anti
p ha
Comm on</w>
sent ence</w>
mis sing</w>
Al l
differ ently</w>
camer as</w>
ac t
free dom</w>
um in
M ar</w>
ex ists</w>
Ques tions</w>
chall eng
H air</w>
F u
vol tage</w>
ph ilosoph
fl u</w>
Bet ter</w>
A .</w>
ex posed</w>
Movi e</w>
Pol ice</w>
C ir
st ati
pap ers</w>
re stric
ad minist
famili ar</w>
D ra
liter ally</w>
R ic
enc ryp
wor st</w>
fair ly</w>
W el
infin ite</w>
C a</w>
Org an
hi on</w>
li p
Cana dian</w>
con tract</w>
B ay</w>
f ather</w>
expos ure</w>
Pl us</w>
er ror</w>
M u
graph ics</w>
swe et</w>
J ames</w>
descri bed</w>
oc ity</w>
di tion</w>
us ive</w>
ven ue</w>
Ira q</w>
es cap
bu s</w>
fri end
flu id</w>
op ping</w>
sc ore</w>
g ain
ow ner</w>
an o</w>
sugg est</w>
s lower</w>
e en</w>
brea the</w>
nam ed</w>
t ongue</w>
S cre
emerg ency</w>
on al</w>
at om</w>
bre aking</w>
Contro l</w>
ag ram</w>
recomm end</w>
Imag es</w>
es el</w>
ast er
Don ald</w>
Wed nesday</w>
me al</w>
tech no
C all</w>
F ur
H on
con vers
av ig
d il
por n</w>
An ti</w>
Sof tware</w>
ang ing</w>
A S</w>
2 9
or ida</w>
campa ign</w>
sec ure</w>
v ous</w>
repor ts</w>
un its</w>
opport unity</w>
che ese</w>
es tim
cap ital</w>
S qu
L u
el ine</w>
sa tis
Ju l</w>
ess or</w>
she et</w>
or ation</w>
---- ----
A D</w>
mi um</w>
ul ate</w>
dec ades</w>
k i</w>
G ir
L ondon</w>
f ying</w>
app lied</w>
ish ing</w>
IS IS</w>
m et</w>
up date</w>
at ers</w>
vo ting</w>
Pr o</w>
coll ap
ous ness</w>
regar ding</w>
cl oud</w>
eb all</w>
urs day</w>
inte gr
S till</w>
r ul
our selves</w>
ha m</w>
develop ing</w>
medi um</w>
del eted</w>
s la
Spe ed</w>
Ar t</w>
Fe b</w>
n d</w>
hun gry</w>
si tion</w>
Sec re
sh ut</w>
for d</w>
ran ts</w>
occ as
A ut
we aring</w>
coun ter
le ads</w>
rec ep
V eg
f lies</w>
j ump</w>
k id
E N</w>
ob viously</w>
a head</w>
in ally</w>
b unch</w>
Bab y</w>
sib ility</w>
t elling</w>
v ement</w>
0 8</w>
o log
g oods</w>
g ri
coo king</w>
Ma p</w>
ab use</w>
T es
f alls</w>
ra id</w>
Tre at
Y O
in ch</w>
relev ant</w>
eg g</w>
S D</w>
ill er</w>
F ore
ain t</w>
ail ed</w>
oo m</w>
lo s
H T
r ough</w>
ati n</w>
0 5</w>
O h</w>
ri min
Net work</w>
control led</w>
s ession</w>
URL_ 3</w>
leg ally</w>
u tionary</w>
m id
Sy n
ay ed</w>
He ad
te a</w>
F A
cr ash</w>
j ec
pl enty</w>
ra ys</w>
Jes us</w>
In surance</w>
adv anced</w>
t ation</w>
C E
dis order</w>
wi reless</w>
Tra vel</w>
y a</w>
U k
mp h</w>
dis h</w>
appro xim
G as</w>
mo ved</w>
L ev
C ra
CP U</w>
v ents</w>
D om
sh it</w>
G O
H om
sw it
C C</w>
ici ous</w>
if ic</w>
o ven</w>
ju ice</w>
In c
0 2</w>
T O
percent age</w>
f are</w>
M E</w>
Th ursday</w>
ti p</w>
3 00</w>
Li ber
sh op</w>
ster ed</w>
st ration</w>
Publi shed</w>
il er</w>
AM E</w>
cha in</w>
u ting</w>
organ ization</w>
2 2
doc um
Movi es</w>
sh el
Up dated</w>
v ary</w>
B ul
tri bu
e uro
war ming</w>
op ening</w>
West ern</w>
we ak</w>
em is
ali ties</w>
v ely</w>
200 4</w>
guar an
v acuum</w>
u pper</w>
St and
ap preci
Christi an</w>
D ate</w>
tis sue</w>
aff ects</w>
the ories</w>
thre at</w>
ri ger
Mob ile</w>
e ing</w>
w illing</w>
mar t</w>
al bu
B atter
rou gh
u gg
com pl
Serv ices</w>
p ig
C ro
p itch</w>
200 3</w>
ast ern</w>
min or</w>
ch est</w>
inf o</w>
uni on</w>
sens ation</w>
cra zy</w>
Sp anish</w>
per spective</w>
g uns</w>
i tive</w>
H aw
Pl ay</w>
An ti
I ce</w>
C oo
w av
dem ocr
pri son</w>
Th us</w>
E at</w>
y l</w>
lo ans</w>
gen es</w>
r ar
F ran
resp ect</w>
secre t</w>
le ments</w>
w ild</w>
fic ation</w>
achi eve</w>
Y ear</w>
sp in</w>
ro oms</w>
S T</w>
A v
. <B></w>
e er</w>
co ins</w>
ti fy</w>
g on</w>
ali an</w>
ou ter</w>
B ut
P ac
er a</w>
Su preme</w>
For ums</w>
ing er</w>
t ank</w>
Ri ghts</w>
fic ial</w>
Ju n</w>
org ans</w>
Typ e</w>
Rel ated</w>
6 5</w>
low ers</w>
L oo
emo tional</w>
de al
Christ mas</w>
e ah</w>
n ails</w>
meas ured</w>
b lo
ti al</w>
y cl
v ap
oper ation</w>
tain ing</w>
con struction</w>
Asi a</w>
G old</w>
coll ection</w>
ef s</w>
As k</w>
E m
fl ash</w>
en try</w>
cre te</w>
0 6</w>
pre sidential</w>
Phys ics</w>
str ing</w>
conven i
o ids</w>
H as</w>
en h
go t
Bas ically</w>
Ap r</w>
tem por
W all</w>
O K</w>
mar kets</w>
out put</w>
Cur ren
list ening</w>
on ics</w>
K ing</w>
C E</w>
sun g</w>
correc tly</w>
mon itor</w>
th anks</w>
org an</w>
Sim il
00 0
Ben ef
I ON</w>
Fl orida</w>
tici ans</w>
is s
d inos
In dian</w>
health care</w>
ra ised</w>
an no
el ement</w>
dri ves</w>
id ity</w>
E p
Cont act</w>
en e</w>
repres ent</w>
1 :
consi der
Num ber</w>
Cop yright</w>
it em</w>
n ucle
M S</w>
s ample</w>
M el
Col l
De c</w>
B rain</w>
vel ocity</w>
subst ance</w>
net works</w>
ther apy</w>
compon ents</w>
i stry</w>
A P</w>
fun ds</w>
Off ice</w>
H u
id den</w>
patter ns</w>
harm ful</w>
cro s
O per
S ports</w>
S ig
lun gs</w>
fam ilies</w>
et te</w>
re plac
S imp
d ust</w>
discus s</w>
situ ations</w>
con cep
aur s</w>
Every one</w>
sp id
en ting</w>
and a</w>
typ ical</w>
fal se</w>
pre fer
pay ment</w>
man age</w>
fil ms</w>
ad ju
a kes</w>
L im
transm ission</w>
b ia</w>
tain ed</w>
f actu
ef t</w>
spec trum</w>
th in</w>
Re g
ad op
exter nal</w>
wid th</w>
u d</w>
J our
provid ing</w>
process es</w>
cr ack</w>
G etting</w>
or ange</w>
Bu il
Pr in
h an
al gori
kno wing</w>
auth or</w>
bu gs</w>
M r
ali ve</w>
Happ ens</w>
0 7</w>
en n
mo tor</w>
meas ure
jo in</w>
S mo
li sted</w>
ir on</w>
te ams</w>
galax y</w>
C ul
coun ter</w>
he av
ann els</w>
ir t</w>
doub t</w>
spl it</w>
ar ance</w>
str ategy</w>
ch er</w>
Every thing</w>
s na
Canc er</w>
ste el</w>
K ar
tain ment</w>
0 4</w>
swe at</w>
dom ain</w>
ush ed</w>
experi ences</w>
J us
C lo
C .</w>
Mex ico</w>
S S</w>
Archi ves</w>
Col or</w>
ac comp
sh ing</w>
In f
b ow</w>
H ard</w>
sch em
bre ad</w>
k il
C ats</w>
mur der</w>
No v</w>
br ary</w>
la unch</w>
0 3</w>
emo tions</w>
bl ind</w>
K ids</w>
S an</w>
Gree k</w>
phys ically</w>
t ac
am ps</w>
I de
al u
l ens</w>
view ed</w>
o k</w>
s even</w>
got ten</w>
bo y</w>
sp er
bra ins</w>
b ones</w>
Brit ain</w>
es sive</w>
Comp any</w>
ic it</w>
ag ement</w>
sym bo
it er</w>
br ush</w>
el ings</w>
Al cohol</w>
snee ze</w>
air s</w>
ref er</w>
a wn</w>
10 00</w>
concer ned</w>
7 5</w>
recogn ize</w>
g aming</w>
hol ds</w>
me an
tu red</w>
en able</w>
evol ved</w>
F ast</w>
Chil dren</w>
ch annel</w>
W ant</w>
consum ers</w>
en ger</w>
prac tic
h im
sh all</w>
lif t</w>
har m</w>
am e
p ack</w>
ic ial</w>
lim its</w>
d ly</w>
Des ign</w>
he ight</w>
cont ext</w>
Heal th
resp ond</w>
pu ts</w>
cau ght</w>
pl ays</w>
et es</w>
acc o</w>
Educ ation</w>
eff ectively</w>
st up
B lood</w>
am ples</w>
t oler
signific antly</w>
Sen ate</w>
ner ship</w>
Ch urch</w>
a u</w>
process ing</w>
Fam ily</w>
Oc t</w>
I P
5 5</w>
3 3</w>
j ury</w>
li sm</w>
man ual</w>
V P
E mail</w>
guil ty</w>
amer ica</w>
beli ev
A gain</w>
oper ate</w>
acc id
uni versal</w>
YO U</w>
k illing</w>
contr ast</w>
Th ank</w>
ul ty</w>
N ame</w>
mem ories</w>
r d</w>
th ir
ne ar
S U
az ine</w>
ge ar</w>
p air</w>
c ure</w>
k ne
W il
Ra di
f ail</w>
k top</w>
f ul
stati s
In tro
dep th</w>
flav or</w>
produc ing</w>
acc ident</w>
de pos
L ow</w>
sp i
Republ icans</w>
p ir
or a</w>
ori ties</w>
aut y</w>
J ud
ta x
the ore
ell ent</w>
ch urch</w>
install ed</w>
m ise</w>
ar gu
resear chers</w>
ut y</w>
sel ection</w>
shar es</w>
cir cle</w>
light ning</w>
agre ement</w>
Dis cus
P ay
every where</w>
pur poses</w>
g ol
re views</w>
ess ing</w>
fun d</w>
cel ebr
wa iting</w>
int ended</w>
p it
c k
galax ies</w>
e ine</w>
free ze</w>
B an
ser ving</w>
ari o</w>
we ster
Y et</w>
fol lowed</w>
W illi
m on</w>
am ine</w>
n one</w>
j um
fing er
cu ts</w>
organ isms</w>
Ex per
B ud
su ffer</w>
m ic</w>
w ife</w>
Priv acy</w>
ang er</w>
bo ts</w>
exp anding</w>
instruc tions</w>
T est</w>
re land</w>
aw ake</w>
ic ation</w>
mar ks</w>
circu it</w>
candi date</w>
red dit</w>
2 ,
ac ted</w>
every day</w>
bu m
diag no
ner vous</w>
ra p</w>
brea ks</w>
D R
occ er</w>
le gi
chall enge</w>
0 9</w>
competi tion</w>
recomm ended</w>
stop s</w>
stre aming</w>
ill ness</w>
u tili
ra d
read s</w>
gg ing</w>
arti ficial</w>
or ded</w>
or ial</w>
r ying</w>
S P
r ating</w>
Tes la</w>
p ump</w>
sel ect</w>
contin ues</w>
L atin</w>
intro duction</w>
Se x</w>
es tion</w>
af f</w>
Ch em
ne ur
pro mis
tri p</w>
Ac tually</w>
Typ es</w>
Sm all</w>
un able</w>
b ite</w>
Asi an</w>
gres sive</w>
b ills</w>
tor al</w>
j et</w>
Geor ge</w>
0 8
ri de</w>
li ved</w>
S a
L aw
Langu age</w>
a ked</w>
te ach</w>
it er
prot ected</w>
main ly</w>
pri mar
spe aker</w>
el ed</w>
or al</w>
in y</w>
e ight</w>
inter pre
b athroom</w>
um b</w>
cul tural</w>
E T</w>
ma r</w>
ter ed</w>
C ars</w>
b ility</w>
n ings</w>
l es
produc es</w>
rel ation</w>
c utting</w>
stand ards</w>
distribu tion</w>
ic tion</w>
t ech</w>
­­­­ ­­­­
exper ts</w>
e a</w>
ot a</w>
commun ism</w>
v in
Th ree</w>
cri mes</w>
Cal cul
Is lam
ref ers</w>
beg ins</w>
si der</w>
ex ual</w>
regar dless</w>
Tal k</w>
b loo
D O</w>
plat form</w>
import ance</w>
establi shed</w>
adverti sing</w>
gr ams</w>
lic ense</w>
vis ual</w>
par ently</w>
a do</w>
polic ies</w>
Sau di</w>
su es</w>
vi et</w>
gas oline</w>
a do
Grou p</w>
det ect</w>
mi xed</w>
K ing
N FL</w>
Is lam</w>
r ics</w>
h ell</w>
ro ot</w>
attrac tive</w>
satell ite</w>
cir cul
Ap p</w>
ber g</w>
AL L</w>
ic on</w>
require ments</w>
D ar
t ary</w>
Elec tric</w>
cover age</w>
se y</w>
A F
identi ty</w>
us age</w>
4 00</w>
h omes</w>
organ ic</w>
4 8</w>
fe elings</w>
d ay
ut ation</w>
he ating</w>
10 80
t ask</w>
C A</w>
t om
ma ster</w>
H aving</w>
ly mp
wid ely</w>
l or
fi elds</w>
cr yp
in put</w>
p ure</w>
C ub
pregn ant</w>
mess ages</w>
ch annels</w>
pl ying</w>
Coun ty</w>
govern ments</w>
hel ped</w>
consum ption</w>
gi ant</w>
grav it
ec ture</w>
coo ked</w>
el ev
H i
men tion</w>
ELI 5</w>
poin ted</w>
ord able</w>
v or
ann ab
jud ge</w>
g ate</w>
b onds</w>
le x
smar t
ur ine</w>
9 5</w>
f os
tri g
won dered</w>
det ail</w>
j ective</w>
os is</w>
S ize</w>
ab led</w>
pri me</w>
fundam ental</w>
con struc
comfor t</w>
H and
a x</w>
Wor k
S ep</w>
su bre
corpor ate</w>
M B</w>
arti sts</w>
C oc
S po
h ouse
reason able</w>
9 /
approxim ately</w>
0 3
A ge</w>
him self</w>
initi al</w>
A Y</w>
rec ords</w>
si ght</w>
head phones</w>
Lin ux</w>
Bo ard</w>
min im
we l</w>
cur ious</w>
ide al</w>
consum er</w>
ac tor</w>
al arm</w>
fail ure</w>
g oogle</w>
r on</w>
w on</w>
medic ation</w>
ou ts</w>
communic ate</w>
u ght</w>
F ire</w>
fac ing</w>
til ity</w>
sett ings</w>
Whe ther</w>
Eg yp
id ly</w>
t es
in stein</w>
str ange</w>
conver t</w>
Ch ro
M E
fore ver</w>
forc ement</w>
deci sions</w>
shoo ting</w>
techni ques</w>
s or</w>
o g</w>
logi sts</w>
adm in</w>
sk ip</w>
su icide</w>
po int
Ter ms</w>
ac es</w>
pr ic
exc ellent</w>
D u
aff ord</w>
ici ent</w>
pe d
pr o</w>
Se a</w>
conf used</w>
sid ents</w>
G AME</w>
po c
occ up
wat er
beli eved</w>
Com mer
en em
Mul ti
D P</w>
rec ording</w>
H i</w>
on ed</w>
re placed</w>
str ong
h us
ho li
O k
pow ers</w>
tim ately</w>
v ey</w>
lead er</w>
D S</w>
E ye</w>
call ing</w>
E ver</w>
shoo t</w>
wester n</w>
hous es</w>
princi ple</w>
.... ....
den sity</w>
Po st
n om
loc ked</w>
4 5
pow ered</w>
in fr
co res</w>
v an
sc ope</w>
I F
eng lish</w>
Cen tral</w>
re ase</w>
sp on
pri or</w>
pot entially</w>
N ever</w>
Fac ts</w>
e x</w>
Sub scri
cle aning</w>
k ar
P ain</w>
shar p</w>
ed it</w>
ti fied</w>
In du
ack ers</w>
a war
t ons</w>
De ath</w>
cre d
V ery</w>
in her
underst ood</w>
S pr
Gre ece</w>
i ties</w>
clou ds</w>
th read</w>
3 6</w>
ru pt</w>
manu factu
ro ads</w>
trav eling</w>
m l</w>
inde x</w>
ur o</w>
rep air</w>
Eff ects</w>
U r
wor ld
peri ods</w>
B E
nutri ents</w>
ter rit
wav el
For ce</w>
D aily</w>
acc oun
I l
Sh ar
it ness</w>
ound ation</w>
dr unk</w>
in sects</w>
sh aring</w>
hel ping</w>
or b
depend ence</w>
st aff</w>
str ateg
Di et</w>
possib ility</w>
e e
al ists</w>
ne uro
Co de</w>
B ack
def ault</w>
de st
lau gh</w>
min er
roc ket</w>
Ma j
l aser</w>
at en</w>
Scienti sts</w>
est er
Satur day</w>
St or
V ER
equi valent</w>
b low</w>
T ech</w>
ab etes</w>
attrac ted</w>
ear n</w>
S cript</w>
Sk in</w>
lab or</w>
c ry</w>
Un fortunately</w>
surr ounding</w>
dra w
O lymp
mo tiv
l in</w>
op posed</w>
si zes</w>
U L
ill a</w>
gen e</w>
pol y
li ver</w>
h a</w>
re duced</w>
op o
fil ter</w>
pregn ancy</w>
0 7
re verse</w>
lin ked</w>
f ant
ri sing</w>
Ser ies</w>
ph ase</w>
lo t
R un
fe es</w>
ir rit
prescri ption</w>
categ ory</w>
M ir
dis k</w>
ch at</w>
di al
cu ps</w>
c ook</w>
f ever</w>
posi tions</w>
ici ans</w>
Com par
pres ence</w>
demon str
sm ells</w>
lo aded</w>
log ic</w>
regul arly</w>
Poli tics</w>
ro p
accep ted</w>
exper t</w>
int on</w>
G alax
ch ri
M os
Bl ack
techn ical</w>
automa tic</w>
s ore</w>
mi x
comb ined</w>
ici an</w>
k id</w>
af raid</w>
te en</w>
sta tic</w>
ex ha
i est</w>
n avig
vo id</w>
candi dates</w>
E li
In cre
ab ase</w>
l ers</w>
disc rimin
R an
Benef its</w>
ori e</w>
Vide os</w>
st ated</w>
calcul ate</w>
bri dge</w>
b and
C at
S I
hand ed</w>
Sel f</w>
Mar k</w>
epis ode</w>
Bi ble</w>
ch ocolate</w>
some what</w>
ic king</w>
Auth or</w>
rou ter</w>
t one</w>
t une</w>
re venue</w>
stup id</w>
ster e
B A</w>
absol ute</w>
exp an
P aper</w>
ist er</w>
w il
S eas
bio logical</w>
g lo
Some one</w>
i ble</w>
d ress</w>
sp inning</w>
sun light</w>
C ell</w>
doc uments</w>
Eng ine
su m</w>
pro ven</w>
ow ned</w>
friend ly</w>
l ay</w>
f usion</w>
m amm
bl ack
s in
free zing</w>
S et</w>
buil dings</w>
N ight</w>
divid ed</w>
R emo
st ocks</w>
wh enever</w>
F em
belie f</w>
t ings</w>
lead ers</w>
perman ent</w>
F lo
na tion
fro zen</w>
T E
col der</w>
th ly</w>
co very</w>
T un
inc tion</w>
bal lo
appe ared</w>
dro ps</w>
mo ist
ap ple</w>
w alls</w>
col li
or ney</w>
2 nd</w>
where as</w>
bo t</w>
pl as
Gl ass</w>
re spec
ang es</w>
d ges</w>
uni versity</w>
Me an</w>
es h</w>
St ep</w>
f ab
re actions</w>
t um
meas ures</w>
W rit
R AM</w>
for um</w>
rec orded</w>
n ur
G P
Rom an</w>
pain t</w>
consequ ences</w>
fail ed</w>
sol di
re sted</w>
dec rease</w>
k er
Austr alian</w>
Ma king</w>
In de
v ast</w>
P C
dec reas
C ath
ie f</w>
h its</w>
id en
F at</w>
requ est</w>
S n
3 5
Im port
Par k</w>
Rev iews</w>
n esses</w>
bott les</w>
U C
sugg ests</w>
ta ught</w>
veget ables</w>
fi ber</w>
coo kies</w>
d red</w>
S ame</w>
domin ant</w>
Pl u
circum st
form ula</w>
di sh
ver sions</w>
y al</w>
de pres
li ps</w>
ter y</w>
H z</w>
log ies</w>
Wr iting</w>
S he
le l</w>
m ac
Po int</w>
I C</w>
offic er</w>
electr on</w>
im a</w>
l anding</w>
appe arance</w>
M ade</w>
eng ers</w>
Sam sung</w>
D A</w>
C as
audi ence</w>
g ely</w>
att ached</w>
Jo in</w>
Dru g</w>
ash ed</w>
ti re</w>
si l</w>
O ffic
cre ation</w>
u ps</w>
po is
N et</w>
L eft</w>
AR E</w>
phenomen on</w>
def ine</w>
lo ved</w>
A K
sp ots</w>
M L
th qu
c row
part ner</w>
allerg ies</w>
h oo
inde ed</w>
sol utions</w>
to b
l ou
M en
hy per
escap e</w>
lab el</w>
consi dering</w>
os en</w>
ner ve</w>
air plane</w>
u ality</w>
W ars</w>
w w
ent ally</w>
plic ation</w>
Th ough</w>
m itted</w>
ec tors</w>
Comm unity</w>
o x</w>
k m</w>
fe e</w>
cr yst
process or</w>
Reas ons</w>
n am</w>
invol ves</w>
an s
cri min
D .</w>
Pro gram</w>
Def ini
on a</w>
m in</w>
sh ared</w>
st ands</w>
ci vil
Moder n</w>
bo ys</w>
To o</w>
au to</w>
gl ing</w>
hosp ital</w>
character istics</w>
elec tions</w>
deli ver
ur t</w>
F OR</w>
athle tes</w>
A ri
B I</w>
ref riger
on e
our th</w>
ch ances</w>
S or
sh oul
3 4</w>
pain ful</w>
B S</w>
stri ke</w>
mul ti</w>
Supp ort</w>
W ays</w>
ra tional</w>
I t
M A</w>
St ation</w>
yr am
O f
A str
consum e</w>
Categ ories</w>
200 1</w>
ok ay</w>
gro wn</w>
ann ounced</w>
X box</w>
chi p</w>
p s
tast es</w>
T ou
relation ships</w>
O x
re l</w>
cl asses</w>
prac tical</w>
F er
adem ic</w>
offici als</w>
R ol
M ess
Uk raine</w>
0 5
plan ning</w>
E vol
sud den</w>
oper ations</w>
r hy
p ounds</w>
l ong
go ti
Mar ijuana</w>
pass ing</w>
if t</w>
F ar
reli able</w>
cigaret te</w>
D ic
c ub
b inary</w>
0 6
resul ting</w>
Produc ts</w>
am ed</w>
gener ated</w>
sle ep
sh ock</w>
col ours</w>
Rob ert</w>
19 5
0 4
youn ger</w>
Answ ers</w>
offic ers</w>
Pac ific</w>
exc ess</w>
dro pped</w>
Ar my</w>
y nam
ta p</w>
ber t</w>
str ugg
gre atest</w>
b alls</w>
met abo
arg ue</w>
engine ering</w>
p um
up dated</w>
S E</w>
pro jects</w>
ub ble</w>
b ever
t ested</w>
con cent
pe ace</w>
C at</w>
en der</w>
Cha pter</w>
concer n</w>
dec lar
techni que</w>
3 60</w>
au ghter</w>
p al</w>
es ides</w>
C ent
orig in</w>
bul let</w>
a ths</w>
k itchen</w>
Rel ig
ser iously</w>
convers ation</w>
chil d
gi a</w>
Con stitution</w>
mort gage</w>
vitam in</w>
d ose</w>
arti st</w>
co vers</w>
r ant</w>
oun c
orig inally</w>
Pro ject</w>
ne ither</w>
od es</w>
whe els</w>
oma tic</w>
some how</w>
L ist
econom ics</w>
go d</w>
b ird</w>
sh ell</w>
and ed</w>
U N</w>
po o</w>
o ffered</w>
Tit le</w>
Bro wn</w>
D ist
In di
bo ards</w>
K en
Deb t</w>
ligh ter</w>
F RE
Ci vil</w>
radi o
Lear ning</w>
y m</w>
mem ber
i x</w>
mechan ism</w>
intro duced</w>
c ab
ac e
Foo tball</w>
antibio tics</w>
VP N</w>
p aste</w>
survi val</w>
sh ots</w>
M ur
er ship</w>
Democr ats</w>
ra pe</w>
Col or
end ers</w>
Pre vious</w>
iden tical</w>
T w
rough ly</w>
f if
an ch
OU R</w>
/ r</w>
hun dred</w>
we ak
3 7</w>
asp ects</w>
writ er</w>
asp ect</w>
PD F</w>
up dates</w>
pre ven
evol utionary</w>
descri ption</w>
as m</w>
remo te</w>
w ed</w>
Al ter
sh oes</w>
Po sts</w>
my ster
3 rd</w>
sen ding</w>
De ep</w>
v ul
it t
Pri me</w>
u ted</w>
2 :
ver sus</w>
li kes</w>
i o</w>
m ass
k es
y cle</w>
syn drome</w>
B ow
4 4</w>
C lim
su b</w>
f at
E ating</w>
cover ing</w>
elec ted</w>
iz za</w>
Nor thern</w>
b ags</w>
fun ding</w>
re ached</w>
P ut</w>
pan ic</w>
Ro ad</w>
ick er</w>
L et
per ception</w>
sm ooth</w>
ell er</w>
bow l</w>
lo ading</w>
sh ut
hor se</w>
w all
serv ers</w>
Fil ed</w>
F ile</w>
ph arm
bo iling</w>
Jav a
3 9</w>
bub ble</w>
Th om
ut ch</w>
Je ws</w>
gravit ational</w>
top ics</w>
Mo del</w>
Stud ent</w>
mat ters</w>
0 9
I ll
R oc
ill u
n es
stor m</w>
N utri
o tic</w>
I reland</w>
pre viously</w>
pack age</w>
dy nam
b un
sp ar
de dic
HI V</w>
ket ball</w>
adv ance</w>
ti ble</w>
ext ent</w>
democr acy</w>
L C</w>
ki e</w>
vo ices</w>
plic ations</w>
tri gg
primar ily</w>
F ig
C ards</w>
Stand ard</w>
Mil itary</w>
key board</w>
ni ght
Me th
N az
z er
im ming</w>
S ide</w>
bi ke</w>
app ing</w>
valu able</w>
tic kets</w>
ic h
Inc .</w>
U su
at ings</w>
su ffering</w>
R ac
ul ated</w>
a er
top s</w>
ma kers</w>
continu ed</w>
rar ely</w>
est er</w>
R u
classi c</w>
Fl ash</w>
comp ati
Spec ial</w>
lo red</w>
fe wer</w>
2 -
ti res</w>
pe ts</w>
B a
e ed</w>
ge o
con s</w>
acc ent</w>
tob acco</w>
Musli m</w>
contro ls</w>
char ger</w>
ban k
a im
os es</w>
King dom</w>
F oods</w>
Qu o
some body</w>
R A
dist ingu
ad er</w>
eth n
ev ap
c ough</w>
ack er</w>
clo thing</w>
Fin ally</w>
allerg ic</w>
br ands</w>
ci als</w>
histor ical</w>
ow er</w>
re ar</w>
av o
pa th
ol a</w>
W a
b in
win ning</w>
ord inary</w>
Sh ort</w>
domes tic</w>
deli very</w>
b attle</w>
Wel come</w>
in ches</w>
m and
4 7</w>
te en
3 8</w>
con vic
pass es</w>
, "
Gra v
organ izations</w>
Kore an</w>
co al</w>
i ght
bil lions</w>
T E</w>
R est
Je wish</w>
s and</w>
di esel</w>
ca ff
rap idly</w>
trig ger</w>
Cur rent</w>
Java Script</w>
m id</w>
ut es</w>
Mr .</w>
ic op
L ou
Categ ory</w>
Boo ks</w>
Pow er
i di
ell o</w>
albu m</w>
tic ket</w>
p ills</w>
Pal est
w ashing</w>
hous ing</w>
rec ycl
form ing</w>
fru its</w>
arg uments</w>
fol lows</w>
b o</w>
c al</w>
Exp lo
bl ur
Bl u
3 6
exp and</w>
car eer</w>
ific ation</w>
U sed</w>
st y</w>
S now
cor d</w>
pro hi
H A
s .
ni e</w>
re ver
scr atch</w>
thous and</w>
un c
ick ness</w>
T ER</w>
vil le</w>
be d
el a</w>
sav ings</w>
rup t
ter rible</w>
r an</w>
l enses</w>
ev alu
An onymous</w>
et nam</w>
St ra
t ooth
gu itar</w>
Li ving</w>
on tal</w>
li ance</w>
In tel
imp le
CO 2</w>
ev il</w>
hus band</w>
Al ways</w>
hur ts</w>
Cl inton</w>
Dem ocratic</w>
f ps</w>
r ings</w>
CO N
V itam
priv acy</w>
ari ties</w>
de als</w>
od ds</w>
b order</w>
see k</w>
manufactur ers</w>
z i</w>
dinos aurs</w>
consci ousness</w>
it ler</w>
P RO
n as
G PS</w>
10 :
aw esome</w>
w aking</w>
scre ens</w>
contain er</w>
ha bit
3 8
C off
Usu ally</w>
it ter</w>
1 %</w>
medic ations</w>
shor ter</w>
E instein</w>
es cope</w>
pp y</w>
cool ing</w>
num erous</w>
V e
B row
( s</w>
Te am</w>
trac ks</w>
Psy cho
j er
Ch ild</w>
Per haps</w>
absor b</w>
ic ago</w>
bo at</w>
Lar ge</w>
L oss</w>
F O
v om
p are</w>
dang er</w>
Subscri be</w>
loc k
un g</w>
g in
electro magnetic</w>
show ed</w>
Con nec
m ales</w>
e able</w>
J ack
P R
ber ry</w>
s aving</w>
S tic
soci alism</w>
ste am</w>
3 /
phr ase</w>
conserv ative</w>
you tube</w>
min ing</w>
ur b
g ent
thre at
cul tures</w>
B ang</w>
Tur n</w>
war ning</w>
k in</w>
cop yright</w>
foc used</w>
Sy stems</w>
t ooth</w>
ester day</w>
pul led</w>
am i</w>
expl ore</w>
Artic les</w>
g ue</w>
Qu antum</w>
Islam ic</w>
cre ative</w>
3 7
T able</w>
gh ing</w>
proced ure</w>
e dy</w>
IS P</w>
dam aged</w>
Am endment</w>
M ain</w>
at ly</w>
He at</w>
photo graph
weap on</w>
collap se</w>
vi br
co des</w>
j a
incredi bly</w>
In stitute</w>
ther e
8 00</w>
inj uries</w>
in nov
expan sion</w>
st ance</w>
regi ster</w>
re act</w>
pro gress</w>
capit alism</w>
li p</w>
ro ws</w>
regi ons</w>
Arab ia</w>
doc ument</w>
tr uck</w>
Au dio</w>
ly wood</w>
frequ encies</w>
pix els</w>
ro id</w>
poli ticians</w>
s ile</w>
consist ent</w>
WH AT</w>
i OS</w>
Fol low</w>
Z e
bu g</w>
G et
if i</w>
St at
dis cover</w>
invest ors</w>
r ated</w>
Hear t</w>
Le ague</w>
sha ped</w>
fla g</w>
comm itted</w>
equ ation</w>
br ings</w>
coun ting</w>
Tra de</w>
o lic</w>
me eting</w>
m ate</w>
f all
ant a</w>
cli ent</w>
S ave</w>
Leg al</w>
suppor ted</w>
Imag ine</w>
prof its</w>
be l</w>
ti ght</w>
ris ks</w>
par k</w>
V I
bl ed</w>
mov ements</w>
Cor por
revol ution</w>
on a
head ache</w>
man ner</w>
struc tures</w>
corpor ations</w>
K ey</w>
Com cast</w>
Artic le</w>
P ay</w>
pro sec
provid ers</w>
ap h
re si
s ers</w>
inv est</w>
Y oun
p ushing</w>
person ality</w>
o in</w>
min ds</w>
G M
dimen sions</w>
destro yed</w>
in stitu
t at
al pha
s in</w>
it tee</w>
bre ast</w>
ver ty</w>
L uc
subst ances</w>
so li
Res erve</w>
up iter</w>
D esp
F E
ri st</w>
ne goti
ru ption</w>
rupt cy</w>
H am
sequ ence</w>
philosoph y</w>
gr and
on gs</w>
rot ation</w>
lar gely</w>
bub bles</w>
annab is</w>
C ost</w>
il ers</w>
j ected</w>
Treat ment</w>
w as
citiz en</w>
Con serv
th ri
Associ ation</w>
sh ort
10 .
jus tice</w>
ri sh</w>
Fe el</w>
qu it
gr an
answ ered</w>
J .</w>
circumst ances</w>
nutri tion</w>
bloc ks</w>
Joh n
j ac
ne ys</w>
4 2</w>
s ink</w>
no body</w>
gu id
cl in
Man agement</w>
r onic</w>
accep table</w>
war s</w>
Intro duction</w>
h yp
fas hion</w>
satell ites</w>
mis sions</w>
Sim ple</w>
clos ely</w>
pro mise</w>
Tur key</w>
E th
ax is</w>
ligh ting</w>
viol ent</w>
R en
prof ile</w>
ro l</w>
hor mon
di oxide</w>
prepar ed</w>
cer tific
En d</w>
won der
teach er</w>
2 /
dic tion</w>
provid er</w>
ad der</w>
He ad</w>
mo m</w>
Fr anc
En ter
su stain
Ad di
des ire</w>
Rep ubli
is ation</w>
astr onom
mor al</w>
auth ority</w>
w is
S ay</w>
Col um
Heal thy</w>
aliz ing</w>
b al</w>
sec ond
re h
C ru
employ ee</w>
destro y</w>
con centr
enc oun
S and
Mach ine</w>
con sole</w>
trav els</w>
op ened</w>
a uc
effici ency</w>
fem in
St ore</w>
Loo king</w>
lay ers</w>
Desp ite</w>
In tel</w>
& ap
mar ried</w>
Poli tical</w>
refl ect</w>
Au to</w>
el es</w>
car ried</w>
reco very</w>
intellig ent</w>
C ore</w>
so il</w>
sol ved</w>
ch ron
B eg
repres ents</w>
Wh at
e k
environ mental</w>
Ste ph
th ick</w>
pay ments</w>
be ings</w>
bur ns</w>
liber al</w>
S le
back wards</w>
ast ro
Pl an</w>
fir m</w>
P ir
od d</w>
an ism</w>
prin ting</w>
cho ices</w>
es tive</w>
- year</w>
mis s</w>
G DP</w>
vitam ins</w>
P L
HO W</w>
1080 p</w>
conf ig
D S
S ar
gr ass</w>
4 9</w>
direc tor</w>
comp ens
men ted</w>
ast ers</w>
b ps</w>
shi pping</w>
Res pon
t os
tr ick</w>
sh opping</w>
concep ts</w>
em bar
o ffering</w>
en forcement</w>
Galax y</w>
Des cri
11 :
loc ations</w>
categ orized</w>
ban ned</w>
Coff ee</w>
beli efs</w>
b ond</w>
T A</w>
ex ten
ic ations</w>
d f</w>
P s</w>
vie wing</w>
Eff ect</w>
mag ic</w>
ag ency</w>
E X
fin ish</w>
jour n
estim ated</w>
Eng ine</w>
for th</w>
c and
C N
dr ama
int ense</w>
el ines</w>
zz y</w>
deli ver</w>
I mp
tra ined</w>
C ome</w>
teach ers</w>
ph y
c ables</w>
Musli ms</w>
H ow
ing e</w>
Sy mp
cu stom</w>
cli ents</w>
vo ted</w>
dat abase</w>
t ends</w>
So viet</w>
V ic
he al</w>
Photo s</w>
met ric</w>
sp icy</w>
v ice</w>
wat ched</w>
URL_ 4</w>
p en</w>
p ast
ang ry</w>
ho t
Republi c</w>
Dep ression</w>
200 2</w>
as sets</w>
G ive</w>
j ap
E asy</w>
Develop ment</w>
ad just</w>
chi ps</w>
y le</w>
Rem ove</w>
Soci ety</w>
det ailed</w>
addic tion</w>
Econ om
un like</w>
ob served</w>
g ap</w>
S ony</w>
caff eine</w>
N SA</w>
vol un
Stu dy</w>
it ude</w>
Or der</w>
Ch icago</w>
12 :
os ;
up load</w>
P ass
Defini tion</w>
ro gen</w>
Emp loy
Oc ean</w>
rela tivity</w>
val id</w>
pl ates</w>
scri pt</w>
Ma kes</w>
fin ished</w>
na us
mamm als</w>
Dr ink</w>
e ma
Lit tle</w>
versi al</w>
it als</w>
comp reh
Sing le</w>
th inks</w>
D ating</w>
eff orts</w>
ain s</w>
en th
d est</w>
dar ker</w>
administ ration</w>
h ide</w>
inter view</w>
re st
We ek</w>
see ds</w>
t ang
al leg
prote ins</w>
ri ses</w>
tr illion</w>
C la
suff icient</w>
symbo l</w>
t ape</w>
bit coin</w>
Intel lig
h as
O l
Bo x</w>
Wor d</w>
and al</w>
indic ate</w>
Batter y</w>
sha ke</w>
ER S</w>
s a</w>
coll ect</w>
fle xi
a .
ra in
paral lel</w>
occas ion
explo sion</w>
me g
Pr ac
and om
we ed</w>
N O</w>
pro to
w o
car bon
rema ining</w>
men u</w>
h idden</w>
G am
trans l
st ab
chro mos
A I</w>
f oun
vo ters</w>
occur red</w>
na il</w>
el i
An dre
J upiter</w>
EN T</w>
1 50</w>
stret ch</w>
seem ed</w>
Th rough</w>
anc est
K im</w>
neigh b
d ying</w>
tra its</w>
dra wn</w>
Cho ose</w>
P os
m entation</w>
connec tions</w>
mechan ical</w>
Contin ue</w>
vir tual</w>
de aling</w>
inter ests</w>
hy dra
b ound</w>
ush es</w>
in ser
A m</w>
pol ar</w>
sha pes</w>
pen alty</w>
tox ic</w>
5 /
concer ns</w>
Cre ate</w>
J os
Per f
direc tions</w>
Q U
constitu tional</w>
Coun cil</w>
compon ent</w>
person ally</w>
law yer</w>
4 8
manag ed</w>
ed back</w>
stud ying</w>
Ch ris</w>
f ast
scr at
di ffer</w>
Con ver
cy cles</w>
th or
c ran
P ap
Dr inking</w>
Under standing</w>
C ase</w>
Medic ine</w>
A l</w>
hi p</w>
pri son
reduc ing</w>
na p</w>
Of ten</w>
Ric hard</w>
se ats</w>
con c
F ru
y an</w>
respon sibility</w>
go als</w>
bre eding</w>
g um</w>
Ph ili
H ot
N ative</w>
Li qu
col um
ban g</w>
ra ising</w>
cre atures</w>
e ties</w>
T ot
recei ving</w>
oo s</w>
Fla g</w>
Es s
be ar</w>
class ical</w>
Expl ain</w>
ann ual</w>
sel ected</w>
par ti
Some thing</w>
ass em
p in
Pro gram
pos s
gi ft</w>
a tivity</w>
re t
Jour nal</w>
bri ef</w>
pro posed</w>
tran spl
man ip
end ar</w>
Mem ory</w>
C able</w>
produc tive</w>
pp ers</w>
Con sum
arr ang
ort ation</w>
Ex erc
bel ly</w>
deep er</w>
develop ers</w>
B U
process ed</w>
4 6</w>
ma d</w>
Saf e</w>
A re
N ature</w>
F as
strugg le</w>
spir acy</w>
ri ers</w>
Win ter</w>
Sp ain</w>
O w
Sal t</w>
cor ner</w>
sched ule</w>
car to
ex cep
ag encies</w>
M I</w>
/ /</w>
ini ons</w>
m un
sil ver</w>
No thing</w>
k o</w>
dedic ated</w>
4 th</w>
prob ability</w>
bet ting</w>
ext ended</w>
fem ales</w>
B om
b ars</w>
j ection</w>
T ar
tel e
bo ost</w>
adver tis
world wide</w>
S em
curren cies</w>
trans fer
Con di
e ans</w>
dist inct</w>
Fin ancial</w>
St ri
benef icial</w>
ed ited</w>
F uture</w>
L ose</w>
f ell</w>
Z ero</w>
f ts</w>
n ate</w>
Camer a</w>
ap parently</w>
pl er</w>
le te</w>
to logy</w>
pre dat
ch osen</w>
app lies</w>
Wi Fi</w>
m g</w>
L ink</w>
iz on</w>
si zed</w>
wa x</w>
reli ef</w>
e ously</w>
anno ying</w>
co ord
ac qu
W on
&ap os;
B ush</w>
R I
conven tional</w>
OR E</w>
fav or</w>
a .</w>
neu tral</w>
B ased</w>
m .</w>
ch lor
psycho logical</w>
immig rants</w>
tion er</w>
sc ared</w>
t ough</w>
den se</w>
E yes</w>
bo xes</w>
low est</w>
bu tter</w>
3 ,
C ause</w>
eng ths</w>
ar my</w>
m ood</w>
versi ties</w>
N ic
ver tical</w>
sp ray</w>
N Y
W E
T ell</w>
be es</w>
radio active</w>
in no
spo ken</w>
des ktop</w>
Ex ample</w>
en z
cel eb
R ate</w>
Proble m</w>
cer y</w>
quo te</w>
Ne u
F M</w>
dis orders</w>
every body</w>
ph as
Saf ety</w>
bas eball</w>
4 1</w>
4 :
a ho
WH Y</w>
surpri se</w>
victi m</w>
Cle an</w>
si vely</w>
sing ing</w>
cr uc
pro s</w>
Hy dro
arch it
Person al</w>
Un like</w>
20 th</w>
contribu te</w>
indu strial</w>
P ad</w>
b a</w>
lo ads</w>
victi ms</w>
haven 't</w>
Clim ate</w>
P ak
b age</w>
Pro vid
break fast</w>
ul ous</w>
el ly</w>
Li ght
Per i
- 1</w>
umin um</w>
te aching</w>
sol es</w>
ul timately</w>
f uc
dep end</w>
s occer</w>
scen es</w>
S ure</w>
5 :
ma ps</w>
con crete</w>
met ers</w>
mo tor
ish ment</w>
re n</w>
Jus tice</w>
mel t</w>
pi pe</w>
m ates</w>
ti st</w>
S uch</w>
Ac tion</w>
Bas ic</w>
ch ina</w>
Priv ate</w>
Pl ace</w>
ch y</w>
Wi reless</w>
psy ch
cal orie</w>
ti an</w>
ca p</w>
str act</w>
d aughter</w>
p oop</w>
immig ration</w>
magn et</w>
inst antly</w>
cap ture</w>
air y</w>
ri f
M ass
sper m</w>
sur faces</w>
ob tain</w>
p tions</w>
tic ated</w>
inten do</w>
soldi ers</w>
predic t</w>
fr ames</w>
m poo</w>
win d
es timate</w>
equ ally</w>
A void</w>
instr uments</w>
an der</w>
re fu
war mer</w>
sor ry</w>
h i</w>
inf ected</w>
Qu een</w>
at ured</w>
be ef</w>
li ament</w>
schem e</w>
car rying</w>
B L
exec utive</w>
10 1</w>
fig ures</w>
she ets</w>
M ath</w>
we igh</w>
ter min
statis tics</w>
depres s
8 8
T om</w>
Fo x</w>
Maj or</w>
N AT
Anal ysis</w>
Cl ass</w>
co lored</w>
5 0%</w>
he ated</w>
ner ves</w>
char t</w>
in sp
iz es</w>
S ite</w>
I F</w>
se es</w>
Ta g</w>
ow s</w>
Fil m</w>
ma inten
pres ented</w>
t asks</w>
bel t</w>
ap es</w>
We ather</w>
Y ears</w>
c ow</w>
m ouse</w>
Ital ian</w>
algori thm</w>
Christi anity</w>
fac tory</w>
reg im
z o
ra g
mon thly</w>
success fully</w>
rela tions</w>
Sm ell</w>
wonder ful</w>
C up</w>
g ases</w>
Commer cial</w>
cool er</w>
conduc t</w>
experi encing</w>
modi fied</w>
restaur ant</w>
F all</w>
be auty</w>
di abetes</w>
inv ented</w>
A li
equ ality</w>
c ents</w>
pen is</w>
Vo ice</w>
oc key</w>
nor thern</w>
laun ched</w>
surpri sed</w>
Pro per
cl u
de partment</w>
j ack</w>
un employment</w>
ex pression</w>
DI T</w>
v ital</w>
pan el</w>
C os
CE O</w>
consi sts</w>
inf ra
contain ing</w>
int ers</w>
Dic tionary</w>
ff y</w>
concent ration</w>
supp orts</w>
Sp ir
inf ections</w>
perform ed</w>
mainten ance</w>
appro ved</w>
con sent</w>
Gra ph
percei ve</w>
no on</w>
dimen sion</w>
jo int</w>
discus sed</w>
awar eness</w>
ric ul
ment ally</w>
un likely</w>
tit les</w>
plu gged</w>
tempor ary</w>
dra wing</w>
Dol lar</w>
nucle us</w>
Re ading</w>
vul ner
y i
wh om</w>
cl ub</w>
comm unities</w>
ri dic
ann a</w>
h ire</w>
3 9
leg es</w>
dri ven</w>
neigh bor
St ory</w>
h itting</w>
Wor king</w>
4 7
susp ect</w>
t end
L os</w>
S H
m ou
on au
bum ps</w>
it ations</w>
p ound</w>
mechan ics</w>
Pic tures</w>
ce iling</w>
categ ories</w>
ti re
sub si
4 3</w>
is land</w>
tor rent</w>
Go ing</w>
Bo t
As set</w>
b ols</w>
pre mium</w>
n ine</w>
hel ium</w>
ta g</w>
4 /
car eful</w>
ear thqu
ar ts</w>
bul b</w>
Coun tries</w>
FRE E</w>
lo ose</w>
jo y</w>
AT E</w>
F BI</w>
G all
um es</w>
Tem per
Doc tor</w>
cont ra
ac le</w>
measure ment</w>
6 6</w>
Youn g</w>
comp uting</w>
for mat
th ms</w>
mix ture</w>
dec ade</w>
Tra ining</w>
res sing</w>
na tives</w>
o z</w>
j ail</w>
repres enta
ha bit</w>
form al</w>
v ar
ro b
W OR
r y
we igh
or m
identi fied</w>
comp ression</w>
th al</w>
at tribu
K in
lan tic</w>
H P</w>
M S
bloc ked</w>
pro por
real istic</w>
P et
Mil ky</w>
ar rested</w>
po le</w>
ani mation</w>
S ale</w>
transp ar
int est
g al</w>
er ts</w>
r ice</w>
bom bs</w>
sty les</w>
Produc t</w>
resist ant</w>
chec ks</w>
chem istry</w>
ha z
reci pe</w>
D am
in os</w>
if f</w>
legis lation</w>
Mic row
bir th
gre atly</w>
ess els</w>
S wit
Met al</w>
re mov
Dis ney</w>
infl am
uc us</w>
techno logies</w>
I denti
D er
mus ical</w>
he a</w>
contro versial</w>
so dium</w>
Uni versal</w>
mar ine</w>
Mar tin</w>
ur ge</w>
f ourth</w>
ent ure</w>
st ages</w>
elim inate</w>
est ate</w>
arch y</w>
yram id</w>
E D
N a
de bit</w>
tur b
heav ily</w>
pow der</w>
encryp tion</w>
restaur ants</w>
P P
T H</w>
ES T</w>
s p</w>
F ro
3 :
Import ant</w>
wor ried</w>
J obs</w>
b acks</w>
determin es</w>
En viron
in ating</w>
B log
d ness</w>
br a</w>
su its</w>
Es says</w>
R ock</w>
pre pare</w>
I B
aho o</w>
am ac
i i</w>
subst anti
li sts</w>
D ry</w>
hon ey</w>
v ag
haven ’t</w>
pres er
em br
h ig
speci ally</w>
a e</w>
stri kes</w>
me als</w>
Pro b
p ill</w>
ell a</w>
promo te</w>
g ment</w>
bacter ial</w>
re me
ir ts</w>
F al
n i</w>
direc ted</w>
in i</w>
6 00</w>
Mar keting</w>
M eg
infra structure</w>
un known</w>
ag e
moist ure</w>
c ular</w>
assum ing</w>
on in</w>
met als</w>
Af gh
ign ore</w>
ap o
al ine</w>
Comp anies</w>
pr ints</w>
encoura ge</w>
H and</w>
ou red</w>
co gn
fa ith</w>
v ili
Bra z
r andom
sugg ested</w>
Steph en</w>
po verty</w>
’ .</w>
issu ed</w>
US D</w>
der i
coun ts</w>
Fig ure</w>
L ine</w>
Stud ents</w>
Chro me</w>
profes sion
S ki
h ence</w>
Sm ith</w>
Prof es
assi c</w>
d rain</w>
mar k
Gener ally</w>
fe der
De ad</w>
manufactur ing</w>
un comfortable</w>
Buil ding</w>
Fi ve</w>
h ale</w>
pharm ac
trac tion</w>
ju red</w>
Any one</w>
phot ons</w>
acc ents</w>
terror ist</w>
ter ing</w>
in take</w>
d ental</w>
sc al
Ep is
rou te</w>
heal ing</w>
fi red</w>
dimen sional</w>
practic es</w>
D R</w>
Symp toms</w>
cur y</w>
f et
d inner</w>
re alized</w>
Ste am</w>
ar rest</w>
amac are</w>
t arg
coho lic</w>
agre ed</w>
ru b</w>
commer cials</w>
dis c</w>
W ind</w>
em a</w>
R un</w>
dist ant</w>
comm it</w>
comm and</w>
saf ely</w>
electr onics</w>
pleas ant</w>
wh el
wi res</w>
ur ban</w>
N intendo</w>
qui et</w>
B on
Seas on</w>
flo ating</w>
is ol
E mer
adv oc
9 7
sw allow</w>
re turns</w>
F our</w>
per sons</w>
pat ent</w>
Cl oud</w>
Emp ire</w>
Get ty</w>
cho osing</w>
2 %</w>
ac qui
bal anced</w>
sh irt</w>
t est
at oes</w>
Sy m
Co ke</w>
roc ks</w>
w ings</w>
fe eding</w>
recep tors</w>
writ ers</w>
prin ted</w>
less on</w>
* .</w>
absor bed</w>
dre aming</w>
Gen e
regul ations</w>
ag ent</w>
c hair</w>
fin ite</w>
fre sh
ER E</w>
b ands</w>
br inging</w>
fac ial</w>
b ic
ex ception</w>
Discus sion</w>
A V
5 5
ti ous</w>
bl ame</w>
prot ons</w>
ins ul
v essels</w>
Un categorized</w>
C ou
ban king</w>
ol es
pl ain</w>
su res</w>
4 -
w ages</w>
en na</w>
Is land</w>
enem y</w>
re aches</w>
all ergy</w>
S uc
dis covery</w>
Ch er
Econ omic</w>
S av
flo at</w>
jour ney</w>
zz le</w>
H er</w>
Ital y</w>
Inv est
for ma
sec tor</w>
ex pres
j a</w>
pul ling</w>
Ear ly</w>
T ax
col or
M as
lin ed</w>
in tr
mathema tical</w>
re moving</w>
B BC</w>
y esterday</w>
scen ario</w>
Lo g</w>
Coun try</w>
Sur vi
reco ver</w>
de m</w>
tren d</w>
chri sti
fos sil</w>
no ted</w>
pa irs</w>
l en</w>
C H</w>
co l</w>
H E
Dru gs</w>
Ex amples</w>
evap or
Bl u</w>
M eas
s and
impro ved</w>
h t
8 :
3 %</w>
challeng es</w>
B or
Sci en
hol ders</w>
d on</w>
Christi ans</w>
Def ense</w>
en tum</w>
horiz on</w>
res ource</w>
ff s</w>
M oun
p df</w>
s au
Thom as</w>
concl usion</w>
poc ket</w>
l o</w>
tt on</w>
ly rics</w>
P interest</w>
Color ado</w>
regi stered</w>
du al</w>
spid ers</w>
mist ake</w>
om a</w>
em phas
avi er</w>
week end</w>
inter act</w>
d uty</w>
d um
w ound</w>
enter ing</w>
M aps</w>
O thers</w>
h es
d h
def icit</w>
sens or</w>
bu ds</w>
fol ks</w>
ex press</w>
S ter
Scre en</w>
as ide</w>
8 6</w>
sc ape</w>
rac es</w>
M ass</w>
a thy</w>
hom os
em er
dir t</w>
sh r
Pop ular</w>
purch ased</w>
= "
x ury</w>
For d</w>
sm all
i ghts</w>
9 :
V iews</w>
ini an</w>
a b</w>
ish es</w>
s now
UT C</w>
ha bits</w>
ri ties</w>
Mag ne
D ouble</w>
la b</w>
competi tive</w>
s atur
Sou thern</w>
broad cast</w>
acceler ation</w>
Grav ity</w>
Hol lywood</w>
chec king</w>
p ink</w>
tire ment</w>
princi ples</w>
ON E</w>
sk ill</w>
psycho logy</w>
su peri
d ad</w>
ot ine</w>
spac ecraft</w>
met er</w>
hormon es</w>
Y eah</w>
sk i</w>
life style</w>
recogn ized</w>
compati ble</w>
repe at</w>
s ac
ill ers</w>
descri bes</w>
f illing</w>
gener ations</w>
sem i</w>
su itable</w>
k ick</w>
epis odes</w>
S mart</w>
ub s</w>
Gre en
work out</w>
ar med</w>
dec ay</w>
Anim al</w>
end ant</w>
mom entum</w>
hon est</w>
add resses</w>
claim ed</w>
F ish</w>
Up date</w>
o h</w>
M ad
car efully</w>
Simil ar</w>
id er</w>
rec all</w>
E DIT</w>
s i</w>
8 5</w>
Acc ess</w>
ma x</w>
enter tainment</w>
mat ure</w>
m o</w>
f ed</w>
onau ts</w>
quar ter</w>
ill ary</w>
Bel ow</w>
mar ked</w>
calcul ated</w>
Evol ution</w>
p ac
6 :
Ci tiz
Sel ect</w>
mis sile</w>
T ab
no ises</w>
head aches</w>
d dit</w>
M ain
t all</w>
conf idence</w>
Plan et</w>
Ac count</w>
di ff
band width</w>
bre ed</w>
refl ection</w>
strong ly</w>
neutr ality</w>
M atter</w>
re new
V ER</w>
Th ird</w>
as ion</w>
o gy</w>
v ac
t ing
evol ve</w>
e di
Fun c
A ra
it y
Cl ub</w>
Ret ri
sy l
m ess</w>
y ard</w>
an istan</w>
ra tive</w>
c ue</w>
aff ordable</w>
wh is
chec ked</w>
T y
Ex change</w>
fr action</w>
Snow den</w>
Willi am</w>
W i</w>
cor respon
1 20</w>
divid e</w>
exc ited</w>
10 %</w>
v ation</w>
Ex c
" :
Mus cle</w>
H ey</w>
L CD</w>
s anc
met e
Inst agram</w>
an ut</w>
opport unities</w>
ar d
u k</w>
t ags</w>
car rier</w>
techn ically</w>
al ties</w>
pil ot</w>
R is
rol ling</w>
dec ent</w>
sw imming</w>
ig nor
M M
Bo b</w>
Ang eles</w>
lo ves</w>
P R</w>
AT ION</w>
p our</w>
mer ely</w>
di vision</w>
hel icop
pic ked</w>
quo tes</w>
diffic ulty</w>
bro ther</w>
y o</w>
c on</w>
Sum mer</w>
ob serve</w>
house hold</w>
re publ
M .</w>
ick y</w>
ev ening</w>
n is</w>
inst ant</w>
ex tension</w>
O d
ree ts</w>
ro ots</w>
fin ance</w>
H ello</w>
pro gres
ti e</w>
ol en</w>
bl an
exist ed</w>
Tru e</w>
bol a</w>
tan eously</w>
im al</w>
.. ...</w>
fl ation</w>
dir ty</w>
suppor ting</w>
l ds</w>
territ ory</w>
Min ister</w>
In side</w>
r atings</w>
cont am
R os
miner als</w>
religi ons</w>
Fi x</w>
Be er</w>
rac ist</w>
abor tion</w>
Te eth</w>
second ary</w>
read ers</w>
bran ch</w>
bro ke</w>
co ck
L atest</w>
L ap
bur ned</w>
ow ns</w>
Ret ur
d ance</w>
ell ec
fra ud</w>
Fore ign</w>
b ath</w>
E M</w>
tific ation</w>
I rish</w>
L ic
Vi etnam</w>
sav ed</w>
ad ds</w>
hig an</w>
ol f</w>
Li fe
j ur
ado x</w>
cur ve</w>
r am
invol ve</w>
ap art
s ali
th ank</w>
achi ev
see king</w>
fa ult</w>
Cath olic</w>
mathema tics</w>
Num bers</w>
liter ature</w>
dem ocratic</w>
es is</w>
P as
un usual</w>
Wr ite</w>
un t</w>
fr iction</w>
over whel
pass engers</w>
conveni ent</w>
investig ation</w>
Sor ry</w>
C ris
V ari
i ans</w>
bus y</w>
J ack</w>
or ting</w>
rele ases</w>
e ph
or ted</w>
Mag ic</w>
G E</w>
dar k
classi fied</w>
up set</w>
si a</w>
gener ic</w>
P eter</w>
um a</w>
appreci ate</w>
ain ed</w>
in jured</w>
se as</w>
Ob viously</w>
rout ine</w>
o dic</w>
S O</w>
v an</w>
cha pter</w>
uni ons</w>
st ays</w>
s s
func tion
e aten</w>
bri d</w>
S et
transp ort</w>
read er</w>
li brary</w>
Differ ences</w>
nu ts</w>
ti a</w>
le ague</w>
Po p</w>
as ingly</w>
Intellig ence</w>
employ er</w>
sc op
st ain</w>
R oom</w>
B I
Cul ture</w>
1 ,000</w>
M ol
p an</w>
as ive</w>
R eci
E bola</w>
appe al</w>
downlo ading</w>
7 7
is co</w>
fic tion</w>
Ide as</w>
it ate</w>
S an
K o
b lowing</w>
tre m
shi eld</w>
conver ted</w>
B .</w>
Tot al</w>
luc ky</w>
v eter
Astr onom
rub ber</w>
re tail</w>
Fi re
U V</w>
Fl u
c ute</w>
vers y</w>
pron ounced</w>
gre w</w>
instr ument</w>
Te a</w>
respon ses</w>
Jav a</w>
oc eans</w>
Lo g
Ag ainst</w>
guaran te
cop per</w>
bro ad</w>
oo t</w>
cir cles</w>
tic k
deliver ed</w>
bl u
conf using</w>
b att
5 1</w>
pan els</w>
subre ddit</w>
smart phone</w>
f lights</w>
gre en
fi res</w>
S C
Tra ding</w>
Lab els</w>
7 :
del ete</w>
p ers</w>
cal i
f is
Ob amacare</w>
ci vili
R ub
Comp uters</w>
Ad ver
de duc
al titude</w>
e z
bar ely</w>
phys ic
Ok ay</w>
repres ented</w>
sk y
de fe
E astern</w>
o let</w>
employ ed</w>
b in</w>
v .</w>
Or ange</w>
lif ting</w>
fu r</w>
reser ved</w>
horiz ontal</w>
st al
St .</w>
s am
prin ter</w>
replac ement</w>
molec ule</w>
p us</w>
treat ments</w>
ec lip
ig ns</w>
gro cery</w>
sen ses</w>
Pro s</w>
em on</w>
stro ke</w>
Lev el</w>
gall on</w>
est ly</w>
Rec o
at tract</w>
photo graphy</w>
toler ance</w>
4 6
o graphy</w>
discrimin ation</w>
a tively</w>
v aries</w>
fe edback</w>
al and</w>
dis aster</w>
ang les</w>
f ers</w>
5 th</w>
s orts</w>
eng age</w>
Proble ms</w>
L D</w>
La ws</w>
ad equ
o red</w>
rap id</w>
ick et</w>
Fil es</w>
jo ke</w>
An cient</w>
dig estive</w>
clo pedia</w>
Car ol
p ays</w>
il st</w>
conduc ted</w>
ch ronic</w>
ud ed</w>
il es</w>
y og
immedi ate</w>
res s
es ’</w>
l uck</w>
b aking</w>
we d
You tube</w>
Bu ying</w>
indu stri
P a
fo rec
In to</w>
F CC</w>
op pon
r ass
w oo
H S</w>
hor ses</w>
ballo on</w>
L ess
e z</w>
comb at</w>
hun ger</w>
h ang</w>
tiv eness</w>
stop ping</w>
fri dge</w>
Loc ation</w>
G ro
Orig inal</w>
boo t</w>
C ig
saf er</w>
bo hydr
tu tor
new sp
em ic</w>
manag er</w>
b ound
us ions</w>
Jo ined</w>
es sions</w>
guaran tee</w>
T ap</w>
ON S</w>
As s
ap i
i Pad</w>
Y ellow</w>
W is
terror ism</w>
tor na
op inions</w>
T ut
tic ism</w>
T aste</w>
se l</w>
H ur
vari able</w>
poll ution</w>
kn ife</w>
x y</w>
am endment</w>
Car bon</w>
W S</w>
M aster</w>
per mission</w>
comp ounds</w>
M and
Cont ent</w>
bas ketball</w>
Loc al</w>
ri x</w>
W ere</w>
Program ming</w>
comp ete</w>
oc ket</w>
sh o
Mil k</w>
acc um
stere o
holi day</w>
Ste ve</w>
Vitam in</w>
Bab ies</w>
ro of</w>
under water</w>
loo p</w>
l on
Bo ston</w>
phy si
Su gar</w>
Stu dies</w>
Pr ices</w>
de aths</w>
pre ad</w>
let ting</w>
wall paper</w>
D ro
d op
00 00
0 1
a ust</w>
Val ue</w>
p izza</w>
M L</w>
pro pos
my th</w>
alpha bet</w>
Dis ease</w>
ast y</w>
di pl
w an</w>
tr ucks</w>
5 2</w>
pe ak</w>
De al</w>
or row</w>
Ch icken</w>
B lo
Econ omy</w>
fli p</w>
centr e</w>
the me</w>
si us</w>
10 ,000</w>
An n
institu tions</w>
meas uring</w>
sent ences</w>
Show s</w>
IS Ps</w>
4 ,
sear ching</w>
af r
mon opo
qu it</w>
y n</w>
diam eter</w>
Fun ny</w>
tu ition</w>
tic a</w>
refer ring</w>
simil arities</w>
sou thern</w>
Egyp t</w>
ag ents</w>
vi sions</w>
Mi ke</w>
organ ized</w>
c locks</w>
S ho
tal ks</w>
F ant
Inde x</w>
emis phere</w>
g ent</w>
Syri an</w>
child hood</w>
Top ic</w>
sur vey</w>
in dependence</w>
Satur n</w>
hor rible</w>
mom ents</w>
free zer</w>
Ch annel</w>
ma ker</w>
p i</w>
out come</w>
incre asingly</w>
jo ints</w>
gro ws</w>
l ane</w>
D ay
p .
sc ar
cent uries</w>
M echan
a qu
w ifi</w>
loc aust</w>
In come</w>
pleas ure</w>
y awn</w>
J ones</w>
M R
en a</w>
manufactu rer</w>
m ile</w>
Bec ome</w>
he art
cy lin
C T</w>
Cu stom
n ou
Ad minist
9 8</w>
cour ts</w>
N avy</w>
et ooth</w>
H an
et ers</w>
a im</w>
legi timate</w>
1/ 2</w>
ho tter</w>
s en</w>
ed ed</w>
tro p
p c</w>
9 00</w>
lic en
b ac
tra it</w>
St ay</w>
A lex
differ enti
trans actions</w>
tr e</w>
R ules</w>
tran sition</w>
Engine ering</w>
am bi
Ed ward</w>
L au
cha m
v ector</w>
tal ked</w>
explain ing</w>
S W
Ph ilosoph
2 50</w>
Bu ild</w>
pun ishment</w>
accur ately</w>
sum mary</w>
bas s</w>
ri ver</w>
pi pes</w>
plas ma</w>
Ap pro
Prot ection</w>
con sul
mir rors</w>
trac king</w>
nit ure</w>
j i</w>
cl ar
IN G
sha dow</w>
H itler</w>
G row</w>
acc used</w>
sh oc
Tech n
log ist</w>
lau ghter</w>
Ex peri
3 -
fr on
ti ed</w>
he avier</w>
it a</w>
sp r
Mic higan</w>
Ara b</w>
r ick</w>
at i</w>
li ked</w>
re sidents</w>
comp ressed</w>
ut en</w>
su red</w>
The m</w>
multi p
Simp ly</w>
near by</w>
f lows</w>
il le</w>
rel ate</w>
Scot land</w>
St ars</w>
f lowing</w>
Mag azine</w>
sen ds</w>
ag ues</w>
Sk y
inv esting</w>
cre w</w>
purch asing</w>
F C</w>
gin ia</w>
G al
p ushed</w>
dec line</w>
GH T</w>
Har d
S us
reg ard</w>
dic t
Ex ec
Th is
Cris is</w>
si ster</w>
L ord</w>
ag ers</w>
P il
h il
FA Q</w>
Web site</w>
k ills</w>
el se
sh ine</w>
remov al</w>
P ain
num er
Chri st</w>
Play er</w>
sm ile</w>
Be hind</w>
bio logy</w>
I L</w>
refu ge
reve aled</w>
P i</w>
T om
stat ements</w>
G B
URL_ 5</w>
M D</w>
uc tu
Par t
loc king</w>
quanti ty</w>
organ ism</w>
Jo e</w>
M A
ph a</w>
b la
reduc es</w>
circul ation</w>
wis dom</w>
ut ter</w>
M ale</w>
hydr ated</w>
R ay</w>
ur able</w>
f uck</w>
in er</w>
butt ons</w>
P y
ther ed</w>
pro mp
sc ary</w>
fas c
elec toral</w>
sil ent</w>
euro pe
comple ted</w>
pass enger</w>
M id
Dep ending</w>
us i
Qu ality</w>
ani um</w>
dig its</w>
Secre t</w>
ar di
adm it</w>
Dri ving</w>
squ ee
Rep air</w>
re produce</w>
attemp ts</w>
sch ol
swe et
pre vents</w>
m ers</w>
th rowing</w>
sal ary</w>
F requ
t ears</w>
Pak istan</w>
g rid</w>
T aking</w>
Col a</w>
mar ket
A w
contain ed</w>
vor ce</w>
ic ked</w>
un ci
sign ature</w>
tw ins</w>
sym bols</w>
Ph ones</w>
V ision</w>
Retri eved</w>
ob lig
qui to</w>
r ats</w>
dist ances</w>
199 9</w>
rac ial</w>
Y OUR</w>
fin ds</w>
f arm</w>
h an</w>
Tru th</w>
H a
M anu
vir tually</w>
prop ag
C ut</w>
con stitution</w>
M ind</w>
ad ays</w>
gene tically</w>
der iv
moun tain</w>
Cal ories</w>
T Y</w>
O wn</w>
: )</w>
L A</w>
air port</w>
indic ates</w>
IS S</w>
ema ils</w>
rela x</w>
S ud
Aff ect</w>
c ake</w>
ther ing</w>
mel ting</w>
Smo king</w>
Al most</w>
fab ric</w>
Pre sidential</w>
p in</w>
att orney</w>
ab s</w>
aff ili
NO W</w>
sil s</w>
ex emp
Ar ound</w>
gar den</w>
acc es
su g
gh tly</w>
TI ON</w>
Ver izon</w>
ID S</w>
Curren cy</w>
pl a
Fem ale</w>
ag an</w>
des ired</w>
B ig
fr ac
T C</w>
st reets</w>
pain ting</w>
adop ted</w>
par king</w>
tow er</w>
kne e</w>
par ag
ast ed</w>
oo k
wel come</w>
out let</w>
Afgh anistan</w>
Scien tology</w>
D im
re ta
H ubble</w>
Comp are</w>
Li ghts</w>
ren ts</w>
el ig
8 7
D ue</w>
bl ades</w>
l unch</w>
hi o</w>
an i</w>
gh ted</w>
re form</w>
fast est</w>
gre y</w>
scienti st</w>
re aching</w>
Gi ven</w>
g lob
lun g</w>
har mon
bl adder</w>
F light</w>
ess ories</w>
exc essive</w>
co ast</w>
p up
supp ose</w>
process ors</w>
Isra el
t s
deri ved</w>
ac ne</w>
chec k
h tt
our ing</w>
ca ine</w>
M ental</w>
Run ning</w>
si de
Di am
de adly</w>
sec tions</w>
seem ingly</w>
g ency</w>
str ug
amer icans</w>
under ground</w>
T ER
D r</w>
inno cent</w>
Hal f</w>
experim ents</w>
publ ic
repres entation</w>
frequ ent</w>
crimin als</w>
L is
ed a</w>
r ab
can dy</w>
c m</w>
ow nership</w>
Ter m</w>
he it</w>
At lantic</w>
B ran
desig ns</w>
or ph
c annabis</w>
thro wn</w>
E .</w>
R id</w>
e go</w>
ac ids</w>
tor que</w>
ti les</w>
bo y
John son</w>
cr ying</w>
ni ghts</w>
Gu n</w>
S l
repor ting</w>
certain ty</w>
T ro
St om
ch ose</w>
distribu ted</w>
weal thy</w>
cruc ial</w>
strateg ies</w>
flav ors</w>
pe op
6 7
Ve hic
s can</w>
gl y
uni versities</w>
vers a</w>
p ub
Ma thema
as ka</w>
magne ts</w>
tex ture</w>
N ations</w>
invol ving</w>
pol es</w>
tro ops</w>
be ach</w>
s lo
ap plying</w>
mi xing</w>
k g</w>
life time</w>
bri ght
ul timate</w>
5 7
scri p
Free dom</w>
vacc ine</w>
ther ap
dis advantages</w>
) .
gra des</w>
Electr icity</w>
Pl astic</w>
tradi tion</w>
diag ram</w>
an o
S mar
Vi ol
min i
h all
believ es</w>
El ection</w>
rac ing</w>
perform ing</w>
exerc ises</w>
re duction</w>
log ically</w>
poin ting</w>
fu els</w>
Pic ture</w>
pre y</w>
over view</w>
Rel ation
og ue</w>
es ity</w>
Coc a</w>
corpor ation</w>
mil d</w>
Profes sional</w>
ab and
F ed</w>
p im
on ia</w>
Y ahoo</w>
liqu ids</w>
arr hea</w>
ther more</w>
bo il</w>
S low</w>
illu str
ass ault</w>
E le
y eah</w>
navig ation</w>
Plu to</w>
ger ms</w>
lo y</w>
lab els</w>
incredi ble</w>
prof essor</w>
bus tion</w>
superi or</w>
rot ate</w>
hypo thesis</w>
Are a</w>
u ts</w>
contrac ts</w>
s an
r h
cell ular</w>
off spring</w>
g ation</w>
7 /
sil es</w>
omet ry</w>
s cores</w>
se ed</w>
spir it
ex pressed</w>
B ank
con spiracy</w>
2 1
I II</w>
W in</w>
z i
Neu tr
comb ine</w>
cal endar</w>
h n</w>
po sting</w>
re am</w>
E dition</w>
par am
hun ting</w>
W ater
occur ring</w>
Haw ai
Electr onic</w>
ac i
19 th</w>
f its</w>
sc an
na ked</w>
v in</w>
F un</w>
hydra tion</w>
di str
else where</w>
exp ect
le an</w>
confir med</w>
ap parent</w>
k o
st aying</w>
pret ation</w>
ang ers</w>
4 %</w>
sp here</w>
Radi ation</w>
Ri ver</w>
os ity</w>
en ship</w>
fi er</w>
Ta i
conv inc
refl ected</w>
tou ching</w>
ric h
di versity</w>
del icious</w>
CI A</w>
Econom ics</w>
ex uality</w>
ent ers</w>
hum anity</w>
, 000
consum ing</w>
gr ounds</w>
hum idity</w>
de af</w>
behavi our</w>
­­­­­­­­ ­­­­­­­­
F aster</w>
Pre gn
c av
En ter</w>
ra ge</w>
ans as</w>
ud es</w>
ic ate</w>
Com mission</w>
go ver
j unk</w>
Mex ican</w>
\ /
sh ire</w>
le f
figh ters</w>
Direc t</w>
Ref er
supp lies</w>
J ump</w>
Cl ass
bas ics</w>
spac es</w>
bever ages</w>
E ven
titu des</w>
L ess</w>
6 8</w>
ref use</w>
pe l</w>
G ri
def end</w>
ha ir
up grade</w>
profession als</w>
bul bs</w>
Bro ad
mean ing
popul ations</w>
trans action</w>
AD HD</w>
al uminum</w>
al k
L ake</w>
c ous
A Y
D av
en ers</w>
clos est</w>
exc iting</w>
Spr ing</w>
pit ched</w>
e ons</w>
F L
Ski p</w>
B ey
uck les</w>
Pres sure</w>
bi an</w>
5 6</w>
T L
S hop</w>
cl icking</w>
F DA</w>
vol can
un limited</w>
Con sider</w>
gra y</w>
pass words</w>
seas ons</w>
rad ar</w>
ci p
L aser</w>
equ ations</w>
H en
G ot</w>
func tional</w>
bo ther</w>
ha irs</w>
un healthy</w>
vi olet</w>
clo sing</w>
p ra
excl usive</w>
Ch all
Le e</w>
prefer red</w>
eas iest</w>
0 2
w ra
fav our
Vir ginia</w>
Ze aland</w>
Res ults</w>
pher ic</w>
te ar</w>
embar rass
Cu stom</w>
u ter
sc ar</w>
m one</w>
e um</w>
view ers</w>
Gol den</w>
ren heit</w>
ser ves</w>
Cub a</w>
8 /
no t
go ver</w>
wor ker</w>
pur ple</w>
h ack</w>
Gr and</w>
i ration</w>
voc al</w>
Li brary</w>
re min
c ks</w>
re fin
bra ke</w>
pr one</w>
in dia</w>
v es
popul arity</w>
dest ination</w>
v y</w>
h at
cal m</w>
Qu ick</w>
u k
Temper ature</w>
Sh er
Top ics</w>
sc ent</w>
or dered</w>
Pr int</w>
bar rier</w>
co caine</w>
R .</w>
s light</w>
it e
S ection</w>
ter ri
accur acy</w>
Ex actly</w>
] [
tele phone</w>
plan ned</w>
org asm</w>
so red</w>
20 %</w>
com position</w>
Answer ed</w>
Tra ffic</w>
D ani
vap or</w>
cop ies</w>
t emp
sh ore</w>
ho tel</w>
b li
Jo b</w>
ati gue</w>
up side</w>
mal ink</w>
lo go</w>
mist akes</w>
a g</w>
R am
neutr ons</w>
tr ou
G R
Bir ds</w>
or ic</w>
N S
ak a</w>
in ity</w>
Rep res
ack no
12 .
transm itted</w>
ro les</w>
al coholic</w>
M on</w>
S li
gener ator</w>
mon it
1. 5</w>
emis sions</w>
GP U</w>
recogn ition</w>
U M
Com b
auth or
w rap</w>
Por n</w>
Addi tionally</w>
inter action</w>
ti er</w>
fo am</w>
stic ks</w>
ve ins</w>
del ay</w>
o ils</w>
Veg as</w>
tis sues</w>
y o
commun ist</w>
Scot t</w>
L LC</w>
c up
S cr
lin ing</w>
qu est</w>
be am</w>
N BA</w>
L and</w>
proced ures</w>
OU T</w>
iz er</w>
o do
Ad am</w>
S ites</w>
fac ebook</w>
L at
I V</w>
Carol ina</w>
f ats</w>
inter face</w>
S ever
assi stance</w>
wan ting</w>
ci pl
Indu stry</w>
M ORE</w>
bar rel</w>
ar chi
ex hi
employ ers</w>
arm ers</w>
estab lish</w>
Ven us</w>
Bow l</w>
en orm
b os
sou l</w>
B Y</w>
sc andal</w>
N ig
la ke</w>
F ace</w>
er o
C lar
Happ y</w>
off ensive</w>
" ,"
di al</w>
L ost</w>
sh ops</w>
cryp to
Pu tin</w>
G oo
but ter
T radi
tra ins</w>
Jack son</w>
F oundation</w>
g ig
P ul
func tioning</w>
inten sity</w>
b ru
fru str
under lying</w>
gradu ally</w>
shoul der</w>
trav elling</w>
lo ses</w>
1 3.
Char les</w>
metabo lism</w>
Jer sey</w>
D ou
ed iting</w>
ag gressive</w>
cap s</w>
B R
restric tions</w>
Show er</w>
im pres
ap point
C li
initi ally</w>
comp osed</w>
st olen</w>
AC K</w>
Mo tor
ey el
Sig ns</w>
ke up</w>
co ding</w>
e ks</w>
br is</w>
lin ear</w>
depos it</w>
part ners</w>
Ju li
dra ft</w>
jo ined</w>
Gir l</w>
Ari z
A verage</w>
G I</w>
wavel ength</w>
cand le</w>
I R</w>
calcul ator</w>
T Vs</w>
all ed</w>
Stom ach</w>
F a
id al</w>
Ol der</w>
sau ce</w>
p lot</w>
in formed</w>
itch y</w>
mag azine</w>
oun ces</w>
anim ated</w>
fl uctu
to e</w>
Ch ec
gradu ate</w>
ter minal</w>
supp lements</w>
law yers</w>
er to</w>
ch ief</w>
set up</w>
coun t
au r</w>
con soles</w>
Canc el</w>
Ro yal</w>
neur ons</w>
K ong</w>
4 9
be dro
ther mal</w>
J an
l atter</w>
stu dio</w>
i res</w>
on er</w>
su rely</w>
sw ing</w>
Mo tion</w>
anim e</w>
I Q</w>
E E
hol der</w>
t z</w>
ta to</w>
199 8</w>
Administ ration</w>
auth orities</w>
produc ers</w>
V A</w>
Adv ant
j ack
wor n</w>
Res ources</w>
sw im</w>
c tic</w>
ill en
G row
dynam ic</w>
New ton</w>
el and</w>
t agged</w>
ow e</w>
high way</w>
e o</w>
es tions</w>
ellec tual</w>
5 00
dam n</w>
boo k
Braz il</w>
b acked</w>
IR S</w>
occasion ally</w>
fr anch
ak i</w>
C C
contin ent</w>
bl ade</w>
F is
ol ing</w>
Commun ism</w>
M ater
suc k</w>
min ent</w>
ric ane</w>
certific ate</w>
App s</w>
Inter est</w>
enter ed</w>
r i</w>
pen sion</w>
l at
Cap it
ob jective</w>
comp ound</w>
tab let</w>
P la
ain ing</w>
e astern</w>
th umb</w>
ro sh
sy r
R ated</w>
accid ents</w>
7 2</w>
bank ruptcy</w>
ma inst
diagno sed</w>
F av
F resh</w>
b end</w>
gen ic</w>
O D</w>
ci d</w>
cont ents</w>
Elec tro
la tions</w>
achi eved</w>
no vel</w>
health ier</w>
Mo d
eth ical</w>
Prob ably</w>
f loo
Er ror</w>
T ren
engine ers</w>
Spo tify</w>
Che ap</w>
re turned</w>
di zzy</w>
Pl at
od or</w>
adem y</w>
disp os
to es</w>
Fi eld</w>
ver e
R ad
s ickness</w>
over come</w>
di sm
as ers</w>
f s</w>
11 .
U I</w>
Th read</w>
re member
TH AT</w>
coll ected</w>
peti tion</w>
op en
:0 1</w>
bi tion</w>
mig ration</w>
reg ulation</w>
reas oning</w>
T P
wid es
bi e</w>
2 1st</w>
contro versy</w>
or bits</w>
Fi ber</w>
. C.</w>
Ran dom</w>
Epis ode</w>
ici ency</w>
p es
g le
F I
ar bit
g us</w>
install ation</w>
gam bling</w>
car bohydr
orb iting</w>
pri se</w>
Il legal</w>
che wing</w>
nic otine</w>
dra g</w>
G O</w>
z z</w>
lead ership</w>
pic king</w>
uc ose</w>
,, ,,
ob tained</w>
flu ids</w>
Por tu
Andre w</w>
tab lets</w>
cr acking</w>
fac ed</w>
Gir ls</w>
forc ing</w>
Sp ace
TH IS</w>
dis appear</w>
produc er</w>
mat ches</w>
A U
S ky</w>
anc e
enti t
prec ise</w>
g ross</w>
surpri sing</w>
g ut</w>
nar row</w>
th ma</w>
wh ist
cor ruption</w>
after noon</w>
Nutri tion</w>
5 4</w>
so vere
it ching</w>
F ah
k it</w>
astr onauts</w>
2. 0</w>
pro ved</w>
ac ademic</w>
de struction</w>
conf usion</w>
ext end</w>
bran ches</w>
gh ting</w>
au to
sk i
nutri tional</w>
Cel sius</w>
fl ash
defin i
Un less</w>
rosh ima</w>
Ariz ona</w>
f oundation</w>
Fin ance</w>
ancest ors</w>
D eter
mil li
consum ed</w>
ri ding</w>
mis sed</w>
RO M</w>
AL LY</w>
K ur
gen u
chi at
H ope</w>
hard ly</w>
continu ous</w>
declar ed</w>
AM D</w>
s ni
rot ating</w>
Par is</w>
dec ides</w>
tr ash</w>
Scienti fic</w>
g un
an as</w>
far ther</w>
gar bage</w>
f ies</w>
ynam ics</w>
preven ting</w>
min t</w>
assi st</w>
7 20
O hio</w>
UR L</w>
percei ved</w>
ed ges</w>
o graphic</w>
t an</w>
A th
separ ated</w>
che str
inter ference</w>
phot on</w>
L y
in ev
ci sion</w>
P ati
U ser</w>
is ely</w>
S atell
Val ley</w>
mer ch
vulner able</w>
le agues</w>
um p
B ol
U ber</w>
inst inc
col leges</w>
in er
foo tage</w>
c asting</w>
b log
h ill</w>
ab dom
Di agram</w>
require ment</w>
rec ession</w>
sali va</w>
foc using</w>
b our
E uro</w>
er rors</w>
emo tion</w>
regi onal</w>
ess ay
Tran sm
connec ting</w>
NAT O</w>
tur ing</w>
apart ment</w>
ver ses</w>
Mal ay
In sider</w>
im er</w>
op tical</w>
regim e</w>
ex it</w>
M ort
tw enty</w>
fac ilities</w>
ap ore</w>
colon ies</w>
kes pe
Sil ver</w>
H illary</w>
IC E</w>
stu died</w>
C ool</w>
vern ight</w>
simul taneously</w>
b id</w>
Exerc ise</w>
j p
qual ified</w>
al ert</w>
F ly</w>
pix el</w>
in di
any body</w>
C lose</w>
H ong</w>
3 2
B anks</w>
d uration</w>
conduc tor</w>
an der
infr ared</w>
deb ts</w>
No ise</w>
N A</w>
m ans</w>
st rain</w>
Philosoph y</w>
res erve</w>
transpar ent</w>
m at</w>
distingu ish</w>
M it
communic ations</w>
Light ning</w>
ble eding</w>
Dre am</w>
tran sist
fol der</w>
recomm end
se iz
compar ing</w>
Microw ave</w>
Comp lete</w>
Cr yp
in hi
c ans</w>
cu be</w>
SS D</w>
tific ial</w>
fi ghter</w>
canc el</w>
aster oid</w>
F OR
Ste el</w>
10 /
bi as</w>
Direc tor</w>
C ons</w>
pl ing</w>
fir ms</w>
O pp
F le
Quo tes</w>
C lear
Suc c
per pet
Co ast</w>
5 6
r in
el et
Ar tificial</w>
z e
appro val</w>
p ants</w>
in ners</w>
ingredi ent</w>
w ins</w>
rac ism</w>
cont em
ant enna</w>
al y
Pro te
con version</w>
DN S</w>
flexi ble</w>
gir l
es tiv
com a</w>
offici ally</w>
tom orrow</w>
gra b</w>
gra in</w>
kid ney</w>
Pho tos
D ays</w>
ho sting</w>
Perf ect</w>
mis siles</w>
ac tively</w>
eas es</w>
hop ing</w>
r ush</w>
predat ors</w>
ridic ulous</w>
shel f</w>
V O
Ap pe
lou der</w>
mainst ream</w>
r um
por ted</w>
Electr ical</w>
wor thy</w>
-------- --------
com mod
Europe ans</w>
Descri ption</w>
rul ing</w>
port able</w>
nit rogen</w>
do t</w>
a tic</w>
n ity</w>
ang s</w>
Cl in
Fur thermore</w>
ge able</w>
Fah renheit</w>
cin ating</w>
bor ders</w>
emp ire</w>
with draw
m c
was her</w>
tr icks</w>
di m
us er
h em
Mo re
Fri ends</w>
Bre aking</w>
an ol</w>
unci ation</w>
Cre am</w>
Writ ten</w>
f lowers</w>
O k</w>
IL L</w>
Re gar
Cha mp
Po si
fig ured</w>
ran k</w>
com bustion</w>
ev al</w>
Relig ion</w>
S N
del eg
re plic
O P
As ked</w>
glo be</w>
bit es</w>
Proc ess</w>
pen ny</w>
arri ve</w>
st airs</w>
Cri minal</w>
om eter</w>
acces sible</w>
s ence</w>
m ucus</w>
Mor ning</w>
hor mone</w>
exp enses</w>
tic les</w>
G aming</w>
pen et
displ ayed</w>
8 9</w>
don ate</w>
myster y</w>
B at
cha mp
T ext</w>
d airy</w>
Tou ch</w>
Per form
ap chat</w>
de pressed</w>
sp elling</w>
sli de</w>
6 /
wel fare</w>
Fr ont</w>
r ussi
en abled</w>
tel escope</w>
f old</w>
zer land</w>
k ins</w>
sleep y</w>
wavel engths</w>
B ed</w>
inf er
St yle</w>
inc ident</w>
pol ar
E y
fl ame</w>
b i</w>
y ours</w>
insp ired</w>
Fu el</w>
Ser ver</w>
P ep
transfer red</w>
Inf o</w>
ci um</w>
gu ard</w>
k illers</w>
Sw itch</w>
coun ty</w>
dro pping</w>
le ak</w>
ie ve</w>
po ison</w>
hand ling</w>
For m</w>
Enter tainment</w>
st ones</w>
plac ement</w>
par as
sub sequ
recei ves</w>
An tar
ail ing</w>
omet ers</w>
histor ic</w>
E C
molec ular</w>
et ry</w>
min i</w>
im plications</w>
R ain
fun ded</w>
wi pe</w>
sk in
Tran sl
al t</w>
guid elines</w>
dic tionary</w>
c d</w>
t ext
dis on</w>
pa ired</w>
ell ar</w>
e al</w>
Adv anced</w>
9 0%</w>
inst alling</w>
H is
dist ur
elig ible</w>
C ash</w>
di os</w>
Is lands</w>
Explo rer</w>
re tirement</w>
t ones</w>
celeb rities</w>
Adv ice</w>
T ue</w>
B E</w>
MP 3</w>
li shed</w>
B ru
Bre ak
ag on</w>
ha ble</w>
dis gu
D un
pre mi
Comm ittee</w>
displ ays</w>
P re</w>
s amples</w>
main taining</w>
Is sues</w>
K er
9/ 11</w>
g a</w>
N Y</w>
ox id
So lid</w>
b esides</w>
F inal</w>
duc ing</w>
A do
Dis cover</w>
promis ed</w>
bur g</w>
y outh</w>
cogn itive</w>
A W
reci pes</w>
Phys ical</w>
Di strict</w>
cra p</w>
be an</w>
blur ry</w>
il ets</w>
o is</w>
ag ricul
Rom ney</w>
gain ed</w>
cra w
All erg
u tility</w>
priv il
ti me
W .</w>
reve al</w>
to ys</w>
b ass
educ ated</w>
vom iting</w>
R ace</w>
S hel
ext inct</w>
circ ular</w>
regul ated</w>
W ake</w>
es thes
Prin ci
B M
har v
ve ill
con g
hom eless</w>
thre ats</w>
th ium</w>
K ill</w>
pop ping</w>
ine tic</w>
associ ation</w>
gran ted</w>
air line</w>
S ounds</w>
in ates</w>
F ing
A sh
fer tili
H ate</w>
Cri me</w>
wh ilst</w>
con ference</w>
L en
out lets</w>
l en
res cent</w>
fil ed</w>
moder ate</w>
s no
g low</w>
H ig
g ears</w>
p it</w>
lo l</w>
Ar ch
h at</w>
l bs</w>
fo rest</w>
ar row</w>
inter pretation</w>
ot onin</w>
even ly</w>
random ly</w>
dish es</w>
P ing
sw elling</w>
deep ly</w>
Tun es</w>
vari ation</w>
Franc isco</w>
sen ior</w>
9 2</w>
ma xim
Sta tis
ep h</w>
ma st
consist ently</w>
od or
E T
bur st</w>
trans lation</w>
ab und
Offic ial</w>
clean er</w>
Op tions</w>
Qu e
Ho ly</w>
Curren tly</w>
sc ales</w>
veill ance</w>
m it
ti se</w>
ul ed</w>
Ir on</w>
R ever
R evolution</w>
don es
bel ong</w>
W ine</w>
Me aning</w>
sal ty</w>
WW II</w>
tre ating</w>
j am
H ous
sh ment</w>
res et</w>
dr yer</w>
publi sh
rec k
f itness</w>
W IT
ja w</w>
sha mpoo</w>
Sw iss</w>
an z
A .
jour nal</w>
S pl
5 3</w>
C B
A k
S ong</w>
if ying</w>
stri p</w>
in et</w>
spir it</w>
7 00</w>
ann ounc
8 8</w>
ID E
hor ror</w>
and roid</w>
E Y</w>
Syn drome</w>
b iting</w>
6 2</w>
subscri be</w>
Di e</w>
re in
E specially</w>
i bu
op position</w>
Stor age</w>
W ire</w>
rub bing</w>
m ill</w>
Pl ants</w>
in hal
pl ed</w>
be e</w>
H osp
spid er</w>
enorm ous</w>
inj ection</w>
fuc king</w>
ethn ic</w>
n ick
b is
5 9</w>
R ather</w>
W ood</w>
G ay</w>
gram mar</w>
rec ru
wil d
convic ted</w>
de bris</w>
Lo an</w>
crow d</w>
& A</w>
p ace</w>
6 7</w>
b ell</w>
min ority</w>
du le</w>
Ag ency</w>
mus h
plat forms</w>
C over</w>
8 7</w>
us eless</w>
ti te</w>
H op
depress ants</w>
i us</w>
eg ar</w>
F oc
K itchen</w>
fo li
pois oning</w>
M ig
ame work</w>
Av ailable</w>
at ar</w>
Res ear
w ich</w>
pres sing</w>
ar a</w>
str ings</w>
prec isely</w>
con den
sub jects</w>
g et
o ster
8 %</w>
c ows</w>
medic ines</w>
disc ount</w>
° C</w>
Str uc
contain ers</w>
sing er</w>
tiv ir
dis cipl
N C
ch ur
5 -
mon etary</w>
vari ables</w>
Veg et
re tain</w>
wid er</w>
b ited</w>
F PS</w>
Cir cu
ess ment</w>
foo t
NE W</w>
rul ed</w>
mo ons</w>
mus icians</w>
cont acts</w>
her o</w>
adequ ate</w>
Happ en</w>
ear ing</w>
W all
3 00
Fru it</w>
W ild</w>
To ols</w>
omet ric</w>
Fr i</w>
v ey
archit ecture</w>
det ected</w>
So da</w>
dis abled</w>
import antly</w>
sp y</w>
end a</w>
ill usion</w>
measure ments</w>
exam ine</w>
sc ra
as signed</w>
mos quit
Th u</w>
kin da</w>
ul f</w>
Ma il</w>
Naz i</w>
. com</w>
Any way</w>
t ress</w>
j av
mas k</w>
sle tter</w>
Ob jects</w>
V in
Gu y</w>
sol ving</w>
la sting</w>
y ms</w>
h in
cli p</w>
mic ro</w>
M Y</w>
pi ano</w>
Th r
be ard</w>
dis agree</w>
Vis it</w>
M eat</w>
cr iter
re sid
Ma ximum</w>
op ens</w>
mem or
Te ach
d cast</w>
kno c
ta ils</w>
comm it
Ado be</w>
Hydro gen</w>
G A</w>
win ner</w>
Po t
t we
gl ucose</w>
ro se</w>
educ ational</w>
ur a</w>
Liqu id</w>
K .</w>
happ iness</w>
Att ack</w>
olog ist</w>
p ick
conveni ence</w>
2. 5</w>
A IDS</w>
v als</w>
al a</w>
cop es</w>
ex tract</w>
Ar ts</w>
rel s</w>
b ucks</w>
E x</w>
f ails</w>
spi ration</w>
Cig ar
minist er</w>
Blu etooth</w>
Aut om
Ping back</w>
Fant asy</w>
9 3</w>
mon d</w>
proc e
fil ters</w>
transp ortation</w>
wh ales</w>
ren ce</w>
B esides</w>
inflam mation</w>
K u
le thal</w>
Phili pp
Incre ase</w>
sex ually</w>
attrac tion</w>
o ted</w>
flu x</w>
adv is
con ut</w>
Pu erto</w>
on going</w>
At l
prot ecting</w>
Bur n</w>
C ab
inv ention</w>
Rec ord</w>
IN E</w>
Cap ital</w>
al lies</w>
T reas
dist inction</w>
ref re
ra tions</w>
a a
app ed</w>
cryst al</w>
Min ecraft</w>
Gol d
Ma x</w>
control ler</w>
ph ob
t ant</w>
la sts</w>
X P</w>
sp her
bloc k
3 d</w>
at omy</w>
Olymp ics</w>
quick er</w>
Man ager</w>
Hel pful</w>
En cy
R ates</w>
des c
parti ally</w>
dig est</w>
vis iting</w>
Health care</w>
z ones</w>
broad band</w>
fl ush</w>
der ly</w>
h ockey</w>
High er</w>
pap er
R ule</w>
So ap</w>
Swit zerland</w>
Psycho logy</w>
D at
ap ples</w>
prot est</w>
S ales</w>
S end</w>
L inks</w>
z ip</w>
con sen
gr as
Wor d
k iller</w>
Lo gin</w>
5 7</w>
prof itable</w>
b ration</w>
def endant</w>
wed ding</w>
B B
inter ior</w>
Fi ref
x ious</w>
b re</w>
sm ooth
y ro
aw ning</w>
t ables</w>
ch ase</w>
civil ization</w>
Cle ar</w>
citiz enship</w>
des ert</w>
consider ation</w>
Prof essor</w>
Pir ate</w>
wle d
A gre
F itness</w>
alter natives</w>
li stic</w>
ick ens</w>
small est</w>
pe pper</w>
as ia</w>
bloc king</w>
N ames</w>
D M
199 7</w>
C ross</w>
invest ments</w>
ic ed</w>
bloo d
lim itations</w>
l act
t esti
f ission</w>
Un til</w>
Organ ic</w>
co tton</w>
cl ing</w>
ri d
it arian</w>
expl oration</w>
explan ations</w>
es ight</w>
car ries</w>
Ch arg
la id</w>
associ ate</w>
p ad</w>
CN N</w>
sing ly</w>
hop efully</w>
E mo
hy brid</w>
radi us</w>
ali en</w>
M ary</w>
Col ors</w>
diam ond</w>
Even tually</w>
nas al</w>
li ances</w>
des k</w>
Swe den</w>
or atory</w>
jum ping</w>
Tor rent</w>
cour ses</w>
K S</w>
Haw king</w>
URL_ 6</w>
impro ving</w>
no tion</w>
5 8</w>
bri tish</w>
g au
car bs</w>
hun t</w>
struc k</w>
s ar
T P</w>
e dition</w>
GH z</w>
comp os
ge bra</w>
Wh enever</w>
mass age</w>
t ar</w>
B os
li fied</w>
t anks</w>
ex tra
environ ments</w>
5 ,
r ural</w>
favour ite</w>
ren der</w>
Stra ight</w>
We ek
Con si
regul ate</w>
n els</w>
Squ are</w>
Sever al</w>
E l</w>
re port
b ent</w>
dru m</w>
pe anut</w>
appro aches</w>
B athroom</w>
Medic are</w>
new er</w>
er ies</w>
me tic</w>
B each</w>
d a
g gy</w>
New s
vo ter</w>
Exper im
tra dem
Lab or</w>
f oil</w>
di verse</w>
kespe are</w>
Cent ury</w>
M other</w>
Cl assic</w>
9 0
T im</w>
wor lds</w>
Photo graphy</w>
Doc tors</w>
id ents</w>
assum ed</w>
C L
particip ate</w>
Chem ical</w>
auth ors</w>
ig ned</w>
P ack
Cle an
hi st
Olymp ic</w>
car tri
te x</w>
An xiety</w>
ar ray</w>
di arrhea</w>
B acter
engine er</w>
S at
sp am</w>
P RE
Fl at</w>
an ic</w>
accoun ting</w>
brow sing</w>
sm an</w>
Th em
wat ers</w>
tar gets</w>
ear ned</w>
Pre mium</w>
z ab
transm it</w>
determin ing</w>
ag u
Archi ve</w>
9 6</w>
6 1</w>
imm unity</w>
Bey ond</w>
h ackers</w>
it al
eas ed</w>
bel s</w>
sh are
Rest aur
satur ated</w>
ap pointed</w>
x x
challeng ing</w>
st ability</w>
el eph
Ac ademic</w>
recycl ing</w>
mon itors</w>
E vents</w>
ste ady</w>
su ed</w>
Rel ease</w>
j unc
Retur n</w>
gi e</w>
b ail</w>
3 3
Let ter</w>
:4 5</w>
sugg estions</w>
ra z
de ad
hon estly</w>
t ari
sor ship</w>
des erve</w>
t les</w>
P et</w>
condi tioning</w>
refuge es</w>
gain s</w>
car di
sym met
Perform ance</w>
ble ed</w>
typ ing</w>
influ enced</w>
ab sence</w>
sil ly</w>
colum n</w>
c um
9 11</w>
enjo yed</w>
threat ening</w>
enh ance</w>
Per son</w>
Sing apore</w>
D utch</w>
tutor ial</w>
ol l</w>
b adly</w>
hosp itals</w>
v ill
air lines</w>
mast urb
impro vement</w>
Gu est</w>
te ens</w>
guarante ed</w>
Ther apy</w>
Mo ving</w>
ri sts</w>
til t</w>
rep lies</w>
ev es</w>
b uc
Me an
Vir us</w>
We ap
w ell
": "
g or
trac ted</w>
m es
ant an
C D
pric ing</w>
out door</w>
transpl ant</w>
Z one</w>
Colum bia</w>
Gu itar</w>
head ed</w>
ch ill</w>
ul u</w>
subre dd
plu gs</w>
Geor gia</w>
si x
stor ing</w>
mal ware</w>
tra p</w>
m old</w>
addic ted</w>
us iv
k ings</w>
equi pped</w>
ab ul
o vernight</w>
fant asy</w>
ste ering</w>
The ore
be ats</w>
s oph
No tes</w>
or ide</w>
Po k
st ressed</w>
f armers</w>
Lit er
H ence</w>
pay er</w>
Simil arly</w>
O P</w>
Par ts</w>
N on
refriger ator</w>
h anging</w>
T enn
Ad ap
aff ecting</w>
ca th
be ans</w>
aw ful</w>
ta ke
jur is
air planes</w>
terror ists</w>
f atigue</w>
S exual</w>
scre w</w>
A cid</w>
imp acts</w>
l or</w>
naus ea</w>
E state</w>
fas cinating</w>
s our</w>
E ar</w>
separ ation</w>
S ell</w>
ez u
om er
accid entally</w>
p yramid</w>
ho b
br ushing</w>
tren ds</w>
tra uma</w>
:0 2</w>
i osity</w>
Dre ams</w>
S anta</w>
Che ese</w>
S ign
e jac
eclip se</w>
Un it</w>
C A
cred its</w>
Bo tt
S M
refl ects</w>
M bps</w>
kne es</w>
i Tunes</w>
sensi tivity</w>
E F
antibio tic</w>
B lock</w>
Mess age</w>
Ama zing</w>
la h</w>
par tial</w>
ste al</w>
ig no
ed itor</w>
Co st
defini tions</w>
Mir ror</w>
ater al</w>
T ree</w>
ext inction</w>
R on</w>
C ook</w>
f ounded</w>
exha ust</w>
Pen n
Exec utive</w>
recei ver</w>
O ri
F ight</w>
addic tive</w>
ul ating</w>
strug gling</w>
scre en
Z o
u ous</w>
anal og</w>
In dones
g oo
ac et
Res er
bedro om</w>
S ongs</w>
Lap top</w>
we ights</w>
Q &A</w>
9 1</w>
bel ts</w>
ob s
sta tionary</w>
l aying</w>
den om
a ism</w>
y tes</w>
B en</w>
o logists</w>
compreh ensive</w>
Tr ust</w>
B un
ch ess</w>
an ia</w>
Emer gency</w>
r ical</w>
Vo te</w>
ther net</w>
Israel i</w>
sens ors</w>
phot os
ad ren
wi ki
ad ers</w>
or ly</w>
earthqu ake</w>
W arm</w>
techno logical</w>
tra pped</w>
signific ance</w>
K ev
us able</w>
D est
tw in</w>
11 /
O reg
x it</w>
mechan isms</w>
dist inc
pos session</w>
continu ing</w>
Sof t</w>
acc ord
ex tr
D ental</w>
ol dest</w>
Tai wan</w>
pil ots</w>
l ac
birth day</w>
Multi ple</w>
cou p
6 %</w>
ey eb
Ad dress</w>
Reg ular</w>
l it</w>
i ti
M ember</w>
6 3</w>
decreas es</w>
europe an</w>
b ay</w>
K a
stic ky</w>
as ser
dic t</w>
he ater</w>
P er</w>
G ear</w>
fir ing</w>
bur y</w>
bl ank</w>
peop les</w>
Sub ject</w>
O pen
oster one</w>
di ble</w>
se power</w>
co at</w>
h ook</w>
purch ases</w>
var ying</w>
li est</w>
repe ated</w>
L am
trans late</w>
cap tured</w>
se al</w>
cap abilities</w>
Man ual</w>
effici ently</w>
law suit</w>
re y</w>
industri es</w>
kar ma</w>
algori thms</w>
coll abor
infin ity</w>
fra g
u ation</w>
ab road</w>
R yan</w>
n asty</w>
subredd its</w>
ad or</w>
ex am</w>
z ation</w>
less ons</w>
ar ter
J im</w>
im mer
L a</w>
ain ts</w>
sp ine</w>
oc ide</w>
Fe atures</w>
tooth paste</w>
au tism</w>
do s</w>
e on</w>
B ac
rup ted</w>
res em
O F
Mo ve</w>
Hig gs</w>
week ly</w>
en tic
K n
ap ers</w>
swit ches</w>
los ses</w>
Elec toral</w>
ar i</w>
stra w</w>
Reas on</w>
as ian</w>
loc ate</w>
C are
Pol y
spo ke</w>
integr ated</w>
L t
bow s</w>
tu bes</w>
E ither</w>
ht ml</w>
F .</w>
win ds</w>
cur ved</w>
el em
int age</w>
con gress</w>
ab stract</w>
Regi ster</w>
Batter ies</w>
Ab sol
Vir tual</w>
In te
Cor rec
Wom an</w>
tat too</w>
C in
cr ashes</w>
Sur gery</w>
in correct</w>
com ic</w>
c am</w>
ach ment</w>
la p</w>
wo ke</w>
ro it</w>
dec om
WIT H</w>
pe ac
car riers</w>
but t</w>
1 -
Wor th</w>
Ac ademy</w>
exten sive</w>
moun tains</w>
100 ,000</w>
wides pread</w>
Air lines</w>
por tra
N P</w>
den y</w>
Ver sion</w>
vari ations</w>
b or</w>
ur anium</w>
r inging</w>
sanc tions</w>
M ust</w>
:0 5</w>
&apos; s</w>
m i</w>
3. 5</w>
ough ly</w>
appe tite</w>
eth ics</w>
d r</w>
arri ved</w>
D eg
Ch ocolate</w>
Re ality</w>
swit ching</w>
Sta ff</w>
op i
fac ility</w>
renew able</w>
fant astic</w>
os e
dis comfort</w>
ser ial</w>
Hist or
mo dem</w>
ra il
Qu i
vi bra
home work</w>
inv ent
ob esity</w>
Imp act</w>
D ub
p atch</w>
notic eable</w>
ali ke</w>
Any thing</w>
her oin</w>
T on
Gall ery</w>
fin dings</w>
syn thetic</w>
con ception</w>
ic ing</w>
tow ers</w>
-- -</w>
esthes ia</w>
Do S</w>
dec imal</w>
L yr
vir al</w>
w iring</w>
do ts</w>
P ack</w>
L .</w>
H ob
roc kets</w>
er up
Be havi
fif th</w>
intro duce</w>
f rench</w>
di strict</w>
the ft</w>
imp lement</w>
j ar</w>
la zy</w>
ch inese</w>
home op
spirit ual</w>
repe at
h acking</w>
tici an</w>
d u</w>
V R</w>
bor ing</w>
mo ther
Cre ative</w>
h r</w>
:0 3</w>
eb ook
di ve</w>
S L
B il
n g</w>
W ol
cas ino</w>
rhy thm</w>
moder n
im per
H old</w>
:4 0</w>
sh irts</w>
S cen
encoun ter</w>
excep tions</w>
ori ented</w>
Sol utions</w>
ent rop
U P</w>
claim ing</w>
ch ords</w>
un a</w>
At omic</w>
ill nesses</w>
dri ed</w>
public ly</w>
In cl
J un
a the
end um</w>
+ +</w>
reli eve</w>
Har ry</w>
dep ic
targ eted</w>
exp ec
un conscious</w>
helicop ter</w>
Ap plication</w>
cent ers</w>
l ately</w>
E v
prescri bed</w>
it ty</w>
........ ........
rep utation</w>
ne ath</w>
Br and</w>
writ es</w>
ob server</w>
H ou
rele asing</w>
e uro</w>
Bas eball</w>
A BC</w>
Att orney</w>
k u</w>
f i</w>
mar es</w>
Bu ff
inst ances</w>
pack ages</w>
gr and</w>
sub mit</w>
A sp
f ought</w>
past a</w>
or tion</w>
Magne tic</w>
Di esel</w>
th um
op t</w>
re production</w>
tu b</w>
plac ing</w>
R ap
D uration</w>
restric ted</w>
clin ical</w>
ul ations</w>
atmos pheric</w>
d umb</w>
the ater</w>
comb inations</w>
f ted</w>
bre eds</w>
p ist
car d
A qu
to y</w>
ro man</w>
oph ren
pol l</w>
medi ate</w>
theore tical</w>
ro bot</w>
gri p</w>
consci ously</w>
L and
z he
inter actions</w>
Har v
confir m</w>
wor ms</w>
orig ins</w>
j i
prot est
pres entation</w>
le ster
To ilet</w>
H ill</w>
bo dy
ef f</w>
n b
att oos</w>
St ress</w>
observ ation</w>
rema ined</w>
hum an
ma keup</w>
d ation</w>
trigg ers</w>
iz ophren
in visible</w>
re spective</w>
S now</w>
ment ary</w>
Mer cury</w>
N ose</w>
ta tive</w>
Ne g
drama tic</w>
bul k</w>
6 9</w>
min d
abul ary</w>
x on</w>
attemp ted</w>
jud ges</w>
sla very</w>
re store</w>
:5 5</w>
docum ented</w>
insi ght</w>
di vorce</w>
Mul ti</w>
be have</w>
G a
it i</w>
Gu ar
eu tical</w>
ri vers</w>
Typ ically</w>
f ellow</w>
enti ty</w>
on ous</w>
econom ies</w>
F el
eb o</w>
Soci alism</w>
enjo y
Ex press</w>
volun te
int ellectual</w>
Th ank
it ters</w>
RE D</w>
wh o
Aff ordable</w>
Moun tain</w>
Bir th</w>
wi red</w>
concer ning</w>
12 /
ro y
D inos
ci ally</w>
720 p</w>
a es
Pre vent</w>
Mo de</w>
gene tics</w>
Eli zab
bit ter</w>
M AT
pr oud</w>
Secre tary</w>
no by
Vol ume</w>
Langu ages</w>
encryp ted</w>
Re qui
Par liament</w>
control ling</w>
I A</w>
attemp ting</w>
uni form</w>
adju st
C S
W o</w>
St an
:3 5</w>
downlo aded</w>
dark ness</w>
develop er</w>
entit led</w>
tim ing</w>
P AR
ori entation</w>
format s</w>
Nig er
reg ards</w>
Po d</w>
yp e</w>
prec ed
le mon</w>
lo s</w>
:3 1</w>
B all</w>
sp ot
6 th</w>
prot ests</w>
bright ness</w>
S chools</w>
Lic ense</w>
ta b</w>
um ps</w>
substanti al</w>
deli ber
8 4</w>
Fe eling</w>
ym es</w>
h r
denti st</w>
is sions</w>
( "
ph y</w>
k ed
am ph
Be auty</w>
k en
quanti ties</w>
st ack</w>
Tel evision</w>
is ot
in corpor
' S</w>
F -
n an
ph ins</w>
:3 2</w>
adap t</w>
sp an</w>
ster ing</w>
lim bs</w>
Smar t
lu xury</w>
reme dies</w>
pro gressive</w>
Pr ince</w>
ti des</w>
pri ority</w>
Rec ently</w>
fre ely</w>
dig estion</w>
paral ysis</w>
tox ins</w>
no graphy</w>
dis like</w>
C o</w>
Psy ch
00 s</w>
need le</w>
S ays</w>
vacc ines</w>
M es
Grow th</w>
assum ption</w>
Ris k</w>
ag ious</w>
entrop y</w>
9 7</w>
comple x
St ories</w>
noby l</w>
e ge</w>
dam ages</w>
Min i</w>
appoint ment</w>
set tle</w>
P T
mos quito</w>
S .
m asses</w>
activ ated</w>
Au to
por ary</w>
tend ency</w>
ro man
pop corn</w>
St eps</w>
c s</w>
im pression</w>
No tice</w>
at or
rain bow</w>
bo ar
Pl ant</w>
Dim en
What ever</w>
fur niture</w>
gres sional</w>
no where</w>
Eg gs</w>
B ar</w>
do z
N one</w>
cop s</w>
ec tiveness</w>
T ow
f ancy</w>
In divid
pl est</w>
men str
in ely</w>
J as
Wal mart</w>
LE S</w>
Experi ence</w>
5 ,000</w>
wel ry</w>
spac e
s lows</w>
N T</w>
smart phones</w>
condi tioner</w>
Proper ty</w>
discus sing</w>
Am ong</w>
pro v
gol den</w>
vi d</w>
Hawai i</w>
syn c</w>
ch er
l ingu
s at</w>
Re pe
bor row</w>
I G
Boo k
cop y
GO P</w>
Ti p</w>
soci ally</w>
Det roit</w>
Cl ou
gi ble</w>
minim al</w>
9 %</w>
Stu ff
b ies</w>
^ 2</w>
kno ck</w>
m ice</w>
fac tion</w>
F ear</w>
sustain able</w>
W ear</w>
pen cil</w>
pi p
pher al</w>
With in</w>
criter ia</w>
bor ne</w>
un fortunately</w>
ak en</w>
kn uckles</w>
T ay
be ars</w>
:0 6</w>
C ure</w>
ag as
Gar den</w>
des er
al ter</w>
K id
AP I</w>
di g</w>
Dani el</w>
E as
Ar ti
long est</w>
   
ch a</w>
Bar ack</w>
st ellar</w>
yi eld</w>
por k</w>
viol ation</w>
tri angle</w>
P ER
Prac tice</w>
lau ghing</w>
lester ol</w>
Cr ash</w>
t our</w>
Hy per
< /
dop amine</w>
tun nel</w>
ther mo
Gra de</w>
behavi ors</w>
ick le</w>
:0 7</w>
ther lands</w>
carbon ated</w>
Oreg on</w>
:3 3</w>
Lyr ics</w>
luc id</w>
M s</w>
bri ef
F all
p acked</w>
ar es</w>
sign ment</w>
gl ue</w>
pack aging</w>
en tr
conf ident</w>
gen re</w>
R on
re actor</w>
we aker</w>
the ast</w>
Rec ent</w>
wit ness</w>
Sh ut
vis itors</w>
:0 9</w>
O ther
Fas hion</w>
Mil lion</w>
b id
at titude</w>
pl um
explo de</w>
cam p</w>
estim ates</w>
th west</w>
:3 4</w>
:0 4</w>
199 6</w>
ul arity</w>
G ift</w>
hall uc
Ad ult</w>
mp 3</w>
Aut omatic</w>
sc am</w>
bo ats</w>
:5 8</w>
Rec ei
Coll ection</w>
on de</w>
replac ing</w>
exha u
equ ity</w>
re viewed</w>
arbit r
enc e
equ ator</w>
s oo
requ iring</w>
Graph ics</w>
Wr ong</w>
g ym</w>
Vo y
Lis a</w>
L as</w>
Hon ey</w>
no sis</w>
drama tically</w>
p a</w>
p ins</w>
H all</w>
Hear ing</w>
dig it</w>
wal ks</w>
Nor mal</w>
new ly</w>
im pe
:5 9</w>
bott led</w>
Ven ezu
boo m</w>
mar gin</w>
Cr ack</w>
vi able</w>
adap ter</w>
1 20
9 0s</w>
Vis a</w>
neighbor hood</w>
1 10</w>
C ell
foun der</w>
W iring</w>
free zes</w>
en er</w>
Chem istry</w>
A B</w>
ep id
particip ants</w>
R ico</w>
Ph il
b ying</w>
reci pi
can ada</w>
Anal y
es cal
rela xed</w>
pre ference</w>
re ward</w>
Gr ound</w>
t ane</w>
ord an</w>
over seas</w>
tivir us</w>
pet rol</w>
ra ises</w>
G .</w>
stab il
mat ting</w>
p el
l ad
:3 6</w>
function ality</w>
:5 7</w>
am y</w>
Mc Donald</w>
y land</w>
possib ilities</w>
Ni k
Pl aces</w>
:5 1</w>
ad dy</w>
imag ination</w>
F an</w>
More over</w>
M att
p oo
HT ML</w>
green house</w>
vis u
tu p</w>
Indu strial</w>
:4 9</w>
K i
su ffered</w>
Cel ebr
L ower</w>
Bu gs</w>
repeat edly</w>
Fin ding</w>
si s
van ia</w>
h os
Mo m</w>
Inv estig
g al
elev ator</w>
swe ar</w>
Bo y</w>
cro ps</w>
g ood
under neath</w>
Repres enta
Fav or
e g</w>
jap an</w>
per su
s ely</w>
Bri an</w>
Bom b</w>
List en</w>
em en</w>
F air</w>
P .</w>
Cre ated</w>
t ack
p end
tic es</w>
euro pe</w>
N BC</w>
J et</w>
cham ber</w>
D IS
et tes</w>
ban ana</w>
lap tops</w>
imple mented</w>
inv asion</w>
& T</w>
f ting</w>
V ie
B O</w>
40 1
gr at
:4 8</w>
dam aging</w>
- 2</w>
F R
withdraw al</w>
sol ely</w>
Q a
s lot</w>
conserv ation</w>
S cal
C AN</w>
Al aska</w>
pul se</w>
in duced</w>
exc e
Fran k</w>
k inetic</w>
calcul ations</w>
star ing</w>
gl ad</w>
gra ding</w>
Prote in</w>
speci alized</w>
Tel escope</w>
G M</w>
monopo ly</w>
g el</w>
Sch ed
US T</w>
i g</w>
W aves</w>
sus cep
bon us</w>
as thma</w>
Coo kies</w>
bas es</w>
Ho locaust</w>
u tion
w ounds</w>
hy gi
th on</w>
vi c</w>
ster oids</w>
:0 8</w>
\ 0
W E</w>
V E
bl end</w>
in tu
Ar m
AG E</w>
:5 2</w>
8 0%</w>
cou ples</w>
J ac
pu rely</w>
Sec ond
Elizab eth</w>
ag gres
P H
celebr ity</w>
sim plest</w>
Si x</w>
fis cal</w>
fi bers</w>
di ving</w>
Y og
sa ke</w>
t ens</w>
Fol lowing</w>
:4 1</w>
cru de</w>
N er
Mach ines</w>
sel ler</w>
qu ot
S R</w>
W AT
Comm ons</w>
T B</w>
swit ched</w>
R ot
Me di
coo kie</w>
Dis order</w>
anti cip
st oc
continu ously</w>
St al
syr up</w>
contro ll
T at
Per malink</w>
As sad</w>
struc tive</w>
in depend
magn itude</w>
blan ket</w>
b uses</w>
argu ed</w>
si deb
Del i
PS 4</w>
er ty</w>
clo th</w>
u matic</w>
t u</w>
Dr inks</w>
Pri mary</w>
vac ation</w>
chromos omes</w>
RE M</w>
ug ly</w>
to wel</w>
Bre a
eng aged</w>
c ing</w>
prot ective</w>
demonstr ate</w>
Mon th</w>
num b</w>
pron unciation</w>
ch ord</w>
:4 6</w>
compens ation</w>
D DoS</w>
en tive</w>
Pos sible</w>
stor ms</w>
Palest ine</w>
C P</w>
em bed
aut onom
T est
woo den</w>
bra kes</w>
f lower</w>
F if
acceler ate</w>
optim al</w>
go ds</w>
fil ing</w>
* *
cal cium</w>
he ading</w>
acqu ire</w>
VER Y</w>
St one</w>
bre vi
Res ol
Mar riage</w>
diam onds</w>
interpre t</w>
dis charge</w>
Ex pen
ab e
Stu ff</w>
T en</w>
an n</w>
ann y</w>
Lo ans</w>
p. m.</w>
F act</w>
int ent</w>
bever age</w>
ro bots</w>
sli p</w>
Firef ox</w>
f ont</w>
ili bri
199 5</w>
Il lin
c asts</w>
Arab ic</w>
N T
B ell</w>
as k
az z</w>
P ick</w>
Gl asses</w>
Bi ology</w>
diagno sis</w>
d os
po orly</w>
cylin der</w>
P on
d row
Kev in</w>
re tri
:4 3</w>
K E</w>
stret ching</w>
dro p
N H
for gotten</w>
poss ess</w>
Pl aying</w>
less ly</w>
car t</w>
exp on
IT Y</w>
:4 4</w>
:3 7</w>
Com mon
in spec
n .
imag inary</w>
E ric</w>
:4 7</w>
R E</w>
Ency clopedia</w>
A A
is lands</w>
H ad</w>
scrat ching</w>
h ash</w>
se p
d as</w>
main tained</w>
gu es</w>
rap h</w>
R ain</w>
Fur ther</w>
A er
imp ul
Pl as
ro ll
8 2</w>
N ur
perman ently</w>
swe ating</w>
ped al</w>
rol led</w>
accomp lish</w>
pres ents</w>
em ia</w>
dev i
lau gh
:4 2</w>
Cer tain</w>
gra tion</w>
En joy</w>
Min imum</w>
B le
pro minent</w>
e age</w>
Mort gage</w>
motiv ation</w>
qu alities</w>
wor th
val ve</w>
g i</w>
anal ogy</w>
is sing</w>
Pe ace</w>
g est
an onymous</w>
pe er</w>
Mar vel</w>
F ake</w>
:5 3</w>
pres um
si an</w>
Chi ef</w>
C K</w>
representa tive</w>
gl ands</w>
girl friend</w>
7 th</w>
Neutr ality</w>
o ch
Fun d</w>
he ar
syl vania</w>
adop t</w>
7 0
jap anese</w>
att acked</w>
program med</w>
bl ast</w>
el e</w>
:3 9</w>
C GI</w>
land scape</w>
des per
al th</w>
U s
th reads</w>
kid neys</w>
d war
en ables</w>
:5 6</w>
Plan ets</w>
App ly</w>
Al pha
defin es</w>
usiv ely</w>
par adox</w>
:5 4</w>
gener ating</w>
8 1</w>
Ter ror
S am</w>
Gen der</w>
O S
Lo ts</w>
Space X</w>
monit oring</w>
Astronom y</w>
lot tery</w>
tiz ed</w>
n ut</w>
log in</w>
config uration</w>
B ase</w>
exc use</w>
oppon ent</w>
Jos eph</w>
now adays</w>
up coming</w>
Advant ages</w>
c ut
man n</w>
Deg ree</w>
Over view</w>
ref lex</w>
smar ter</w>
blo wn</w>
Pre t
o dy</w>
jo kes</w>
Sand ers</w>
P I
w ashed</w>
reser ves</w>
In flation</w>
my th
sou p</w>
ass et</w>
ur ities</w>
Compar ison</w>
in ver
S occer</w>
AC T</w>
le d
ep y</w>
7 6</w>
do zen</w>
He avy</w>
re mark
ti de</w>
che w</w>
Electr onics</w>
prot ects</w>
e ath</w>
bo x
M P</w>
torna do</w>
g ather</w>
S HO
fir m
u no
di ver
sug ars</w>
V IDE
an ni
Ar g
tr ace</w>
subscri ption</w>
sel ls</w>
exp anded</w>
sc ars</w>
fe atured</w>
expec tations</w>
G ood
NY C</w>
R ing</w>
Wh it
Con f
Ex t
8 0s</w>
Fac ebook
S at</w>
st ant</w>
ten se</w>
ali ens</w>
des ir
sub mitted</w>
dem ands</w>
impres sive</w>
fat al</w>
Be autiful</w>
soph is
ke wise</w>
Ne therlands</w>
3 4
insul in</w>
construc t</w>
jer k</w>
P ink</w>
docum entary</w>
if er</w>
di min
Ar gent
Ci ties</w>
St reng
an es</w>
Inde ed</w>
st ag
l ing
25 %</w>
F ound</w>
end ants</w>
:3 8</w>
soci eties</w>
Relation ship</w>
br ane</w>
cap ability</w>
back up</w>
i phone</w>
hi ps</w>
soci alist</w>
appe aring</w>
tes y</w>
bo red</w>
R ating</w>
resul ted</w>
ast ly</w>
L ot
leg alization</w>
No body</w>
w ol
re au</w>
don or</w>
an tic</w>
al ot</w>
run ny</w>
D AY</w>
enth usi
illen ni
qual ify</w>
vin yl</w>
ilibri um</w>
d it
or chestr
Bri dge</w>
specif ied</w>
Sh oo
proto col</w>
A G</w>
go s</w>
int oler
jus tify</w>
Fam ous</w>
Ne uro
bre asts</w>
Smo ke</w>
sideb ar</w>
fail ing</w>
indic ator</w>
Corpor ation</w>
pric ed</w>
18 0</w>
sens ory</w>
g ently</w>
vis ited</w>
Dom ain</w>
ag en</w>
wh eat</w>
preci ous</w>
stre ams</w>
supp lement</w>
doz ens</w>
li ability</w>
gol f</w>
Al zhe
sh es</w>
AN Y</w>
Do or</w>
se aled</w>
HD MI</w>
comm ittee</w>
e Bay</w>
m im
L ob
un lock</w>
ach us
tra iler</w>
Nor m
bur den</w>
Pat ri
cer tified</w>
bol t</w>
co inc
Al bu
G rowing</w>
\ u
8 3</w>
Re al
to ilets</w>
imp lies</w>
Ed itor</w>
res ume</w>
adju sted</w>
wee ts</w>
Wh ole</w>
alter n
Mar i
am ong
op ia</w>
Con cer
un necessary</w>
c ence</w>
Tech no
in equality</w>
Mar x
wal ked</w>
br illi
L ay
R ich</w>
HA VE</w>
mon y</w>
em it</w>
g ies</w>
war ran
refer ences</w>
ol len</w>
Tax es</w>
ser otonin</w>
se c</w>
ist a</w>
liqu or</w>
bi ased</w>
il t</w>
oper ated</w>
gain ing</w>
gl uten</w>
or th
fac il
less er</w>
ste ak</w>
bor row
exec ution</w>
bre w</w>
gen ous</w>
A poll
tu s</w>
cor rupt</w>
Illin ois</w>
achus et
AT &T</w>
pain s</w>
E vid
isol ated</w>
Des ktop</w>
gener ates</w>
f an
i si
sna kes</w>
cha ins</w>
Sle eping</w>
ec es</w>
li ers</w>
War ming</w>
or ous</w>
satis fied</w>
regi stration</w>
innov ation</w>
exp ense</w>
My th</w>
M ount</w>
Resear chers</w>
lan es</w>
clim b</w>
P and
bu yers</w>
fa uc
cr ust</w>
lit ter</w>
B S
sp reading</w>
ag ra</w>
SE O</w>
Com ing</w>
g ement</w>
Ch ev
observ ations</w>
sig ning</w>
trigg ered</w>
H ERE</w>
s its</w>
eff ectiveness</w>
carbohydr ates</w>
6 ,
a ids</w>
C S</w>
Deb ate</w>
pul ls</w>
T in
bl ind
legis l
C T
Prot ect</w>
mo s</w>
IR A</w>
Satell ite</w>
Fl u</w>
B attle</w>
att end</w>
Bre xit</w>
iz z
respec tively</w>
Wa it</w>
tri als</w>
br ut
Mus k</w>
ra il</w>
Tur k
al o</w>
os edly</w>
newsp aper</w>
f ing</w>
Expl ained</w>
b ounce</w>
m ut
strateg ic</w>
graph ical</w>
celebr ate</w>
contribu tions</w>
P ra
Apoll o</w>
hum or</w>
dev ast
C ells</w>
microw aves</w>
lun ar</w>
licen sed</w>
AN T</w>
Willi ams</w>
M un
es copes</w>
fl our</w>
inter vention</w>
Au stri
Be en</w>
propos al</w>
colli sion</w>
Ne ar</w>
pres erve</w>
sur veillance</w>
cor relation</w>
F ra
ey esight</w>
il a</w>
bo d
om m
) ,
tou ched</w>
cub es</w>
ass ass
F ow
au str
V ice</w>
p unch</w>
f lood</w>
pro portion</w>
ter ror</w>
ow a</w>
T en
among st</w>
re strial</w>
reve als</w>
H .</w>
part ments</w>
E d</w>
ir y</w>
Mic hel
m p</w>
tempor arily</w>
D e</w>
tra ge
ver ify</w>
For mul
v ine</w>
direc tors</w>
199 0</w>
H yp
equ als</w>
Con nect</w>
Tra v
quar ters</w>
dh ism</w>
S ti
foc uses</w>
Char ac
Alter native</w>
ynam ic</w>
C e
Play ers</w>
manufactu red</w>
ail ability</w>
J ong</w>
9 4</w>
bor o</w>
Mo vement</w>
N ar
H ad
ar ch</w>
photo graph</w>
ch im
indic ated</w>
fr amework</w>
Col li
sp ell</w>
surr ounded</w>
a di
M I
p ples</w>
smo kers</w>
Bi o
Rel ativity</w>
A id</w>
val ence</w>
sha de</w>
ess ors</w>
bul lets</w>
Tay lor</w>
vibra tions</w>
er s
syn chron
tran si
As sum
199 4</w>
aw k
man ually</w>
US E</w>
E P</w>
pic ks</w>
thre sh
symp tom</w>
ro prac
Democr at</w>
Vic tor
thor oughly</w>
st un
shif ts</w>
det ection</w>
bet a</w>
K it</w>
Fe der
jo ining</w>
ex ag
S in
p ill
activ ate</w>
Gre y</w>
A lex</w>
ed ness</w>
acqui red</w>
T or</w>
al lic</w>
ardi zed</w>
ep er</w>
bur ger</w>
sch e</w>
h ated</w>
achuset ts</w>
ver b</w>
us a</w>
sna ke</w>
Air plane</w>
off ense</w>
la tive</w>
Mat t</w>
Do ing</w>
Foc us</w>
mu tations</w>
7 1</w>
vol ts</w>
lo ween</w>
U ran
requ ests</w>
Pl ans</w>
Consum er</w>
P G</w>
chromos ome</w>
assem bly</w>
predic tions</w>
Ox ygen</w>
pass age</w>
M aster
PS 3</w>
rol ls</w>
l are</w>
R SS</w>
sur ge
de em
comp eting</w>
ath on</w>
ol es</w>
complex ity</w>
Goo gle
G U
H ell</w>
AS T</w>
ol is</w>
V S</w>
descri bing</w>
exerc ising</w>
identi fication</w>
Trans fer</w>
inser t</w>
G ran
par tly</w>
E aster</w>
Sto cks</w>
predic ted</w>
categ or
dang ers</w>
C lock</w>
be ar
em an</w>
member ship</w>
king dom</w>
sched uled</w>
thr ust</w>
fall en</w>
b at
fri ed</w>
Sol ution</w>
sub tle</w>
Wal king</w>
Nor way</w>
pol ls</w>
ger many</w>
Indi ana</w>
oma to</w>
ear nings</w>
T esting</w>
Coo king</w>
4 0%</w>
us s</w>
g li
ob ese</w>
com edy</w>
v et</w>
mete or
Supp ly</w>
Jud ge</w>
l b</w>
afr ica</w>
s lowing</w>
co ded</w>
mand atory</w>
Dist ribu
tr ans</w>
ac les</w>
P harm
predic table</w>
ent a</w>
c tica</w>
c lock
Wed ding</w>
s have</w>
3 50</w>
an tim
Gener ation</w>
agre ements</w>
UR E</w>
w ill
end or
jec tives</w>
pot atoes</w>
os y
p ile</w>
Win d
Par ents</w>
construc ted</w>
Natur ally</w>
Cen tre</w>
as cript</w>
show ers</w>
Tel e
pp ies</w>
shif ting</w>
invol vement</w>
con n
Ac tive</w>
parag raph</w>
s co
Circu it</w>
Mi x</w>
Whe el</w>
sk illed</w>
Neg ative</w>
lab eled</w>
C O</w>
fo g</w>
Swe et</w>
M organ</w>
Photos hop</w>
p per
N as
yn thesis</w>
Dis play</w>
w ash
Camer as</w>
it age</w>
ali tion</w>
Fow ler</w>
e dies</w>
ge ometry</w>
R ome</w>
tic le</w>
sim pler</w>
V eter
ro t</w>
photograph s</w>
Spe ech</w>
St and</w>
a w</w>
investig ate</w>
ho sts</w>
prison ers</w>
G od
han dy</w>
y ota</w>
T .</w>
Twit ter
La b</w>
Bud get</w>
ai res</w>
ess ence</w>
ref resh</w>
Se par
sur g
n es</w>
tal ent</w>
2 D</w>
G as
dec or
infr ing
qu een</w>
off s</w>
che ap
be ating</w>
o tive</w>
circu its</w>
c ast
don ation</w>
M om
g ons</w>
su ic
shoul ders</w>
as ms</w>
ide ology</w>
estiv al</w>
brow sers</w>
vin egar</w>
Hy po
Men u</w>
Ex tra</w>
I ES</w>
ph os
A way</w>
mar g
t ories</w>
view er</w>
Spir it</w>
S core</w>
Ear s</w>
X X
Cam pa
G ame
3 0%</w>
read ily</w>
D an</w>
mini str
mo thers</w>
transl ated</w>
ang el
carto on</w>
ic kets</w>
cha e
P A
Op tim
N ev
D y
ose bumps</w>
In dependent</w>
ne ural</w>
t .</w>
moun ted</w>
ballo ons</w>
pa thy</w>
O O
J eff</w>
cros sing</w>
over weight</w>
convinc ed</w>
ici ally</w>
Ex tre
miner al</w>
Mem bers</w>
compl ain</w>
lim b</w>
la g</w>
trop ical</w>
Contro l
Statis tics</w>
Cle aning</w>
prac tically</w>
m ere</w>
veget able</w>
i Pod</w>
char ity</w>
i k</w>
D E</w>
A h</w>
I ran
br ac
gu r</w>
Cour se</w>
coll ective</w>
D al
Ad ded</w>
rad ical</w>
phys ician</w>
Other wise</w>
inter n
Th ing</w>
la kes</w>
micro phone</w>
b ath
ben eath</w>
desir able</w>
bur nt</w>
7 7</w>
Agre ement</w>
ne dy</w>
po x</w>
p ics</w>
ri m</w>
gra ins</w>
ww w</w>
hand ful</w>
sur ing</w>
be st
am el</w>
Voy ager</w>
ins ect</w>
Bacter ia</w>
y east</w>
di sti
thro po
Bot tle</w>
har sh</w>
pro j
er al</w>
° F</w>
Tor onto</w>
K el
t ch</w>
hand writing</w>
P un
sha king</w>
Ho li
au g
our nam
b oss</w>
Fran k
ten nis</w>
S Q
bu mp
H ab
Cher nobyl</w>
sp inal</w>
mel an
I E</w>
P atter
Environ ment</w>
Pi x
agas aki</w>
her self</w>
oles ale</w>
avo iding</w>
depos its</w>
DO ES</w>
r anging</w>
Res ist
rel ates</w>
d v
ol ds</w>
for got</w>
ath ic</w>
anc ement</w>
P aint</w>
L un
conv ince</w>
ani tiz
Sn apchat</w>
be half</w>
Bas ics</w>
in ding</w>
Ch anges</w>
sh ells</w>
ber ries</w>
19 80</w>
war fare</w>
st at</w>
downlo ads</w>
Treas ury</w>
me ets</w>
convers ations</w>
cri ticism</w>
Pro duction</w>
Po or</w>
sil ence</w>
bl ings</w>
Stic k</w>
Back ground</w>
Philipp ines</w>
s ad
dec k</w>
Kno wledge</w>
concentr ate</w>
ell ers</w>
absor bs</w>
j ets</w>
ta tional</w>
car e
18 th</w>
vers ary</w>
s ation</w>
col ony</w>
at y</w>
f ere</w>
sp ra
campa igns</w>
V an</w>
suscep tible</w>
S ense</w>
n est</w>
voc abulary</w>
Invest ment</w>
princi pal</w>
aw ard</w>
1. 1</w>
tic k</w>
wh ites</w>
aff ir
y me</w>
b ag
bac on</w>
G ulf</w>
stu ff
S ex
A ud
vom it</w>
Mean while</w>
h iring</w>
8 th</w>
g ates</w>
tem p</w>
in c</w>
Penn sylvania</w>
th under</w>
ir rational</w>
AS E</w>
in struction</w>
holi days</w>
R ou
IC S</w>
refer endum</w>
R ings</w>
om ers</w>
war rant</w>
pre vention</w>
phr ases</w>
p H</w>
DI Y</w>
ins ane</w>
prof en</w>
li a</w>
Pret ty</w>
subsi di
Fe ed</w>
T ac
P in
the aters</w>
ber y</w>
pro stitution</w>
need les</w>
Gu ys</w>
K ri
orb ital</w>
M outh</w>
Less on</w>
enem ies</w>
Scot tish</w>
conc ei
stere o</w>
enz ymes</w>
wat ches</w>
it r
b b
Is sue</w>
S na
tific ations</w>
theore m</w>
d or
Reco very</w>
M AR
ou tw
gi an</w>
Po le</w>
surpri singly</w>
.. ....</w>
observ able</w>
low ering</w>
u ph
er ever</w>
a ver
has n’t</w>
Mar ine</w>
scop ic</w>
insi ghts</w>
b ad
overwhel ming</w>
underst or
trans fers</w>
un ks</w>
il ia</w>
cryst als</w>
Dri ver</w>
re cre
n ies</w>
Pro grams</w>
H urt</w>
pat ri
Ul timate</w>
re start</w>
an xious</w>
' '</w>
N ation</w>
Ber lin</w>
auth orized</w>
strong est</w>
Al an</w>
tex ts</w>
a o</w>
S lo
G IF</w>
me ats</w>
p acks</w>
Th ro
Z Z
res cue</w>
S elling</w>
v end
cent ri
sna p</w>
Indones ia</w>
id ers</w>
trem end
BU T</w>
ail and</w>
ra tion
desig n
bu ffer</w>
ex e</w>
br it
War ner</w>
99 .
J ordan</w>
sti g
discus sions</w>
G E
et ings</w>
Ber nie</w>
ec osy
B ear
v ements</w>
M C
il legally</w>
appreci ated</w>
ar ise</w>
Qa eda</w>
r anges</w>
autom ated</w>
ch e</w>
MR I</w>
Inter esting</w>
M r</w>
Im prove</w>
gre ek</w>
to dd
Ul tra</w>
dis solve</w>
D ang
Cat al
my ths</w>
th eless</w>
k el
lam p</w>
hur ting</w>
Sp icy</w>
cont est</w>
D ual</w>
res on
tr icky</w>
Inst all</w>
4 k</w>
G RE
re sting</w>
Ap parently</w>
WW 2</w>
. ’</w>
ro ts</w>
peri pheral</w>
concentr ated</w>
k ore
My ster
s -</w>
Hi roshima</w>
on aires</w>
gl ed</w>
8 -
I .</w>
wr ink
m utation</w>
Sp eci
desig ner</w>
d its</w>
oun s</w>
off ices</w>
thri tis</w>
fi x
adap ted</w>
ab brevi
num ber
ever theless</w>
for ums</w>
Di ag
vis a</w>
under ing</w>
inten tionally</w>
em y</w>
T ig
ren tal</w>
mem brane</w>
re turning</w>
tru sted</w>
Str ong</w>
Norm ally</w>
Word Press</w>
Antar ctica</w>
astro ph
correspon ding</w>
T ob
ton ight</w>
d .</w>
Li by
coll ecting</w>
Pregn ancy</w>
concer t</w>
Bel ieve</w>
s ound
og ens</w>
inter fere</w>
jp g</w>
domes ticated</w>
mou ths</w>
S t</w>
hu b</w>
cl ue</w>
as tically</w>
un pleasant</w>
s nor
an al</w>
vari eties</w>
Pro of</w>
elem entary</w>
conven tion</w>
par liament</w>
S par
character istic</w>
V acc
L ines</w>
sex y</w>
R ange</w>
dec iding</w>
3. 0</w>
psy chiat
Mon itor</w>
Evid ence</w>
sophis ticated</w>
stri l</w>
rif le</w>
me a</w>
ir man</w>
URL_ 7</w>
M ight</w>
cool ed</w>
exp iration</w>
4 00
p ushes</w>
Ju ice</w>
F oun
net working</w>
Arch it
meaning ful</w>
co ke</w>
7 8</w>
Cr yst
L TE</w>
P ass</w>
in hale</w>
tw itch</w>
utili ze</w>
near est</w>
lo ving</w>
For ces</w>
Hard ware</w>
mou th
ass essment</w>
po tato</w>
T am
Lou is</w>
ro aches</w>
b all
ong side</w>
chur ches</w>
astronom ers</w>
cl utch</w>
ten der</w>
schem es</w>
eb er
stra ight
Organ ization</w>
Conserv ative</w>
sign atures</w>
regar ded</w>
day light</w>
l ady</w>
AR D</w>
bom bing</w>
as is</w>
sk elet
cru ise</w>
pos ing</w>
st ove</w>
separ ately</w>
th an
P ig
conn ects</w>
Sun ni</w>
W ash</w>
C amp
co ach</w>
excl usively</w>
stop her</w>
Mon t
vo res</w>
tr il
P U
R ise</w>
H ands</w>
reta ilers</w>
n y
T um
albu ms</w>
ma c</w>
ham mad</w>
simul ation</w>
pron ounce</w>
eli hood</w>
cho lesterol</w>
dinos aur</w>
ro pe</w>
ox y
wh it
o h
in stitution</w>
0 ,000</w>
di ets</w>
Se attle</w>
R NA</w>
qu e
Tr ack</w>
defe at</w>
P ear
Life style</w>
col n</w>
Rec omm
Bank ruptcy</w>
gau ge</w>
or i</w>
bri ghter</w>
O L</w>
cr amps</w>
knoc ked</w>
mean ings</w>
def ects</w>
s enti
fe ars</w>
H ub
Bur ning</w>
Air port</w>
tra il</w>
P ast</w>
lif esp
t arian</w>
Spe aking</w>
mat ching</w>
W ave</w>
Ke eping</w>
h emisphere</w>
G or
ha r</w>
k ush
contem porary</w>
Mass achusetts</w>
ra dic
B ay
ID E</w>
с т
republ ican</w>
hi p
fl esh</w>
T we
mo dule</w>
D A
doc tr
pir acy</w>
cou ghing</w>
ethn icity</w>
aim ed</w>
v or</w>
B att
l i</w>
W ow</w>
Bre ak</w>
Expen sive</w>
do g
Can dy</w>
Tar get</w>
co p</w>
hop es</w>
d d</w>
Th re
shel ter</w>
I .
gras p</w>
contin ents</w>
Mo tor</w>
cam pus</w>
F ar</w>
contr ary</w>
Pr inc
0. 00</w>
h ose</w>
fi ghts</w>
ren ting</w>
is sed</w>
ne eding</w>
re ven
f ade</w>
competi tors</w>
F IF
I owa</w>
multip ly</w>
he y</w>
poc kets</w>
v ar</w>
ific ations</w>
sh op
teen agers</w>
dep loy
promis es</w>
test osterone</w>
resol ve</w>
D ave</w>
Re ady</w>
P ort</w>
We ird</w>
snee zing</w>
12 8</w>
Malay sia</w>
di ans</w>
squ ir
cri p
Ch at</w>
resp ir
pro ves</w>
_ _
ou l</w>
neg atively</w>
spir al</w>
00 3
Gr am
K ir
Exper t</w>
out comes</w>
Oper ating</w>
ad option</w>
J en
What s
Vir uses</w>
prepar ation</w>
adv ances</w>
Hom o</w>
Qu ick
u pri
Ad diction</w>
pri ze</w>
Liber al</w>
shar ks</w>
p av
prepar ing</w>
valu ed</w>
at uring</w>
min s</w>
iz ar
poli tically</w>
Rever se</w>
R oo
tion ers</w>
phenomen a</w>
enti ties</w>
boy friend</w>
G ET</w>
al i</w>
st ayed</w>
representa tives</w>
Fing er
glo ves</w>
oper ates</w>
Hot el</w>
izophren ia</w>
fos sils</w>
stic king</w>
i th
equ ilibrium</w>
sp ouse</w>
trans form</w>
manag ers</w>
Chall enge</w>
de er</w>
ca us
v ings</w>
fac ture</w>
p y</w>
anu ts</w>
el le</w>
up votes</w>
Venezu ela</w>
Pri ze</w>
analy ze</w>
pas sive</w>
m are</w>
dis cre
rec ur
We ed</w>
deal er</w>
bic ycle</w>
/ /
person nel</w>
cr ack
Op ens</w>
R ound</w>
f ills</w>
L ad
Orig in</w>
kush ima</w>
Gu ard</w>
o li
defin ite</w>
sm elling</w>
Commun ist</w>
enth ood</w>
pre valent</w>
s ocks</w>
vibr ate</w>
b yp
ti sing</w>
transist ors</w>
shr ink</w>
T rain</w>
turb ine</w>
Le ts</w>
ev a</w>
N ick
C IS
sid ency</w>
ting ling</w>
mosquit oes</w>
Pat rick</w>
compar able</w>
bu ff
No bel</w>
bit coins</w>
tow ns</w>
pro xy</w>
Dom es
S C</w>
T ests</w>
AT I
deleg ates</w>
homos exuality</w>
sc atter
st em
Under stand</w>
enjo ying</w>
el derly</w>
is er</w>
Sp ray</w>
uc t
wor d
supp osedly</w>
inst inct</w>
cont agious</w>
in forma
Char ge</w>
10 th</w>
S Y
con sin</w>
ch ills</w>
conserv atives</w>
A x
civili ans</w>
star ter</w>
In fo
tra ded</w>
14 .
autom ob
there by</w>
mus li
Con sul
bound aries</w>
ur ance</w>
so oner</w>
u ce</w>
E .
break down</w>
NE T</w>
ris m</w>
o o</w>
His panic</w>
st ood</w>
Sav ings</w>
lact ose</w>
J im
co st
GM T</w>
repres enting</w>
theore tically</w>
tan eous</w>
mil it
Quo te</w>
P ort
propor tional</w>
Alzhe imer</w>
au gh
9 th</w>
comp act</w>
s ocket</w>
A sk
Offic er</w>
th i
w a</w>
hic cups</w>
struc tural</w>
Tre es</w>
Ac tiv
ut able</w>
respon sib
E A</w>
consi st</w>
att ach</w>
bre ath
Tradi tional</w>
Head phones</w>
W et</w>
Stu dio</w>
f t
sent enced</w>
Mus eum</w>
pain tings</w>
Ch anging</w>
over head</w>
igno red</w>
os c
appe aling</w>
A us
op ing</w>
W ell
tis an</w>
Hen ry</w>
tw itter</w>
L ater</w>
be aring</w>
G lo
det on
Respon se</w>
spe aks</w>
Prot est
Th inking</w>
suc ks</w>
Reci pes</w>
C RE
T A
K ansas</w>
po ker</w>
le ap</w>
S chem
comp et
buc ket</w>
wi ki</w>
Manu factur
por nography</w>
he arts</w>
u lic</w>
Ra w</w>
bu zz
lif f</w>
ni ves</w>
Sum mary</w>
v ig
suppor ters</w>
the w</w>
Russi ans</w>
Th oughts</w>
vi bration</w>
ta xed</w>
Dis covery</w>
Hear t
P ope</w>
Custom er</w>
Ab use</w>
as cular</w>
Stre aming</w>
prefer ences</w>
dis ability</w>
fortun ate</w>
Dev ices</w>
buil ds</w>
tra violet</w>
curren ts</w>
In s
S aving</w>
g b</w>
spac es
enc y
simp lif
ren dering</w>
op er</w>
physic ists</w>
bro thers</w>
Di vision</w>
Ban king</w>
G H</w>
ch ester</w>
pois onous</w>
cl ubs</w>
Ess entially</w>
motiv ated</w>
hor ri
e dia</w>
Tr ans</w>
PC s</w>
bum p</w>
T ower</w>
vo red</w>
thresh old</w>
mo d</w>
h u</w>
W ei
im s</w>
aband oned</w>
R T</w>
Mathema tics</w>
G ates</w>
Remo val</w>
N aked</w>
24 /
dr one</w>
S port</w>
is lam</w>
ha w
Inter nal</w>
pat ents</w>
jo hn</w>
Th ailand</w>
Di vid
le af</w>
Plan ned</w>
A AA</w>
the at
christi anity</w>
T W
Calcul ate</w>
consequ ence</w>
bri dges</w>
sha dows</w>
f ishing</w>
bil li
Con vention</w>
Con flic
v able</w>
am ic</w>
hon or</w>
pil low</w>
Al bert</w>
mat tress</w>
pi e</w>
ang ed</w>
sp ark</w>
P .
in ism</w>
T X</w>
recre ational</w>
R ick</w>
An i
tur key</w>
qu ad
no ses</w>
any time</w>
C Ds</w>
N .</w>
Br on
ro d</w>
Col on
tw ist</w>
Regar dless</w>
Ser iously</w>
ques tion
pain ted</w>
Relig ious</w>
7 0%</w>
cra ve</w>
den ied</w>
arbitr ary</w>
â €
repe ating</w>
neighb ors</w>
mod ynamics</w>
Y ourself</w>
be ts</w>
Allerg ies</w>
ul tra</w>
pup ils</w>
Free ze</w>
threat ened</w>
a. m.</w>
Vehic le</w>
How Stuff
uc ky</w>
dis solved</w>
S car
g ages</w>
f ate</w>
HowStuff Works</w>
TP P</w>
sovere ign</w>
7 4</w>
c ult</w>
dr ying</w>
Hal loween</w>
em itted</w>
Inter view</w>
bio tics</w>
S ick</w>
Hou ston</w>
ban anas</w>
W age</w>
C BS</w>
sha des</w>
end ang
V acuum</w>
tr o</w>
oc tane</w>
don ations</w>
Det ails</w>
squee ze</w>
is ra
answ ering</w>
d oses</w>
adren aline</w>
ch i</w>
Rec ords</w>
Exper ts</w>
ep tion</w>
B la
B ond</w>
Wi i</w>
Q .</w>
gu est</w>
she ep</w>
g ic</w>
Over all</w>
H us
vag ina</w>
Wi ki</w>
clou dy</w>
add ressed</w>
Oc cup
sha ving</w>
Star ting</w>
1. 2</w>
Con feder
p ec
lik elihood</w>
B LO
clean ed</w>
th ing
op tic</w>
Pass word</w>
sw ollen</w>
hand led</w>
franch ise</w>
sum mar
o rescent</w>
az ines</w>
199 3</w>
d am</w>
cous in</w>
Connec tion</w>
histor ically</w>
S ent
gam ers</w>
N ails</w>
lay out</w>
conver ter</w>
kil ometers</w>
Par al
vic tory</w>
reason ably</w>
ic e
th icker</w>
no stril</w>
independ ently</w>
Palest inian</w>
mu tual</w>
P le
inc entive</w>
fla kes</w>
Min nes
Car to
U sers</w>
F ROM</w>
Sch ol
recep tion</w>
carto ons</w>
mel ted</w>
Pok emon</w>
sun set</w>
Dis k</w>
de hydrated</w>
ari um</w>
M ining</w>
Dang erous</w>
N u
Gol f</w>
Ex ter
B illion</w>
AT ED</w>
ow ed</w>
bur ied</w>
T ony</w>
Bre ath</w>
W oo
nou n</w>
pum ps</w>
evalu ate</w>
Wal k</w>
Diam ond</w>
cle ar
C F
Sar ah</w>
Pol and</w>
bin ding</w>
ti d
nit us</w>
hal t</w>
B ed
or neys</w>
su ing</w>
bod ily</w>
P al</w>
per mit</w>
app liances</w>
men ting</w>
R ole</w>
man i
fol lowers</w>
Democr acy</w>
d ump</w>
O M
d ys
ach s</w>
Cri mea</w>
sett lement</w>
p y
deal ers</w>
manag ing</w>
pri de</w>
sett led</w>
er s’</w>
c us</w>
HD D</w>
sing ers</w>
Jas on</w>
o y
l um
exemp t</w>
uni verses</w>
Aw esome</w>
pum ping</w>
de structive</w>
arrang ed</w>
al ongside</w>
J am
TH ING</w>
si c</w>
im port</w>
decreas ed</w>
Pro to
us sy</w>
dr ama</w>
Ni ght
y awning</w>
turb ines</w>
ro le
dec lare</w>
La un
orig inate</w>
Fl ying</w>
plac ebo</w>
L GB
sec ured</w>
a j
C ++</w>
h iding</w>
civili an</w>
pp le</w>
em ul
Condi tions</w>
su stain</w>
p .</w>
conflic ts</w>
C utting</w>
war m
aster oids</w>
tor ture</w>
co il</w>
S ore</w>
w is</w>
ang ular</w>
som nia</w>
expl oring</w>
Equ ipment</w>
ord ings</w>
sw i
Le ad</w>
d ub
Sched ule</w>
con qu
R C</w>
g ang</w>
T our</w>
C AP
Meth od</w>
To yota</w>
Hosp ital</w>
gr ant</w>
Lim ited</w>
h h
out line</w>
L SD</w>
Fe atured</w>
J ur
st are</w>
tac tics</w>
I cel
bal d</w>
mel on</w>
b es
2 ,000</w>
SQ L</w>
gar age</w>
R us
odor ant</w>
contribu tion</w>
C over
tor rents</w>
influ ences</w>
A bo
ounc ing</w>
Stre am</w>
emphas is</w>
deem ed</w>
8 ,
bal lot</w>
space time</w>
al ised</w>
o zone</w>
gall ons</w>
succ eed</w>
50 ,000</w>
gar lic</w>
de hydration</w>
G reg
Str ategy</w>
EM P</w>
99 %</w>
Str ateg
counter fe
han gover</w>
un wanted</w>
f iz
per sist
embed ded</w>
ob st
H ole</w>
consen sus</w>
Deb it</w>
count less</w>
manu facture</w>
der all</w>
z oom</w>
ab sur
mar ines</w>
subsequ ent</w>
S D
AK E</w>
M iller</w>
v enti
el if</w>
sk et
propag anda</w>
ear ning</w>
ref used</w>
Class ical</w>
In flu
produc tivity</w>
ran ks</w>
yog urt</w>
G az
assi um</w>
sha me</w>
d ent</w>
Me et</w>
Ar ctic</w>
n. d</w>
genu ine</w>
recommend ations</w>
B is
ta h</w>
graph s</w>
~ ~
bu yer</w>
re productive</w>
tur n
ul ties</w>
\u 003
Bal ance</w>
stric tly</w>
VIDE O</w>
man if
dr ought</w>
M D
M .
E thernet</w>
displ ac
vi ties</w>
H ub</w>
Tat too</w>
sur ge</w>
bul l
appro aching</w>
CO MP
int ention</w>
ran king</w>
alter ed</w>
tit led</w>
ret ina</w>
S ort</w>
Cho ice</w>
en force</w>
bal ances</w>
Conver t</w>
li br
cu red</w>
L ot</w>
FIF A</w>
brilli ant</w>
un fair</w>
le aks</w>
P izza</w>
G IF
an us</w>
Spe aker</w>
F T</w>
det ector</w>
arrang ement</w>
1 60</w>
CP Us</w>
Eng ines</w>
calcul ation</w>
L yn
avo ided</w>
identi fying</w>
un common</w>
sla ves</w>
by tes</w>
pal m</w>
H ours</w>
M B
Shi pping</w>
Pur pose</w>
hygi ene</w>
sp elled</w>
awk ward</w>
u ff
ari os</w>
Up load</w>
ON LY</w>
transm itter</w>
Hel ium</w>
S ample</w>
sla ve</w>
pip eline</w>
iss ance</w>
eth anol</w>
re pre
D ak
el ite</w>
respir atory</w>
resi st</w>
op ha
tem plate</w>
cre ature</w>
S K
an ted</w>
Mar yland</w>
Wis consin</w>
esti al</w>
A sleep</w>
pp i</w>
L S</w>
sp lit
X L</w>
exhau sted</w>
6 4
av ailability</w>
work place</w>
comp res
Di abetes</w>
th is
un certainty</w>
Turk ish</w>
guil t</w>
col oring</w>
Transm ission</w>
P ip
16 :
th y
N ation
gra ded</w>
exp ands</w>
A ds</w>
ag on
Facebook Share</w>
E L</w>
C ount</w>
la wn</w>
L ow
D J</w>
G ain</w>
spe eding</w>
plan etary</w>
n at
M ini
treat y</w>
por ting</w>
Mur der</w>
Su icide</w>
Ref riger
D uty</w>
sal aries</w>
secre ts</w>
S no
ear liest</w>
Law yer</w>
f ically</w>
all as</w>
b bean</w>
ona ut</w>
st ress
Wil d
Ti red</w>
liber alism</w>
P ent
exc eed</w>
post ure</w>
m ia</w>
Bas ketball</w>
sn ack</w>
Tut orial</w>
coun ted</w>
Fu kushima</w>
S ER
sur vey
mort ality</w>
ey ed</w>
Tre at</w>
M IN
counter parts</w>
ar ia</w>
h oods</w>
ch ickens</w>
rol ler</w>
vir tu
cat ching</w>
l eng
Sp on
U PS</w>
Re agan</w>
l ump</w>
cas ual</w>
api ens</w>
Str ing</w>
mas cul
indic ation</w>
al pha</w>
cer eal</w>
S pot</w>
trans gender</w>
a ul
Mo ore</w>
h eter
s ought</w>
calcul us</w>
pharmac eutical</w>
pun c
El on</w>
G S</w>
19 45</w>
si ghted</w>
Pep si</w>
Kno wing</w>
advertis ements</w>
sequ ences</w>
z y
Web sites</w>
civil izations</w>
pay ers</w>
EN T
char gers</w>
Im migration</w>
h z</w>
m ud
con ce
Sci ences</w>
hydr ate</w>
be c</w>
ro yal</w>
after wards</w>
op es</w>
H ulu</w>
inv ested</w>
199 1</w>
w rist</w>
subscri bers</w>
pro ving</w>
b are</w>
pat ches</w>
k ia</w>
V oc
Can di
bo xing</w>
alter nate</w>
H our</w>
sh ark</w>
V ista</w>
Spec if
com promise</w>
Jud aism</w>
minim ize</w>
preci sion</w>
For tun
Twitter Share</w>
ac ies</w>
in qu
V el
Ap plications</w>
tw el
ble ach</w>
Red uce</w>
sur plus</w>
p ause</w>
Sub mitted</w>
cl one</w>
harm less</w>
absor ption</w>
differenti ate</w>
comm ission</w>
Brow se</w>
Pap ers</w>
Con vers
Weap ons</w>
sho e</w>
re sidential</w>
199 2</w>
Fri end
spo on</w>
20 s</w>
ur inate</w>
re fund</w>
iz ers</w>
co conut</w>
Sc ale</w>
B it</w>
E vent</w>
Be es</w>
Pro p
fas hi
Extre me</w>
Wh is
cli ps</w>
sour i</w>
ex port</w>
sel lers</w>
pim ples</w>
B ubble</w>
Home work</w>
H in
Con tribu
Con tr
S ound
f aint</w>
Po ints</w>
C ari
de fl
So on</w>
tun ed</w>
Cel eb
femin ine</w>
mo tors</w>
auth entic
pas sport</w>
p itch
th al
hom a</w>
juris diction</w>
bl r</w>
Minnes ota</w>
disp ute</w>
Let ters</w>
Egyp tian</w>
flexi bility</w>
foli o</w>
D eci
C aff
amp li
li sting</w>
tou ch
re jected</w>
Z i
rin se</w>
min us</w>
susp ended</w>
Ox ford</w>
12 th</w>
brow se</w>
C AR</w>
Bre ast</w>
tra umatic</w>
prosec ut
av en</w>
Bu reau</w>
7 9</w>
acc i</w>
Sp ider</w>
Won der
Prin ting</w>
Star ted</w>
Dem and</w>
pas sion</w>
Net works</w>
Mus cles</w>
Acc essories</w>
tel escopes</w>
Corpor ate</w>
sever ely</w>
ang led</w>
As sem
F ather</w>
neutr on</w>
lo sure</w>
th a</w>
D ur
Rev ie
ran ked</w>
B ear</w>
b red</w>
wiki pedia</w>
night mares</w>
has n't</w>
ri ght
Naz is</w>
Ad vis
16 .
los s
stric ts</w>
d ough</w>
stra ins</w>
hor sepower</w>
ch op
W I
Ken nedy</w>
Shi ft</w>
sub stitute</w>
v on</w>
C AN
D or
st ating</w>
E u
wh erever</w>
b at</w>
sti p
Tr ying</w>
e ats</w>
rout es</w>
consider ably</w>
H BO</w>
Remo te</w>
po d</w>
veter ans</w>
15 .
scre am</w>
N C</w>
Harv ard</w>
peac eful</w>
pret end</w>
ir relevant</w>
li thium</w>
Ac ne</w>
n in
Dri vers</w>
yl en
peri odic</w>
Flo or</w>
Fro zen</w>
rel ating</w>
laun dry</w>
c ache</w>
tw ist
physi ological</w>
un expected</w>
G ate</w>
s ounding</w>
Con stitu
Pre vention</w>
B ap
ound ings</w>
Ph illi
As sist
Fore x</w>
distribu te</w>
up wards</w>
Mi ami</w>
flu oride</w>
Bro ken</w>
stain less</w>
satis faction</w>
B ang
G L
prot on</w>
iss ors</w>
con e</w>
J ay</w>
Cath ol
op ho
fin ed</w>
clar ify</w>
z ers</w>
comp ress</w>
Th ir
t reas
demonstr ated</w>
B and</w>
stimul ate</w>
commit ment</w>
S even</w>
whis key</w>
l s
о в
en za</w>
earthqu akes</w>
T T
sub jective</w>
stu dios</w>
n ude</w>
in door</w>
Dub ai</w>
li am
develop s</w>
le ather</w>
inte gration</w>
N avig
DV Ds</w>
In iti
l ord</w>
Tran sp
Eff ective</w>
rela xing</w>
F it
wind shield</w>
AT M</w>
t ario</w>
recycl ed</w>
L ock</w>
mat rix</w>
bu re
Tech ni
bl ink</w>
shor tly</w>
la homa</w>
adverti se</w>
TL ;
ta il
br on
ven ess</w>
Rep lies</w>
K ING</w>
expres sions</w>
con s
Ac tors</w>
simil arly</w>
s ors</w>
oper ators</w>
20 20</w>
v o</w>
sw allowing</w>
Vo ting</w>
spher ical</w>
h en</w>
pr inters</w>
sl ice</w>
IS O</w>
Con ference</w>
7 ,
P E</w>
bo wel</w>
di at
cat astroph
em ma</w>
7 3</w>
Hor se</w>
Be ef</w>
mo logy</w>
fin an
Dom in
F IN
ho ly</w>
th inner</w>
V ES</w>
bon acci</w>
m ount</w>
ed less</w>
dispos al</w>
с к
AL S</w>
nam ely</w>
lob bying</w>
y te</w>
Formul a</w>
sp ends</w>
wol ves</w>
du plic
finger prints</w>
tradi tionally</w>
Ad ding</w>
underst and
AC T
le aked</w>
Mic ro</w>
sugg esting</w>
co s</w>
se gment</w>
Con struction</w>
Win dow</w>
wor ship</w>
R ab
Py thon</w>
Re uters</w>
DO W
SO L
stand ardized</w>
ma il
ub ric
S hot</w>
D ow</w>
im posed</w>
A le
Reser ved</w>
am ino</w>
Chri stopher</w>
ven tures</w>
25 6</w>
nar rative</w>
inev itable</w>
stu ffy</w>
st um
tast ing</w>
gam e
asp berry</w>
na tionally</w>
bloo ded</w>
v ors</w>
Hu ff
cos mic</w>
sha ft</w>
P ool</w>
Me dium</w>
En cryp
al together</w>
re public</w>
P ure</w>
wom b</w>
re wards</w>
p u</w>
Health Tap</w>
Pres cri
ML B</w>
Dav is</w>
In jury</w>
imple mentation</w>
Lin coln</w>
Ar men
wal let</w>
ric anes</w>
av en
L L
cav ity</w>
reme dy</w>
Do g
navig ate</w>
ful l
alleg ed</w>
gen res</w>
raz or</w>
M ON
st en
Google +</w>
v is</w>
196 0s</w>
complic ations</w>
S la
Ch art</w>
g ad
bl ur</w>
cro p</w>
198 0s</w>
evapor ate</w>
ag enda</w>
n m</w>
sk ull</w>
k iss</w>
su preme</w>
g ums</w>
w anna</w>
Person ally</w>
he l</w>
jus tified</w>
stain s</w>
un d</w>
B loo
land ed</w>
i k
d in
s ne
oper ator</w>
acc ept
Sur face</w>
roman tic</w>
re sident</w>
ari anism</w>
Meth ods</w>
tt est</w>
lim iting</w>
Tr uck</w>
This !
j an</w>
Lin ked
impro vements</w>
4 4
IS T
F ab
av al</w>
destro ying</w>
lin e
S co
Nev ada</w>
5 8
promo ting</w>
inf ant</w>
te m</w>
War ning</w>
Jus tin</w>
Bru ce</w>
e w
in tim
finger print</w>
Par enthood</w>
E lements</w>
Dro p</w>
Blog This!
j un
199 0s</w>
nor m</w>
tradem ark</w>
end less</w>
lo vely</w>
acc essories</w>
Rem edies</w>
Con ven
thir sty</w>
Specif ically</w>
Pre par
Liby a</w>
car pet</w>
O s
Or th
ham mer</w>
accep ting</w>
brief ly</w>
bel ongs</w>
olog ies</w>
la va</w>
GM O</w>
е н
establi shment</w>
B read</w>
t ably</w>
Gene tic</w>
T uring</w>
Se ems</w>
F X</w>
deb ates</w>
un stable</w>
ly n</w>
cred ited</w>
ro ad
gam ma</w>
R ice</w>
197 0s</w>
ju ven
intu itive</w>
W ay
Cub an</w>
\ (
Simp son</w>
er ation</w>
pre sidents</w>
Pl ane</w>
6 6
d urable</w>
et ta</w>
M ission</w>
ak y</w>
dr astically</w>
do c</w>
ell ation</w>
This BlogThis!
ThisBlogThis! Share</w>
exam ination</w>
ent repre
stimul us</w>
co stly</w>
vol ati
17 th</w>
Pan ama</w>
ci a</w>
New er</w>
Environ mental</w>
15 %</w>
Bo eing</w>
Inst ant</w>
oc curren
i o
ari th
Representa tives</w>
por tions</w>
pac kets</w>
comm ands</w>
G uns</w>
can al</w>
Be at
Ce iling</w>
re mind</w>
d oms</w>
det ectors</w>
401 k</w>
O 2</w>
h itler</w>
abdom en</w>
Con duc
Argent ina</w>
p se
cor ds</w>
surr oundings</w>
ic on
H 2
speci alist</w>
m m
Out side</w>
ph ases</w>
T ank</w>
tri ps</w>
pro be</w>
m ating</w>
Campa ign</w>
20 /
junc tion</w>
eng aging</w>
g ary</w>
inj ected</w>
C and
B ring</w>
al ds</w>
el low
Reco gn
Pre mi
finger nails</w>
clock wise</w>
Capit alism</w>
Pro fit</w>
TL; DR</w>
Al ong</w>
ad el
Peri od</w>
mer cury</w>
Day light</w>
boar ding</w>
Cy cle</w>
pu zzle</w>
gent le</w>
adm itted</w>
invol un
re ject</w>
ve in</w>
et t</w>
Spec ies</w>
mo ds</w>
w rest
ar ous
Vis ual</w>
N I
Roc k
N at
TI ME</w>
gall ery</w>
param eters</w>
Ex cl
K at
re actors</w>
URL_ 8</w>
H emisphere</w>
Bat man</w>
High way</w>
d ney</w>
ves sel</w>
K et
op pose</w>
pre v
the or
le vi
Cryp to
sk ep
se g
N D</w>
Rep orts</w>
cl arity</w>
fr ater
Portu gu
infin itely</w>
class room</w>
al is</w>
st oms</w>
intest ines</w>
z om
DI A</w>
C annabis</w>
198 4</w>
mon t</w>
W ales</w>
ch eat</w>
s laughter</w>
circum cision</w>
3 0s</w>
shar p
r ounds</w>
in spiration</w>
O '
remember ing</w>
per mitted</w>
Posi tive</w>
Lab our</w>
viol ate</w>
on ically</w>
o be
Ar k
ther mom
Au tism</w>
consider able</w>
Cap ac
M erc
Ger mans</w>
E V
ou stic</w>
can ned</w>
del ayed</w>
Comp lex</w>
F alling</w>
wild life</w>
defin ing</w>
Uk ra
­­­­­­­­­­­­­­­­ ­­­­­­­­­­­­­­­­
emo tionally</w>
br ick</w>
stri king</w>
Car l</w>
bu ys</w>
Tri al</w>
D ad</w>
G P</w>
U M</w>
popul ated</w>
um my</w>
Cir cle</w>
spec tives</w>
oppos ing</w>
is y</w>
Tre k</w>
be gun</w>
so viet</w>
dial ogue</w>
B ird</w>
cou ch</w>
dom inated</w>
c ave</w>
innov ative</w>
experim ental</w>
dr ill</w>
ch an</w>
cor ners</w>
lon ged</w>
cr acks</w>
acceler ating</w>
ent als</w>
applic able</w>
Ath le
argu ing</w>
habit able</w>
B inary</w>
sear ched</w>
cer em
cre ativity</w>
invest or</w>
TH ER</w>
L es
shoc ked</w>
NH L</w>
C rac
evol ving</w>
ne a</w>
am o</w>
Citiz ens</w>
dol phins</w>
at us</w>
F it</w>
ste aling</w>
conver ting</w>
orig inated</w>
In str
F iction</w>
short age</w>
h acked</w>
H oo
canc ers</w>
deriv atives</w>
izar re</w>
6 0%</w>
ona ire</w>
it ly</w>
b arg
A LI
lab our</w>
S PE
O scar</w>
statis tical</w>
F usion</w>
naus eous</w>
ES S</w>
W id
sec urities</w>
h att
preven ted</w>
AR T</w>
i a
be ers</w>
Bl ind</w>
real ise</w>
frustr ating</w>
Re fl
desig ners</w>
exec uted</w>
en ix</w>
car es</w>
bound ary</w>
L if
kno w
Bu g</w>
ou fl
Fortun ately</w>
t oll</w>
share holders</w>
Sha mpoo</w>
sp ins</w>
D UI</w>
pur sue</w>
lo sed</w>
explo sive</w>
US SR</w>
Ess ential</w>
Gi ant</w>
Pan el</w>
14 th</w>
AC E</w>
Foo t</w>
ylen ol</w>
Wil son</w>
myster ious</w>
t aller</w>
Sk ype</w>
exp ecting</w>
am in
flo ors</w>
concl ude</w>
Fil ter</w>
ei gh
j ing</w>
arter ies</w>
F os
ty pe
P yramid</w>
st ats</w>
Dev ice</w>
Pan els</w>
Char lie</w>
sp are</w>
Citiz en</w>
rec ycle</w>
ann e</w>
med itation</w>
Elec tions</w>
cho ol
aliz es</w>
SI M</w>
Ill u
:3 0
sal ts</w>
6 -
met aph
in ting</w>
Expl ore</w>
TH C</w>
IS T</w>
Orig inally</w>
wat ts</w>
mem es</w>
S ear
N ice</w>
inter ven
tr as
ti ghtly</w>
d ull</w>
id ential</w>
An th
Al pha</w>
ti ze</w>
198 9</w>
bre e
ur s</w>
blood stream</w>
C M
L ate</w>
h d</w>
privil ege</w>
C ast
9 ,
tre ats</w>
W o
pa ths</w>
ag ging</w>
ancest or</w>
dipl omatic</w>
Sha kespeare</w>
mig rants</w>
Por table</w>
10 00
ru in</w>
ma tive</w>
cour tesy</w>
ori an</w>
Bir th
rela tives</w>
char ts</w>
ar in</w>
si p</w>
Mat thew</w>
Comp uting</w>
ad verse</w>
inter active</w>
7 0s</w>
Asi ans</w>
bl onde</w>
H it</w>
sp it</w>
ffic king</w>
comm ent
as ph
ri e</w>
13 th</w>
Adver tising</w>
Rec ycl
S R
k le</w>
s giving</w>
c ade</w>
Streng th</w>
1 30</w>
rec ordings</w>
shut tle</w>
Ne il</w>
survi ved</w>
H EL
col leagues</w>
cen sorship</w>
Le on
g ence</w>
scen arios</w>
rec tang
announc ement</w>
contribu ting</w>
th understor
sh iny</w>
But ter
Iran ian</w>
ab ling</w>
cr acked</w>
respon ding</w>
Compar ed</w>
pro sp
W ood
guid ance</w>
Rol l</w>
s oc
Wor ld
N ow
Eg g</w>
umin ati</w>
att acking</w>
supp lied</w>
Ex ist
it ated</w>
adv ise</w>
amm able</w>
Doc um
remark able</w>
Fe w</w>
Indi ans</w>
war e
Part nership</w>
E sp
B ic
IB M</w>
uni or</w>
fl ags</w>
But ton</w>
endang ered</w>
Calcul ator</w>
contribu ted</w>
St even</w>
BL ACK</w>
cab in</w>
B etting</w>
Commun ications</w>
Ro y
N ail</w>
t els</w>
r .</w>
leg alized</w>
p ads</w>
veg an</w>
thri ve</w>
p ouring</w>
aim s</w>
Cari bbean</w>
encoura ged</w>
head phone</w>
is ations</w>
Pow ered</w>
irrit ation</w>
interpre ted</w>
ex ports</w>
S A
cri tics</w>
N it
D ER
Re ader</w>
cri tici
fin es</w>
Ob ject</w>
Pri son</w>
uct ose</w>
role um</w>
m its</w>
ad ul
Sen ior</w>
character ized</w>
Ne ither</w>
su ited</w>
Sh opping</w>
or n</w>
aff airs</w>
Inte gr
Sp ac
expect ancy</w>
AY S</w>
Mis souri</w>
dem anding</w>
n ish</w>
F ans</w>
Q atar</w>
K ent
manu als</w>
Niger ia</w>
up ward</w>
magne tism</w>
E ve</w>
du ties</w>
nur se</w>
stret ched</w>
Cre ating</w>
d an</w>
kno ts</w>
Z im
che es
con dem
Sto res</w>
Ric h
S nee
Clo thing</w>
! !
in um</w>
occup ied</w>
discus ses</w>
d ents</w>
co ast
Loo ks</w>
3 000</w>
Par adox</w>
gu essing</w>
Gra y</w>
dic tions</w>
gen ome</w>
concl uded</w>
w ay
vari ed</w>
fat ty</w>
enz yme</w>
Func tion</w>
streng then</w>
al y</w>
OR Y</w>
fl ashing</w>
bi ble</w>
She et</w>
Alex ander</w>
soli ds</w>
S om
RE ALLY</w>
h acker</w>
antim atter</w>
it ating</w>
D ER</w>
Ok lahoma</w>
^ (
clim ates</w>
G ab
r pm</w>
design ated</w>
D allas</w>
ven om</w>
pub erty</w>
modern ism</w>
Thr ones</w>
g if</w>
ass ess</w>
L A
T own</w>
yog a</w>
Writ er</w>
G ary</w>
Dis eases</w>
cam ps</w>
ban ning</w>
odo x</w>
s r
ru de</w>
Identi ty</w>
tes ticles</w>
Leg is
ch in</w>
l ec
R and</w>
differ ential</w>
16 th</w>
Di ego</w>
M H
sa il
occasion al</w>
c ited</w>
gu ards</w>
h ow
no tation</w>
Play Station</w>
Experim ent</w>
compens ate</w>
sin us</w>
ri ages</w>
R id
201 9</w>
R ati
ic ated</w>
HT ML
ster oid</w>
t elec
de partments</w>
R ose</w>
G ets</w>
D op
out doors</w>
st a</w>
pro jec
mon keys</w>
U tah</w>
smo ked</w>
en suring</w>
to s</w>
hand les</w>
cat al
no te
l end</w>
h eck</w>
s (
jud gment</w>
Bel ly</w>
pu zz
ini ans</w>
Resol ution</w>
Ever est</w>
lap se</w>
enti c</w>
inter views</w>
wor m</w>
di zz
8 00
star d</w>
sear ches</w>
ra inf
weigh s</w>
Viol ence</w>
sun glasses</w>
phos ph
anti bodies</w>
Techn ical</w>
ann on</w>
C ER
Met e
plu gging</w>
off set</w>
cl oning</w>
in sured</w>
imp ly</w>
gu ides</w>
econom ically</w>
co ck</w>
J O
tremend ous</w>
Op inion</w>
Ira q
dr ones</w>
In nov
t ful</w>
19 70</w>
meg a</w>
enti a</w>
def iciency</w>
gu ests</w>
Ne eds</w>
reli es</w>
D a
sil icon</w>
Sen ator</w>
sel ective</w>
ab normal</w>
t ournam
Prin ter</w>
Pat ent</w>
tax i</w>
je ans</w>
sil k</w>
tat or
respon ded</w>
D ell</w>
expl ic
rep tiles</w>
Ab ra
smooth ly</w>
op ath</w>
in ess
al ign
emerg ing</w>
cha os</w>
lifesp an</w>
Le wis</w>
duc es</w>
sion ate</w>
dis appeared</w>
tra y</w>
7 %</w>
war t</w>
pl ural</w>
Rel ief</w>
14 0</w>
individ ually</w>
V ector</w>
р а
ab ama</w>
r ash</w>
inter val</w>
spec tac
met allic</w>
integr al</w>
mem e</w>
min es</w>
Fe et</w>
) {
ul traviolet</w>
pe eing</w>
heav en</w>
agricul ture</w>
Lu xury</w>
shut ter</w>
hur ricane</w>
Caff eine</w>
Key s</w>
spe ed
L av
Q s</w>
A z
trans it</w>
pig ment</w>
Pe ts</w>
ari ans</w>
Mis sis
ag gre
Ma x
ani ed</w>
Dak ota</w>
Af ter
amp ;
sun ny</w>
elim inated</w>
ba it</w>
tow els</w>
6 0s</w>
weak ness</w>
mother board</w>
Medic aid</w>
k l
st an
mo des</w>
ob sc
out standing</w>
U E</w>
J enn
promis ing</w>
en tations</w>
m ons</w>
up loaded</w>
fil med</w>
exc it
W ILL</w>
so res</w>
depress ant</w>
wh ale</w>
Struc ture</w>
U F
mor ality</w>
V .</w>
Cro ss
Coc k
stress ful</w>
Ar tist</w>
fasc ism</w>
S I</w>
recipi ent</w>
It ems</w>
Dinos aurs</w>
modi fy</w>
U ses</w>
E dge</w>
u ble</w>
St age</w>
Sec ure</w>
D ear</w>
Air craft</w>
U. S</w>
it ches</w>
uck ily</w>
tum or</w>
M int</w>
al istic</w>
Mar io</w>
stimul ation</w>
Pay Pal</w>
sh allow</w>
To gether</w>
sub conscious</w>
R PM</w>
Dri ves</w>
spo kes
contin ually</w>
der son</w>
Mos cow</w>
S ul
Po lish</w>
vi vid</w>
cre ator</w>
rati os</w>
Del ete</w>
in doors</w>
so m</w>
ph on
H em
ambi ent</w>
An atomy</w>
legis lative</w>
ma ster
For mer</w>
Com ic</w>
motor cycle</w>
us on</w>
or us</w>
subsi dies</w>
Su rely</w>
contam inated</w>
trav el
sun burn</w>
abo o</w>
Commun ication</w>
F ine</w>
el abor
diffic ulties</w>
S equ
Tr icks</w>
Common wealth</w>
W D</w>
ran ean</w>
co ating</w>
en sures</w>
Plan ning</w>
dom ains</w>
hot els</w>
Hur ricane</w>
contrac tion</w>
tw ater</w>
al gebra</w>
col i</w>
m itt
On tario</w>
wr ong
cy ber</w>
no tifications</w>
surg ical</w>
ay a</w>
si blings</w>
He id
o live</w>
Cra zy</w>
del ing</w>
cl er
F arm</w>
ec tious</w>
Inv esting</w>
ri sky</w>
disgu sting</w>
ap ing</w>
f arms</w>
comm itting</w>
fe a
bank rupt</w>
V an
par tisan</w>
at able</w>
Ani mation</w>
cli p
ac re</w>
S it
accomp anied</w>
sens ations</w>
P ubl
Conflic t</w>
AB LE</w>
A wards</w>
refl ective</w>
ro of
exec ute</w>
Dep os
B eng
t le
mar ry</w>
pack et</w>
bl es
ri p</w>
cor ro
remo ves</w>
mon archy</w>
mor ph
form ul
t ale</w>
co hol
- >
cong estion</w>
Ne ander
territ ories</w>
ag a</w>
pe anuts</w>
W aste</w>
ro m
part nership</w>
mer ged</w>
consist ency</w>
stra tions</w>
tro l
man ned</w>
15 th</w>
simp lified</w>
obs essed</w>
forec ast</w>
hel or</w>
00 :
ac com
inter vals</w>
19 .
s word</w>
mat ory</w>
o graph
Im m
mani fe
dri ft</w>
athle te</w>
6 5
je welry</w>
V C</w>
sw ag</w>
N ick</w>
L G</w>
an arch
s lowed</w>
gu it
Z ip</w>
T an
Plas ma</w>
Stor m</w>
eas ing</w>
Res ume</w>
Theore m</w>
Americ as</w>
susp ected</w>
disc oura
dish washer</w>
he ats</w>
ed es</w>
cab inet</w>
am ate
r ams</w>
Pres entation</w>
vill age</w>
15 00</w>
T win</w>
ba ked</w>
V inc
bo iled</w>
anc k</w>
with draw</w>
pig s</w>
Govern or</w>
accomp lished</w>
scal p</w>
mar s</w>
or able</w>
incorpor ated</w>
Ur ban</w>
po ster</w>
disc s</w>
Hon da</w>
gen ital</w>
star tup</w>
3 ,000</w>
ver ified</w>
ar do</w>
La unch</w>
new sletter</w>
ir a</w>
I d
p ic</w>
imp anz
gr ound
ex hale</w>
Se at</w>
Sy dney</w>
sac rif
a ine</w>
a issance</w>
no de</w>
Princi ple</w>
ari ous</w>
enjoy able</w>
C ran
Hol es</w>
s apiens</w>
Pe pper</w>
Dra gon</w>
b acking</w>
tiv ism</w>
tim eline</w>
g on
volun tary</w>
necess ity</w>
ma tions</w>
har ass
tri bes</w>
cros sed</w>
es cent</w>
jud icial</w>
Bot tom</w>
red ness</w>
Week ly</w>
T ooth
lab oratory</w>
w ig
assi g
lo op
fin ancing</w>
Cho osing</w>
mo ist</w>
fauc et</w>
schol ar
fri es</w>
con es</w>
wra pped</w>
20 ,000</w>
R hy
comp ass</w>
Cana dians</w>
mer ge</w>
low ered</w>
Mo stly</w>
pig eons</w>
ab il
IT E</w>
Te en</w>
seiz ures</w>
shi p
in dian</w>
impro ves</w>
hatt an</w>
Publi sh
ni p</w>
AT A</w>
ni pples</w>
aur us</w>
re char
deriv ative</w>
l engths</w>
tou ches</w>
Bo ost</w>
inher ited</w>
fi xing</w>
ra ins</w>
ph p</w>
Hous ing</w>
sugg estion</w>
Mu hammad</w>
id ation</w>
cle ver</w>
Cigar ettes</w>
air ports</w>
t am
in sur
ev ing</w>
pro pri
b ark</w>
pro motion</w>
journ alists</w>
capit a</w>
hi er
commod ity</w>
blo gs</w>
H C</w>
Can on</w>
Bal lo
R GB</w>
4. 5</w>
A po
met h</w>
d ens</w>
publi shing</w>
Swe dish</w>
s inks</w>
assum ptions</w>
classi fication</w>
D ON
high lights</w>
de stri
D il
so ever</w>
si p
rever sed</w>
gg les</w>
im men
N G</w>
pe el</w>
moist ur
physic ist</w>
Al i</w>
Cop y</w>
C ow
n ell</w>
ma sters</w>
fire arms</w>
War ren</w>
B one</w>
posi tively</w>
li v
hos tile</w>
K il
per cep
7 5
prohi bited</w>
g lit
stimul i</w>
T I</w>
P en</w>
ow ning</w>
N ec
sid ed</w>
it orial</w>
vis its</w>
gi fts</w>
Qu al
f ence</w>
over dose</w>
inher ently</w>
el t</w>
ec tion
sh ri
re sts</w>
m ex
enh anced</w>
gre di
accept ance</w>
ann ers</w>
on dri
cel estial</w>
inf ants</w>
H ockey</w>
Rom ans</w>
hypo the
comp ul
awar ded</w>
8 )</w>
LO VE</w>
an di
under go</w>
re ha
Tal king</w>
believ ing</w>
Pe e</w>
plas tics</w>
bi kes</w>
Te aching</w>
uni vers
el son</w>
auc tion</w>
as signment</w>
HTML 5</w>
AR S</w>
night mare</w>
Survi ve</w>
m s
F ourth</w>
H amp
cell phone</w>
Plu g</w>
drop lets</w>
g aps</w>
In sects</w>
Min utes</w>
cover ies</w>
W ide</w>
K elly</w>
1 )
mon ster</w>
sub marine</w>
revol utionary</w>
ga thering</w>
For mat</w>
exp ose</w>
Co ol
christi an</w>
amph et
ch asing</w>
new est</w>
In gredi
dra ws</w>
B ei
s anitiz
mag azines</w>
car ni
p ale</w>
down ward</w>
Co des</w>
t angle</w>
isi ana</w>
L onger</w>
- 3</w>
h o</w>
Th rough
twel ve</w>
li sh
L ong
ori um</w>
in coming</w>
whist le</w>
end it
pro vo
explo sions</w>
log ged</w>
M Hz</w>
publi sh</w>
di m</w>
is hable</w>
y mp
H omes</w>
pul sion</w>
G il
Ro b</w>
Gas oline</w>
con soli
aci dic</w>
mig raine</w>
aph rag
in als</w>
des cent</w>
In fr
responsib ilities</w>
con stra
K os
Sig nal</w>
diff ers</w>
russi a</w>
T ub
orchestr a</w>
satis fying</w>
H il
O PE
J r.</w>
gra pes</w>
Hop efully</w>
H ip</w>
agre es</w>
philosoph ical</w>
Bo ys</w>
stri ps</w>
menstr ual</w>
Ph D</w>
par ach
y ards</w>
publ ication</w>
am pl
ap par
Every day</w>
pot ent</w>
r ounded</w>
y u
O ven</w>
Pr on
trav eled</w>
manip ulate</w>
ul ative</w>
el ect</w>
Survi val</w>
split ting</w>
us her</w>
per si
T ed</w>
inf ect</w>
warran ty</w>
sc are</w>
infring ement</w>
cas inos</w>
Key board</w>
iz ard</w>
de pri
Vitam ins</w>
A mp
high ways</w>
develop ments</w>
tur bul
v it
republ icans</w>
H ack</w>
co c
AN D
mush rooms</w>
H U
ph et</w>
Mo di
inher ent</w>
house holds</w>
far ming</w>
ri a</w>
clim bing</w>
ion ship</w>
in form</w>
amaz on</w>
ac ute</w>
fe aturing</w>
econom ists</w>
T ask</w>
si ppi</w>
in duce</w>
dynam ics</w>
Ear thqu
Co .</w>
k ling</w>
s essions</w>
k el</w>
bu zz</w>
bo ils</w>
g ens</w>
liber als</w>
P T</w>
B T
a thetic</w>
E ST
b lows</w>
dis able</w>
All en</w>
th in
compl aint</w>
mid night</w>
To ys</w>
in ery</w>
pop s</w>
sc ul
t omato</w>
IP v
2 40</w>
clu ster</w>
ackno wled
ush i</w>
Kent ucky</w>
no tor
G if
Dam age</w>
Ide a</w>
col oured</w>
To k
co ols</w>
sib ly</w>
I gn
pri sons</w>
m ing
ac tic</w>
liam entary</w>
G ur
G S
mis leading</w>
k icked</w>
la im
Exter nal</w>
bass y</w>
To x
sex uality</w>
decreas ing</w>
ph ia</w>
A stro
thir ty</w>
D enti
dil ation</w>
Shi a</w>
straight forward</w>
M ouse</w>
Cru ise</w>
Cu be</w>
hard est</w>
po ols</w>
H ay
occas ions</w>
adv enture</w>
K ind</w>
B alls</w>
Thro at</w>
G ig
w asted</w>
mort gages</w>
Fal se</w>
Sto ck
P hy
qui z</w>
H im</w>
C ast</w>
th ur</w>
R outer</w>
ker nel</w>
en vel
dwar f</w>
Sol ved</w>
P IN</w>
he ight
M ast
flav our</w>
� �
N am
Break fast</w>
tra ils</w>
lo os
C s</w>
Ad ults</w>
evalu ation</w>
byp ass</w>
occas ion</w>
Discus s</w>
D DR
ed el
Ron ald</w>
acc essed</w>
si ght
p ens</w>
eng agement</w>
12 5</w>
f on
spac ed</w>
Des ig
ne gl
Comp le
ve to</w>
ang a</w>
W as
um n</w>
mil eage</w>
Au di
L ex
vo d
in car
fe as
satis fy</w>
mun ici
gg le</w>
Ad min</w>
what soever</w>
s aves</w>
B an</w>
newsp apers</w>
fi xes</w>
5 000</w>
dipl om
or r
def ence</w>
fore x</w>
loy d</w>
U R</w>
ro tor</w>
B ever
Vir gin</w>
Sho es</w>
pe ppers</w>
se work</w>
st ale</w>
pop ped</w>
Sp iders</w>
butter flies</w>
Sc andal</w>
T ool</w>
Co in</w>
san to</w>
f use</w>
transm itters</w>
p x</w>
mar tial</w>
Al abama</w>
di stricts</w>
R F
d ess
L ady</w>
abund ant</w>
E lev
8 6
18 .
s ory</w>
ank le</w>
is ons</w>
ell y
ackno wledge</w>
tradi tions</w>
prob able</w>
peti tive</w>
mac ro
ll a</w>
st en</w>
Ex cept</w>
C alled</w>
lo gn
ani e</w>
Mol ec
F W</w>
oufl age</w>
he dge</w>
Associ ated</w>
suic idal</w>
AR Y</w>
Re form</w>
Den mark</w>
De al
Se eing</w>
upri ght</w>
ill um
un clear</w>
iter ranean</w>
blind ness</w>
van illa</w>
Thank sgiving</w>
scrip ts</w>
volcan o</w>
F an
pen alties</w>
boo ts</w>
а т
ri des</w>
p ond</w>
for t</w>
ver bal</w>
Treat y</w>
exper tise</w>
R ent</w>
Prescri ption</w>
AC A</w>
2. 1</w>
tr y
Ac cel
ren dered</w>
paras ites</w>
A d</w>
no table</w>
web s</w>
ar mp
F erg
v as</w>
Wor st</w>
them es</w>
con fron
U n</w>
f ound
win ners</w>
Bro ok
1/ 4</w>
conduc ting</w>
sus pension</w>
po dcast</w>
nutri ent</w>
stitu tes</w>
Mil lions</w>
eyel ids</w>
emer ged</w>
Sh ell</w>
ph one
eyeb rows</w>
Refer ence</w>
st am
suc ked</w>
ic ism</w>
P ed
T ickets</w>
other apy</w>
la undering</w>
Succ ess</w>
pu ppy</w>
spec ulation</w>
es ium</w>
pres sures</w>
S on
vi etnam</w>
ex trac
ter ly</w>
integr ity</w>
dec ryp
bul ance</w>
Mon ster</w>
Secre ts</w>
refin ed</w>
ver ing</w>
liter ary</w>
Sc and
pe ers</w>
rec essive</w>
c age</w>
mel ts</w>
S MS</w>
w rec
proc eed</w>
austr alia</w>
thir st</w>
in breeding</w>
Tob acco</w>
est ingly</w>
EN TS</w>
high light</w>
PT SD</w>
Gi ving</w>
K al
A vi
stuff ed</w>
shi pped</w>
R az
am big
Through out</w>
In dependence</w>
Mon a</w>
gu ided</w>
d ancing</w>
hi red</w>
clo gged</w>
00 :00</w>
cr um
Atl anta</w>
n ut
int able</w>
in ability</w>
gen ocide</w>
Fin land</w>
Aus tin</w>
def ro
Con trac
Portugu ese</w>
Mis s</w>
s q
dos age</w>
conver ts</w>
we ight
li able</w>
17 .
cr ush</w>
mal icious</w>
L P</w>
Assem bly</w>
In t
car go</w>
afr ican</w>
jav a</w>
Icel and</w>
ricul um</w>
coll ar</w>
J on</w>
cons ult</w>
ord in
B lock
c is
cartri dge</w>
seiz ure</w>
nb sp</w>
S ab
bl acks</w>
Sur vey</w>
lo ver</w>
it ably</w>
T ick
w ick</w>
Ber ry</w>
Calcul us</w>
v u</w>
Stal in</w>
wh i
ag le</w>
pro longed</w>
bu ster</w>
ver sa
Up dates</w>
sand wich</w>
ha i</w>
Cru z</w>
W ifi</w>
h our
Sym bo
coun cil</w>
stoc k
Cap tain</w>
ig ni
pro jection</w>
in tox
pot assium</w>
an esthesia</w>
N early</w>
compl aints</w>
myth ology</w>
ger man</w>
ex otic</w>
G EN
dizz iness</w>
gen ius</w>
ob serving</w>
l ubric
extra ordinary</w>
Clear ly</w>
vap or
soldi er</w>
sel ecting</w>
di aphrag
L ength</w>
Peri odic</w>
inc idents</w>
sad ness</w>
meth ane</w>
NE WS</w>
tun nels</w>
ar thritis</w>
DR M</w>
al igned</w>
= =
3 65</w>
an onym
WOR K</w>
C .
S ev
Rac ing</w>
D H
I O
Pand ora</w>
ti more</w>
Pop ulation</w>
mis sion
sem en</w>
si ves</w>
ric her</w>
ph s</w>
blur red</w>
ed ings</w>
mo date</w>
oppon ents</w>
distinc tive</w>
war ned</w>
Li e</w>
ate way</w>
B y
op ar
in appropriate</w>
ack et</w>
scre aming</w>
al low
ul ing</w>
ru ff</w>
Import ance</w>
fla vored</w>
es c
chlor ine</w>
so y</w>
P aid</w>
Liber ty</w>
ob j
ess ness</w>
finan cially</w>
adel phia</w>
For get</w>
par ks</w>
negoti ate</w>
man kind</w>
ra ines</w>
scre ws</w>
Ste m</w>
ge ous</w>
erg ate</w>
Clo thes</w>
dis sip
rep lied</w>
fri ght
Wi k
deliver ing</w>
S elec
Deli very</w>
requ ested</w>
1. 3</w>
ad ministr
ke e</w>
astronom y</w>
GIF s</w>
Mechan ical</w>
metabo lic</w>
Chil d
es opha
tun ing</w>
Sa har
De af</w>
op tional</w>
col on</w>
nur sing</w>
B onds</w>
leg acy</w>
Di pl
commer ce</w>
Tr ucks</w>
Spe akers</w>
ho sted</w>
F ou
Rev en
Cryst al</w>
maxim ize</w>
R if
re vi
ca vities</w>
Addi tional</w>
10 80</w>
discipl ine</w>
Con cept</w>
wi ped</w>
ona than</w>
hal f
Al arm</w>
ge tic</w>
b ull</w>
р о
cur v
Wat ching</w>
to tal
mar ch</w>
t attoos</w>
p p</w>
en di
Li kewise</w>
En h
1 10
Every body</w>
accom modate</w>
Tur ning</w>
re covered</w>
democr ats</w>
Frequ ently</w>
ED T</w>
URL_ 9</w>
poll en</w>
cheap est</w>
fol k</w>
Kin dle</w>
refl ecting</w>
99 99
me etings</w>
docum ent
an tom</w>
liber ty</w>
g ear
k an</w>
Sci encing</w>
Roc ket</w>
Hor iz
res ort</w>
B and
Vin yl</w>
attribu ted</w>
9 5%</w>
particip ation</w>
im ports</w>
nom ine
F ort</w>
assi sted</w>
ver tically</w>
H ear</w>
Restaur ants</w>
Wor se</w>
N ING</w>
illu stration</w>
medi eval</w>
ic ul
Albu m</w>
Fil ms</w>
fet us</w>
ency clopedia</w>
Gu id
tom atoes</w>
Gu il
l an</w>
affili ate</w>
Gu ides</w>
Su gg
w asting</w>
con cus
on ion</w>
Radi o
un constitutional</w>
loc ally</w>
h es</w>
Pharm ac
Fun ds</w>
Employ ment</w>
imag ing</w>
bor rowing</w>
se at
s sing</w>
Th ai</w>
AB OUT</w>
Jim my</w>
b old</w>
capit alist</w>
adv ised</w>
y ’</w>
el lip
go osebumps</w>
Mater ials</w>
gi um</w>
R A</w>
cu sto
devast ating</w>
accord ingly</w>
Anth ony</w>
an om
pro jected</w>
U K
sol uble</w>
ri fl
some time</w>
sm oo
in ers</w>
Pl anck</w>
list ers</w>
emp t</w>
s cot
mag ical</w>
CO MM
ho lo
Al gori
nucle i</w>
ick r</w>
M ENT</w>
let te</w>
inter course</w>
f l</w>
dist orted</w>
Com edy</w>
with stand</w>
tou gh
ap le</w>
11 th</w>
per oxide</w>
v ague</w>
Char ger</w>
advoc ates</w>
ster ity</w>
ibu profen</w>
f itting</w>
batt les</w>
sp reads</w>
ag i
k a
Fl int</w>
Exc el</w>
6 00
femin ism</w>
yl um</w>
AM A</w>
encoun tered</w>
remember ed</w>
sh y</w>
mis conception</w>
it an</w>
Assum ing</w>
bar riers</w>
Res ource</w>
d ash</w>
al k</w>
Oper ation</w>
direc tory</w>
conf use</w>
For ward</w>
Jour n
fil ming</w>
T ali
Ferg uson</w>
na tively</w>
h en
ro ds</w>
is m
re b
Lou isiana</w>
Juli an</w>
SS L</w>
Alpha bet</w>
l ending</w>
elim inating</w>
Att acks</w>
consi sting</w>
o genic</w>
Pho enix</w>
e ably</w>
vibr ating</w>
F S</w>
on ions</w>
fra gr
Missis sippi</w>
ga thered</w>
LO T</w>
scienti fically</w>
cous ins</w>
emp loy</w>
shoo tings</w>
on tally</w>
tack le</w>
fil ibu
F ill</w>
an tivirus</w>
son ic</w>
ic ular</w>
warm th</w>
Th ought</w>
tri gu
vi sibility</w>
ecosy stem</w>
Go es</w>
Conver ter</w>
che ating</w>
Vehic les</w>
F lies</w>
toler ate</w>
i ors</w>
Wor kers</w>
3. 1</w>
th ickness</w>
k nives</w>
exhi bit</w>
pi g</w>
deter i
comb ining</w>
Fir stly</w>
back ward</w>
Bei jing</w>
ga e</w>
Cri tical</w>
Bra d
Sta tic</w>
In fin
wit n
Sol di
Abo ve</w>
i tism</w>
Sim on</w>
coun sel
dow ns</w>
helicop ters</w>
spir its</w>
Ma dison</w>
comp li
P ump</w>
her oes</w>
b ail
7 5%</w>
D raw</w>
mu ff
eth eless</w>
by ists</w>
Pol ar
Reci pe</w>
och ondri
ri ghted</w>
veget arian</w>
or dering</w>
de par
T F</w>
Clou ds</w>
sch izophrenia</w>
sp orting</w>
et al</w>
d ressing</w>
sever ity</w>
out break</w>
cin ema</w>
deli vers</w>
Consi dering</w>
sc issors</w>
R are</w>
ap er
Ad derall</w>
bi ans</w>
shif ted</w>
B aking</w>
re gre
R oot</w>
an ion</w>
Victor ia</w>
NE VER</w>
aggres sion</w>
cla p</w>
skin ny</w>
pi erc
fl icker</w>
cop ied</w>
modi ties</w>
AP P
re strict</w>
Ni xon</w>
influ ential</w>
S tations</w>
haz ard</w>
w i</w>
di etary</w>
head lights</w>
Bi ke</w>
ren sic</w>
kil o
ev i
Bro thers</w>
archi ve</w>
R um
anc ements</w>
F ail
Mon santo</w>
Dec lar
D ance</w>
bur gh</w>
A tom</w>
fire works</w>
dv d</w>
ord on</w>
198 6</w>
ti ans</w>
ini um</w>
SO PA</w>
M p
bl ical</w>
A h
off line</w>
underst ands</w>
exag ger
P utting</w>
ON G</w>
,000 ,000</w>
vacc inated</w>
8 5
F ul
antan amo</w>
igni tion</w>
Direc t
mascul ine</w>
N eck</w>
St y
i as</w>
P ast
inv ade</w>
Ob serv
IP O</w>
sle pt</w>
fil m
Whats App</w>
iner tia</w>
day time</w>
B ull</w>
ho ttest</w>
Fi bonacci</w>
deal t</w>
man eu
Jer ry</w>
R s</w>
la sted</w>
inter chang
Sh irt</w>
I V
/ u</w>
jack et</w>
ut en
la dies</w>
distur bing</w>
Vari ous</w>
f .
K ick
bas ket</w>
el bow</w>
ins ulation</w>
symmet ry</w>
— —
pre sidency</w>
Aff airs</w>
am er</w>
Th ous
sc rap
vis ed</w>
be ds</w>
intest inal</w>
inter section</w>
cand les</w>
ud ity</w>
Func tions</w>
R out
inter fer
AN S</w>
m l
f icially</w>
fi ers</w>
lam ps</w>
ri b
cur l</w>
in puts</w>
f art</w>
opho bia</w>
Pur chase</w>
G N
ub a</w>
stand point</w>
war ding</w>
f itted</w>
sal ad</w>
s u</w>
read mill</w>
pal ms</w>
Twe et</w>
comp iled</w>
9 8.
Dest ro
nov a</w>
seas onal</w>
Transp ortation</w>
mo re
S ac
thermo stat</w>
Fi ghting</w>
cra vings</w>
substanti ally</w>
ru g
sun screen</w>
si ghts</w>
cre ators</w>
in box</w>
colli de</w>
r ack</w>
S ources</w>
CO R
divid ing</w>
Produc er</w>
E P
D .C.</w>
Per man
anti depressants</w>
over ly</w>
argu es</w>
Po ker</w>
pim ple</w>
dis rup
Fri ed
head lines</w>
coup ons</w>
Ac tivity</w>
occurren ce</w>
Cul tural</w>
Cam bridge</w>
rechar geable</w>
Tw itch</w>
ti que</w>
stra w
dep le
TH E
C ry</w>
rot ates</w>
o gen</w>
Gener ator</w>
ar c</w>
R y
sum s</w>
lef to
tro om</w>
De ad
inflam matory</w>
os h</w>
oblig ation</w>
re tired</w>
asph alt</w>
Conserv atives</w>
targ eting</w>
sing ularity</w>
prohi bition</w>
T ape</w>
c enti
re flux</w>
im prison
isra el</w>
e de</w>
att ended</w>
ul ates</w>
Y or
Eth ics</w>
law ful</w>
correc tion</w>
determin ation</w>
eleph ant</w>
F low</w>
adverti sed</w>
Yog a</w>
M ist
Del ta</w>
bo o</w>
Lad en</w>
Ukra inian</w>
struc tured</w>
N ES</w>
s -
frustr ated</w>
Bap tist</w>
resol ved</w>
LGB T</w>
Buil t</w>
di p</w>
ne um
Qu anti
J ane</w>
Mo z
transm issions</w>
deliber ately</w>
prosec ution</w>
imp ose</w>
fur n
min orities</w>
dy e</w>
i ers</w>
vod ka</w>
In k</w>
ex changes</w>
pun ished</w>
pir ate</w>
com e
RE N
p oured</w>
Ac counts</w>
inc enti
str angers</w>
l acking</w>
N HS</w>
t tle</w>
co aches</w>
adjust ment</w>
V intage</w>
F ili
recei pt</w>
adap tation</w>
Grou ps</w>
20 .
T ilt</w>
b izarre</w>
gi ants</w>
L eb
Wat ts</w>
om ed</w>
pre jud
Happ ened</w>
rela x
Up on</w>
Sy non
for k</w>
W ashing</w>
3 70</w>
pro of
at ro
fa thers</w>
re acts</w>
p and
Ar ms</w>
d ur
Ab stract</w>
her pes</w>
emer ge</w>
inser ted</w>
Constitu tional</w>
A V</w>
coho lism</w>
mus cular</w>
0 ,
B us</w>
O h
Lt d.</w>
pack aged</w>
fil tered</w>
by e</w>
advertis ers</w>
D J
Den ver</w>
Bel t</w>
gh et
S ir</w>
asp ir
at t</w>
ا ل
perf ume</w>
m b</w>
challeng ed</w>
ev ident</w>
Pl ac
pri mates</w>
10 -
Con sole</w>
gre ase</w>
Bit coins</w>
Fo rest</w>
particip ating</w>
desig ning</w>
Beg inner</w>
ic le</w>
ren s</w>
196 9</w>
per forms</w>
negoti ations</w>
ant ine</w>
yram ids</w>
Cas ino</w>
predic tion</w>
streng th
Car bon
premi ums</w>
nur ses</w>
w ishes</w>
scul p
diaphrag m</w>
Care er</w>
197 9</w>
L R</w>
Meas ure</w>
S cro
Less ons</w>
C z
profes sion</w>
aes thetic</w>
ignor ing</w>
d ale</w>
N ept
Bud dhism</w>
Co gn
t ap
h p</w>
bo s</w>
U P
A ges</w>
lan der</w>
organ ize</w>
Coun ter</w>
excit ement</w>
Contin u
Shoo ting</w>
v ens</w>
Guar dian</w>
N om
spon sored</w>
h all</w>
th ood</w>
S aint</w>
Sil k</w>
don ated</w>
Marx ism</w>
Out door</w>
proble matic</w>
Portu gal</w>
sun ami</w>
invent ory</w>
Ac counting</w>
del icate</w>
nation wide</w>
u el</w>
behavi oral</w>
Pro file</w>
stor y
Cur iosity</w>
ti ght
l ecture</w>
Al ice</w>
Dis orders</w>
p ar</w>
electro ly
dom inate</w>
Min or</w>
en de
squ e
E PA</w>
sur round</w>
in ar</w>
Tor na
ten ance</w>
Phil adelphia</w>
practic ing</w>
o dic
Tur ns</w>
libr aries</w>
Ro ger</w>
specif y</w>
calcul ating</w>
Electro magnetic</w>
ch up</w>
bl er</w>
G um</w>
conduc tors</w>
astr onaut</w>
colon ial</w>
exp endit
Uni que</w>
car cin
floo ding</w>
v et
col s</w>
Iraq i</w>
di abe
1 200</w>
jum ped</w>
concl usions</w>
w illi
. -</w>
hat red</w>
T ED</w>
lin ux</w>
t oss</w>
eg yp
W AR
Con sci
centri fu
Cor n</w>
B run
al titudes</w>
H az
if ies</w>
H .
Man hattan</w>
Jo int</w>
Celebr ity</w>
U bun
Fac tors</w>
A side</w>
se a
bre ast
amm ers</w>
Y emen</w>
pharm acy</w>
fore head</w>
Star bucks</w>
duc k</w>
B .
s lots</w>
recogn ise</w>
R aspberry</w>
appro ve</w>
D ick</w>
non sense</w>
broad er</w>
tri ple</w>
ind ex
Jenn ifer</w>
Bal timore</w>
neighb or</w>
Teach er</w>
Sur pri
cos ity</w>
Chi p</w>
e h
fundam entally</w>
VI E
Tali ban</w>
A ar
advoc ate</w>
Work sheet</w>
Vol tage</w>
arri val</w>
L osing</w>
stereo types</w>
lo vers</w>
u ding</w>
sing les</w>
resol utions</w>
dr ums</w>
Supp ose</w>
Jer emy</w>
evap oration</w>
dr ank</w>
in corporate</w>
Proto col</w>
embarrass ed</w>
w olf</w>
S etting</w>
C on</w>
WH O</w>
Lo ad</w>
tast y</w>
horiz ontally</w>
Mat rix</w>
opar dy</w>
on yms</w>
ar y
s /
F E</w>
P V</w>
t apes</w>
law suits</w>
int end</w>
dic tator
program mers</w>
bi al</w>
Y ES</w>
Re ar</w>
н а
persist ent</w>
Fri end</w>
plan ted</w>
g y
B ad
indic ating</w>
N ep
re tro
Op tical</w>
te aches</w>
t .
mat ched</w>
Col leges</w>
Dist ance</w>
N agasaki</w>
Frequ ency</w>
lic enses</w>
M illenni
Anim e</w>
Tra iler</w>
vol umes</w>
it ance</w>
align ment</w>
2 )
shut down</w>
bles hoo
Pop corn</w>
Cal orie</w>
In struc
Po dcast</w>
quo ted</w>
K le
o te</w>
sp ying</w>
gl ance</w>
slo pe</w>
ill ings</w>
C ute</w>
pres sur
u g</w>
cur ves</w>
cha irs</w>
pro visions</w>
contin ental</w>
Ubun tu</w>
Dr unk</w>
C ass
fac tories</w>
gh ost</w>
for tune</w>
Transl ation</w>
ten sions</w>
So dium</w>
in trigu
ov o</w>
Ed ited</w>
d s
Cop per</w>
rich est</w>
Mar t</w>
1. 0</w>
ra ining</w>
itt ens</w>
B RE
trans formation</w>
tu re
K B</w>
pre mise</w>
ar ism</w>
Me ans</w>
replic ate</w>
br aces</w>
[ edit</w>
port folio</w>
gh ten</w>
pe destri
ow ing</w>
H ouse
w ood
mon o
it z</w>
dist ortion</w>
es .
fe eds</w>
co alition</w>
se d
d un
home made</w>
Sil ent</w>
att orneys</w>
t et
ser tation</w>
os phere</w>
man ic</w>
Li ves</w>
thes es</w>
tim er</w>
Ill uminati</w>
P ull</w>
car ing</w>
as ti
A part</w>
s ab
Set tings</w>
audi ences</w>
mi tive</w>
l ick</w>
organ isation</w>
B ags</w>
sen ate</w>
LO W</w>
Gen eva</w>
195 0s</w>
refre shing</w>
y ork</w>
Second ly</w>
TH EY</w>
All ergy</w>
thro ttle</w>
shel ves</w>
Behavi or</w>
Mo tors</w>
cre epy</w>
ul ously</w>
tra fficking</w>
abdom inal</w>
Stat us</w>
K night</w>
sti r</w>
bro ker</w>
De ut
Loc k
compati bility</w>
AN CE</w>
over time</w>
comp ly</w>
En ough</w>
ob ic</w>
H idden</w>
valu ation</w>
ann ually</w>
col a</w>
Head ache</w>
A y
Hel icop
str o</w>
Cal endar</w>
reta iler</w>
Li ghting</w>
CON T
bra king</w>
outw ard</w>
car b</w>
shoo ter</w>
tic ides</w>
foc al</w>
F IR
homos exual</w>
ga g</w>
Co oling</w>
api x
Beat les</w>
Zim bab
Gl uten</w>
Ann ual</w>
R ay
pe g</w>
fer tility</w>
Di al
gram ma
OF F</w>
Har ris</w>
r ound
Main tenance</w>
L i</w>
B ree
u li
det ri
ho locaust</w>
C alls</w>
Sil icon</w>
cr ushed</w>
op a
color ful</w>
assi stant</w>
Gr and
enter prise</w>
p iss</w>
M MA</w>
Col our</w>
t ness</w>
den ial</w>
St anding</w>
DS L</w>
the tics</w>
J onathan</w>
who ever</w>
fif ty</w>
insi st</w>
in expensive</w>
as ylum</w>
ici ently</w>
bal ancing</w>
Linked In</w>
Swe at</w>
V ill
Schem e</w>
4 3
j o</w>
bloo dy</w>
Clin ic</w>
devi ation</w>
ex er
in somnia</w>
Cell ular</w>
her itage</w>
a dig
6 4-
poli tician</w>
H acking</w>
app liance</w>
Domes tic</w>
Favor ite</w>
Sus an</w>
es h
comp elling</w>
absor bing</w>
ati sm</w>
habit at</w>
em pathy</w>
Charg ing</w>
d itors</w>
Ph ase</w>
dis asters</w>
Uni ons</w>
he ights</w>
acc us
H ic
Ag ent</w>
P in</w>
G host</w>
wor rying</w>
Bott les</w>
v enture</w>
uck le</w>
E LE
ir regular</w>
cur se</w>
WH EN</w>
Ex plan
ar ks</w>
Pen ny</w>
Sh aring</w>
L anding</w>
amate ur</w>
De als</w>
recep tor</w>
Fun dam
nu kes</w>
alk board</w>
fl at
j am</w>
un related</w>
real m</w>
sl it</w>
J on
0. 5</w>
E vil</w>
presum ably</w>
cle ared</w>
Lim it</w>
D ir
phob ia</w>
ar chae
A ward</w>
2. 2</w>
at titudes</w>
convic tion</w>
attribu tes</w>
involun tary</w>
F alls</w>
Val ve</w>
melan in</w>
Rati o</w>
R .
tax payers</w>
bus h</w>
R ech
Ba g</w>
sa il</w>
er ection</w>
Law yers</w>
explo ded</w>
lin er</w>
Confeder ate</w>
photos ynthesis</w>
F F
C ain</w>
govern or</w>
er als</w>
e ur</w>
w oods</w>
infer ior</w>
incl ined</w>
therap ist</w>
lo ad
cla use</w>
Re place</w>
sh utting</w>
report ers</w>
Scr at
co aster</w>
int ensive</w>
chlor ide</w>
mand ate</w>
osc ill
hel met</w>
F ast
sw ap</w>
poo rer</w>
o v</w>
manip ulation</w>
an eous</w>
Je an</w>
T SA</w>
ir i</w>
progres sion</w>
po on</w>
ju ices</w>
explo red</w>
ignor ant</w>
Log ic</w>
A war
bre ach</w>
Cha m
licen sing</w>
et z
19 60</w>
W R
gr ab
syn thes
respon sive</w>
Bel gium</w>
dic k</w>
cur iosity</w>
cop ying</w>
L .
Par ties</w>
f id
lif ted</w>
bour ne</w>
Con spiracy</w>
But ter</w>
P ick
th ank
a is</w>
Provid ers</w>
even th</w>
th als</w>
y en</w>
ign ty</w>
c c</w>
ON AL</w>
G low</w>
inv al
Ro th</w>
argu ably</w>
wh olesale</w>
in duction</w>
sn acks</w>
n aming</w>
respon ds</w>
th at
ne ts</w>
min ed</w>
sy ste
gener ators</w>
B li
dial ects</w>
sti ce</w>
ste er</w>
D UC
Def ault</w>
o a</w>
Str ange</w>
D ust</w>
bra in
regul atory</w>
Ren ew
doctr ine</w>
ste ad
Lot tery</w>
Im gur</w>
Anti biotics</w>
occup ation</w>
ma stered</w>
m uc
ect omy</w>
gen cies</w>
D ope</w>
str ils</w>
Pati ents</w>
P ush</w>
oper ative</w>
o ke</w>
game play</w>
micro soft</w>
N evertheless</w>
acqui sition</w>
Them e</w>
go v
altern ating</w>
medi an</w>
we ir
pro lif
Person ality</w>
ac adem
met res</w>
net t</w>
id le</w>
coord inate</w>
Kar ma</w>
x box</w>
us b</w>
disp er
ab used</w>
Arti sts</w>
preser ved</w>
ev acu
e _
cros s
a while</w>
A Z
fol ded</w>
Vol k
Stri ke</w>
RE AD</w>
I X</w>
Holi day</w>
oul try</w>
favor able</w>
prac ti
communic ating</w>
polar ized</w>
agricul tural</w>
at om
hi l</w>
univers ally</w>
dis coveries</w>
sustain ed</w>
Austri a</w>
Mit t</w>
a ults</w>
Re placement</w>
Plan es</w>
C -
pla que</w>
S ni
Dar k
ro bo
confir mation</w>
Hor ror</w>
sof ter</w>
cen tered</w>
explic itly</w>
def ensive</w>
surge on</w>
eleph ants</w>
ext ends</w>
fore sts</w>
ampli fier</w>
E clip
Nept une</w>
Gree ks</w>
A the
m is</w>
Tab let</w>
radi os</w>
in ter</w>
comfor tably</w>
on ium</w>
Sc i</w>
Mechan ics</w>
Ca uc
hol low</w>
p interest</w>
inf ectious</w>
Camer on</w>
Hun t</w>
ess ly</w>
Tenn es
ard ous</w>
Phili p</w>
Mc Don
B ath</w>
vi al</w>
Respon ses</w>
S tain
ven ding</w>
Gra ham</w>
fr ank
C ut
Ch en
di visions</w>
be ams</w>
off shore</w>
auth entic</w>
reck les</w>
att ers</w>
Bran ds</w>
oc ta
ben ding</w>
n aps</w>
EN CE</w>
ul c
predat or</w>
P av
buil ders</w>
Inst all
ati al</w>
com promised</w>
Absol ute</w>
r at</w>
her bs</w>
exam ined</w>
star ving</w>
ar ises</w>
O ption</w>
b atch</w>
int act</w>
Gaz a</w>
G un
7 -
sub marines</w>
sing ular</w>
Con gressional</w>
cam p
H ind
succ e
i 7</w>
A gr
C DC</w>
ro g
Th eft</w>
Pon zi</w>
supp liers</w>
My th
est y</w>
enc ils</w>
im ported</w>
ep ers</w>
cru el</w>
war nings</w>
st ake</w>
F ed
ep age</w>
Sub mit</w>
Sw imming</w>
thre w</w>
Ra ising</w>
Philli ps</w>
At mos
j uries</w>
autonom ous</w>
Proc essor</w>
instinc ts</w>
N .
stereo type</w>
desper ate</w>
O LED</w>
t aboo</w>
B in</w>
e ’</w>
Y outh</w>
war n</w>
laun ching</w>
C R</w>
B eat</w>
mo bil
T UR
Li kes</w>
Cer tific
chro me</w>
l asers</w>
ne at</w>
Heal ing</w>
htt p
Con tain
Mon go
W olf</w>
W IN
K iller</w>
hum id</w>
Su b</w>
12 3</w>
copy righted</w>
tic ity</w>
dre w</w>
e (
rectang ular</w>
D D
program me</w>
h ass
mur der
hor n</w>
epid emic</w>
ag o
A toms</w>
4 chan</w>
it ory</w>
su p
adju sting</w>
disc ounts</w>
met a</w>
o b</w>
st amp</w>
B EST</w>
new born</w>
x y
Mo on
spir ing</w>
K ne
p ray</w>
Bo xes</w>
sh er
P D</w>
exam s</w>
Ex pos
scre ening</w>
ill as</w>
edi ble</w>
P our</w>
I VE</w>
tra ders</w>
Histor ical</w>
thr u</w>
R ail
Bus inesses</w>
blan kets</w>
Brow ser</w>
ignor ance</w>
H R</w>
anni versary</w>
Col oring</w>
pi ration</w>
accoun table</w>
ine a</w>
H air
mim ic</w>
T CH
New sletter</w>
p ts</w>
G ad
play back</w>
je ws</w>
im balance</w>
an thropo
Descri be</w>
user name</w>
Repe at</w>
Gu antanamo</w>
spec s</w>
ar ming</w>
Jur assic</w>
sti ff</w>
NAS CAR</w>
anc er</w>
G ordon</w>
te br
Mar kets</w>
st ub
T each</w>
Wis dom</w>
displ aying</w>
anc ou
An ton
lit er</w>
homeop athic</w>
rob ust</w>
du de</w>
tiz ation</w>
clear er</w>
Sh ock</w>
Im per
utili zed</w>
on to
sp ill</w>
ti gation</w>
hun g</w>
Tren ds</w>
D on</w>
compl aining</w>
Ch ronic</w>
ilos op
ST R
nic ely</w>
whe el
ink le</w>
Spec trum</w>
thro ws</w>
bas ement</w>
tur ally</w>
immig rant</w>
rh et
B ub
IT S</w>
ch impanz
olog ically</w>
d n
Sat an</w>
sc oring</w>
Publi shing</w>
en forced</w>
re pairs</w>
Al low</w>
sun rise</w>
photograph er</w>
Con crete</w>
Pe anut</w>
far ts</w>
F 1</w>
fav our</w>
arti ficially</w>
run way</w>
P ocket</w>
sp anish</w>
Le ader</w>
tri m</w>
pro xim
art z</w>
Ex cell
scrap ers</w>
Bor n</w>
u tives</w>
see ks</w>
em ission</w>
go vers</w>
deduc tible</w>
fol lic
exp ire</w>
cartri dges</w>
bo thered</w>
Plat form</w>
mas ks</w>
ul um</w>
ori als</w>
is tically</w>
’ S</w>
no des</w>
E t
russi an</w>
a wards</w>
MO s</w>
C I</w>
prov ince</w>
7 50</w>
par an
Colli der</w>
testi mony</w>
Stain less</w>
er ase</w>
elabor ate</w>
ch unk</w>
form ally</w>
LE Ds</w>
and ruff</w>
refriger ated</w>
c itation</w>
р е
il ation</w>
disti l
Wh ere
Al ert</w>
D .
B ail</w>
survi ving</w>
thermom eter</w>
C om</w>
si ties</w>
Y our
w ool</w>
P I</w>
5 9
dist ress</w>
automob ile</w>
Mon thly</w>
O ffer</w>
He ads</w>
T IC
sh ot
absur d</w>
curv ature</w>
s ch</w>
cen sored</w>
Terror ism</w>
indu ism</w>
f it
Now adays</w>
Restaur ant</w>
ben ch</w>
hes ive</w>
cul tiv
Hin di</w>
Fis her</w>
al levi
Acc ident</w>
it ally</w>
fil led
sin uses</w>
Par ticle</w>
pl ain
person ic</w>
com ics</w>
at ting</w>
> .</w>
Al uminum</w>
u rely</w>
ligh ted</w>
dis appointed</w>
us ible</w>
investig ating</w>
Re quest</w>
formul as</w>
em as
Pregn ant</w>
Q ur
publish er</w>
gover ning</w>
ir ony</w>
multi plication</w>
comm entary</w>
I sa
m ills</w>
by te</w>
09 :
end ments</w>
Lo ading</w>
publish ers</w>
TI P</w>
add ressing</w>
y ang</w>
k y
A my</w>
de priv
19 29</w>
fail ures</w>
d inger</w>
Ac tivi
i reland</w>
a ired</w>
si es</w>
program mer</w>
buzz ing</w>
Mand arin</w>
wa kes</w>
market place</w>
e an
C au
al ign</w>
CB D</w>
ur i</w>
J P
ori ans</w>
c i</w>
Coun ter
en berg</w>
C AR
Key words</w>
n ouns</w>
g ars</w>
Frank lin</w>
ge or
R est</w>
Kno wn</w>
harv est</w>
W y
Jav ascript</w>
sw ell</w>
or bit
inv aded</w>
dis ks</w>
fall acy</w>
comp liance</w>
aw a
P HP</w>
scr am
Supp lements</w>
oo oo
T ongue</w>
les bian</w>
Fre sh
Cy ber</w>
emp ir
for wards</w>
Le aks</w>
geo graphic</w>
Ac cur
tooth brush</w>
A I
Individ ual</w>
str anger</w>
entr ance</w>
dispos able</w>
B P</w>
po em</w>
embarrass ing</w>
An dy</w>
Mac Book</w>
Hun ter</w>
Clo sed</w>
t down</w>
Shi p</w>
bos on</w>
tril lions</w>
ple a</w>
Ser ial</w>
J eff
Dol lars</w>
domes tic
S eg
U g
stun ning</w>
res ur
br ushes</w>
re fr
Blo gs</w>
vis ually</w>
new s
achiev ing</w>
ha ha</w>
fire arm</w>
Fr ame</w>
tar ily</w>
di ment</w>
stat ute</w>
el eg
initi ative</w>
Oper ations</w>
a dian</w>
Pati ent</w>
ro o
Cigar ette</w>
ti pping</w>
Pl ate</w>
co operation</w>
cen ding</w>
te c</w>
ar range</w>
contribu tes</w>
Mater ial</w>
W ells</w>
cy cling</w>
D Y</w>
j azz</w>
ING S</w>
me ds</w>
pl un
fic ations</w>
L enses</w>
Gra du
avo id
f a</w>
counterfe it</w>
ancou ver</w>
rout ers</w>
L oud</w>
Fo rec
Stat ement</w>
Scand in
ann ounce</w>
Colum bus</w>
Lin ear</w>
Rel ations</w>
she er</w>
ab ytes</w>
Ch ess</w>
ex uals</w>
ri sed</w>
L uckily</w>
Op ening</w>
consi ders</w>
Tenn is</w>
intest ine</w>
viol ations</w>
v intage</w>
c liff</w>
pit ches</w>
Dat abase</w>
197 2</w>
le y
Shar p</w>
hoo ked</w>
or anges</w>
expl icit</w>
aut op
As sa
gr inding</w>
cat aly
coun ties</w>
et ly</w>
depriv ation</w>
Gr ass</w>
n ig
mar riages</w>
Ingredi ents</w>
jec tory</w>
dec rimin
ri pe</w>
F air
butter fly</w>
Post by</w>
Le af</w>
al yp
pro found</w>
Scr atch</w>
L e</w>
C LI
scatter ed</w>
firm ly</w>
Ar t
isol ation</w>
Work out</w>
um ental</w>
Identi fy</w>
suff iciently</w>
mar kers</w>
Ter rit
ph in</w>
brit ain</w>
Mar x</w>
x 86</w>
penet rate</w>
favor ites</w>
vol t</w>
persu asive</w>
intoler ance</w>
pro vision</w>
Sha pe</w>
rig id</w>
prop eller</w>
J .
hu a</w>
Scre en
How ard</w>
Stic ker</w>
dro ve</w>
Pro mo
Gold man</w>
Ele ph
key boards</w>
ST EM</w>
H ire</w>
19 20</w>
ri bs</w>
mus eum</w>
Qui z</w>
qu ette</w>
ampl itude</w>
Absol utely</w>
re bels</w>
O .
F uck</w>
Wh ist
sti r
dis advantage</w>
Archit ecture</w>
demonstr ates</w>
Qu ite</w>
st all</w>
le aking</w>
flash light</w>
[...]
