the 8842142
, 8807783
. 8767347
to 5243013
of 4683436
and 4565326
a 4349882
is 3291286
<D> 3075928
in 2995298
that 2207619
? 2089479
it 1981582
- 1979768
you 1954383
I 1672360
are 1648427
for 1640203
on 1457168
<B> 1282175
The 1254238
) 1215558
: 1214004
( 1180317
with 1118639
or 1099379
be 1076464
have 1070542
as 1024656
do 973936
not 951628
can 925812
your 922544
" 912256
's 817603
this 784193
they 780078
at 761561
from 760900
by 741596
an 681610
but 642919
we 598751
more 573621
n't 569085
will 563941
was 559571
What 539129
all 516029
when 513249
’s 495234
if 494253
so 491357
what 487444
How 483438
like 471373
about 469261
one 460328
It 457694
has 452862
my 449503
their 447965
Why 432727
does 428846
people 423709
up 422958
there 417112
how 409217
would 402259
get 386352
out 384132
which 384084
than 383095
other 375105
/ 370622
A 364424
time 361835
just 360225
This 343943
some 333716
! 331565
If 330356
them 327462
In 311279
You 308365
| 296412
why 291461
our 283969
because 279085
also 277280
“ 277118
make 269406
only 268470
no 268117
into 264222
use 262427
... 261217
who 259401
1 258509
n’t 258412
know 253745
* 246435
most 245533
much 238011
--T-- 237070
<startAnswer> 237070
any 234971
' 232764
were 230028
been 229313
” 226111
then 224783
2 223914
many 223010
way 222354
– 219114
its 216416
water 215713
i 214716
me 212088
between 208739
very 208359
same 207279
even 207197
may 205646
these 205327
So 204529
need 201518
see 201116
work 197876
And 196653
should 196634
different 194732
When 193853
could 193805
over 192365
Do 190839
Is 189234
We 184709
two 184082
But 183610
he 178004
used 177134
had 177029
; 176947
think 172741
first 170780
3 170364
did 170335
us 170123
There 169266
new 169265
good 168367
go 167877
want 167191
where 166028
being 165396
after 165272
For 164072
really 163779
& 162900
years 162426
To 161457
They 158624
back 156497
take 154098
down 153739
still 151597
through 151433
body 151300
such 148657
light 148330
right 148107
] 147444
now 145568
well 144101
things 141998
something 139181
off 139131
his 139027
those 138579
4 138362
$ 137869
[ 136978
system 135462
world 135307
am 135138
That 131713
're 130962
5 130813
long 130639
day 130560
money 129414
while 129146
before 128371
around 128279
going 127520
10 126516
_ 124648
help 123414
# 121259
say 121104
too 120362
life 119983
ca 119681
> 118925
made 118543
lot 118509
feel 118387
each 115478
look 114827
… 114572
able 114314
find 113945
Your 113567
better 112552
less 112308
here 111552
using 110756
best 110673
actually 109746
high 109365
As 109204
every 106095
number 105511
without 104444
URL_0 104389
'm 103976
always 103338
food 103303
2018 101734
Does 101239
— 100716
both 100420
own 100383
year 100096
thing 99410
part 99027
person 98911
might 98809
said 98555
difference 97023
energy 96295
free 95626
come 95594
few 95446
Are 95173
point 94566
air 93965
often 92528
power 92400
someone 92111
My 91968
makes 91677
S@@ 91135
example 89884
another 89666
called 89300
means 89020
6 88689
game 88014
never 87583
un@@ 86721
little 85854
important 85727
during 85636
change 85243
Can 85146
US 84638
keep 83623
enough 81581
= 81568
2017 81413
mean 80901
re@@ 80804
car 80642
7 80352
end 80203
question 79743
information 79702
her 79600
All 79396
bad 79278
away 79186
put 77866
8 77822
times 77502
New 77385
speed 77385
've 77116
s 77067
T@@ 77003
state 76913
cause 76420
space 76344
government 76063
small 75970
P@@ 75842
start 75794
problem 75530
sound 75165
since 74959
great 74948
With 74510
No 74332
On 74275
case 73932
big 73859
under 73819
place 73713
B@@ 73283
Dr. 73235
Some 73109
brain 73074
video 72769
side 72688
possible 72590
give 72090
’re 72086
last 72038
sure 72009
One 71853
hard 71811
must 71217
M@@ 71098
human 70777
understand 70681
old 70607
found 70465
Of 70153
s@@ 70142
reason 70018
computer 69963
sleep 69817
data 69649
home 69614
D@@ 69556
R@@ 68545
become 68522
pay 68486
C@@ 68321
fact 68110
common 67983
Home 67507
K@@ 67438
G@@ 67429
set 67421
Earth 67395
k@@ 67319
-@@ 67301
o 67277
real 67023
against 66895
making 66857
though 66765
based 66668
usually 66663
amount 66473
These 66388
However 66323
By 66254
in@@ 66113
left 65980
A@@ 65945
she 65636
getting 64955
country 64887
having 64700
three 64688
20 64470
process 64399
d@@ 64365
American 64332
per 64214
2016 64167
etc 64124
blood 63696
ever 63688
cold 63623
Now 63528
F@@ 63345
days 63208
E@@ 62704
12 62557
Not 62235
large 61933
try 61738
United 61640
order 61572
form 61417
L@@ 61379
Posted 61281
again 61100
countries 60946
ago 60897
far 60608
eyes 60533
man 60482
top 60248
others 60195
comes 59985
H@@ 59947
let 59909
.@@ 59770
9 59702
» 59143
got 59003
show 58978
health 58873
read 58778
certain 58770
anything 58743
t@@ 58679
+ 58643
happens 58640
e@@ 58623
eat 58596
N@@ 58466
music 58211
15 58161
doing 58161
second 58100
skin 57919
company 57826
low 57641
known 57588
love 57572
matter 57476
law 57470
type 57328
live 57217
2015 57213
age 57112
Most 57103
Here 57036
phone 56990
black 56691
next 56536
women 56436
30 56355
answer 56234
y@@ 56054
TV 55729
today 55597
play 55492
full 55430
words 54959
essay 54872
level 54861
‘ 54640
until 54560
States 54449
likely 54381
name 54365
stop 54201
control 54149
run 54143
hand 53974
0 53442
least 53418
bit 53412
He 53274
online 53255
probably 53221
him 53209
rate 53147
idea 53040
night 53009
pm 52868
higher 52825
head 52807
states 52675
-- 52645
line 52620
weight 52607
believe 52532
V@@ 52525
business 52470
temperature 52392
W@@ 52381
11 52351
either 52225
p@@ 52196
white 52190
buy 52092
experience 51859
move 51857
'll 51849
turn 51776
already 51696
works 51663
animals 51651
looking 51631
g@@ 51254
heat 51210
tell 51130
red 51084
2014 51009
n@@ 50914
done 50853
m 50814
language 50714
.. 50334
once 50329
causes 50284
humans 50029
x 50000
happen 49938
hours 49843
pain 49840
ed 49758
2012 49749
More 49734
a@@ 49623
says 49582
May 49532
e 49440
al@@ 49434
kind 49335
men 49264
gas 49109
due 49041
open 48808
er 48772
within 48719
post 48702
3@@ 48516
4@@ 48406
2013 48377
Get 48373
market 48273
non 48218
An 48113
term 48074
5@@ 48022
gets 47991
care 47962
From 47957
hot 47946
course 47845
area 47837
companies 47768
exactly 47678
At 47639
i@@ 47612
children 47594
size 47515
b@@ 47475
public 47451
everything 47402
After 47334
C 47225
People 47153
available 47009
ways 46892
nt 46818
seems 46808
simply 46687
ate 46639
games 46620
war 46613
thought 46606
sometimes 46589
easy 46587
World 46194
together 46099
price 46066
effect 45990
including 45887
create 45857
history 45800
whole 45798
longer 45631
m@@ 45525
simple 45456
almost 45379
t 45330
pressure 45301
nothing 45269
types 45169
cost 45142
learn 45127
O@@ 45123
c@@ 45093
trying 45057
whether 44961
single 44787
value 44747
goes 44532
true 44528
else 44512
U.S. 44467
working 44304
color 44238
seen 44206
current 44197
o@@ 44154
16 44051
card 43734
instead 43674
6@@ 43672
similar 43658
pretty 43642
call 43621
2@@ 43603
above 43560
sense 43453
America 43400
While 43342
inside 43310
support 43212
natural 43044
es 42955
18 42886
lower 42874
Best 42872
f@@ 42869
seem 42735
paper 42723
word 42713
takes 42710
wo 42578
7@@ 42527
English 42426
hair 42308
Because 42281
everyone 42166
several 42057
service 42034
100 41963
faster 41930
cells 41916
fast 41901
school 41832
force 41806
needs 41796
Many 41732
13 41713
result 41616
main 41589
al 41568
credit 41557
problems 41517
14 41500
research 41494
hear 41464
short 41461
I@@ 41434
list 41414
News 41400
mind 41383
rather 41352
house 41056
ers 40918
effects 40901
close 40901
oil 40816
v@@ 40780
Have 40657
numbers 40495
article 40493
Also 40422
’ve 40156
25 40138
major 40081
given 40071
Just 40024
_@@ 40007
increase 39898
Free 39758
eye 39757
fall 39690
tax 39675
shows 39648
theory 39643
Difference 39604
yet 39602
universe 39598
2011 39543
million 39493
• 39482
en@@ 39481
y 39449
site 39449
normal 39358
itself 39279
J@@ 39134
questions 39127
reasons 39046
wrong 39021
news 39002
h@@ 38995
quality 38901
quite 38875
er@@ 38717
Google 38604
g 38567
past 38542
child 38534
page 38488
taking 38480
50 38429
started 38341
August 38282
especially 38277
es@@ 38246
drive 38243
family 38138
URL_1 38129
l@@ 38025
ing 38012
Internet 37953
book 37937
24 37882
group 37879
explain 37878
Our 37785
moving 37673
9@@ 37636
internet 37620
8@@ 37616
heart 37555
ation 37514
earth 37496
ice 37482
key 37479
below 37451
on@@ 37428
PM 37347
provide 37328
c 37322
social 37276
First 37262
week 37250
room 37181
sex 37180
source 37110
About 37105
minutes 37104
issue 37024
sun 37017
face 36864
products 36771
ones 36714
half 36672
an@@ 36671
Where 36668
general 36660
mass 36603
China 36570
z@@ 36482
nuclear 36474
months 36433
(@@ 36405
outside 36403
B 36400
u@@ 36312
X 36276
ask 36189
specific 36085
following 36022
17 35924
k 35850
image 35799
taste 35712
Well 35682
’m 35658
w@@ 35568
anyone 35535
surface 35487
technology 35457
THE 35456
behind 35440
drink 35387
considered 35380
remember 35365
Even 35354
10@@ 35330
however 35301
n 35291
test 35270
b 35177
yourself 35062
Or 34977
job 34918
en 34911
themselves 34885
ability 34876
In@@ 34798
clear 34735
July 34688
uses 34635
21 34604
Make 34521
lose 34519
2010 34513
parts 34374
early 34364
AM 34301
ch@@ 34288
feeling 34244
’ 34235
field 34171
four 34136
Windows 34130
March 34120
u 34087
Like 34060
study 34060
movie 34054
Between 34010
alcohol 34006
% 33955
p 33889
Work 33879
account 33854
add 33844
front 33831
changes 33825
popular 33816
dog 33652
Water 33645
June 33553
deal 33521
Who 33491
d 33486
product 33464
North 33421
check 33366
living 33291
political 33251
rest 33216
land 33180
content 33141
file 33129
created 33058
E 33051
program 33048
April 33043
include 33012
cell 33011
Then 32960
j@@ 32940
r@@ 32936
fat 32921
screen 32917
view 32877
completely 32822
ar@@ 32805
along 32791
ated 32758
death 32738
website 32678
across 32578
difficult 32574
average 32570
species 32548
future 32453
running 32429
Y@@ 32384
systems 32284
talk 32120
object 32079
cars 32067
terms 31992
Read 31975
ating 31930
allow 31919
charge 31896
access 31887
produce 31781
'd 31772
download 31761
January 31686
vs 31637
physical 31604
smell 31604
1@@ 31583
/@@ 31583
T 31572
related 31561
’ll 31442
x@@ 31388
interest 31385
quickly 31376
eating 31369
Should 31297
blue 31277
stuff 31260
UK 31243
software 31224
share 31184
D 31172
science 31159
later 31138
easily 31107
Yes 31038
dogs 30974
G 30957
stay 30788
battery 30786
legal 30774
search 30747
travel 30745
came 30707
risk 30652
22 30627
cases 30519
hold 30508
Let 30468
watch 30384
movies 30255
X@@ 30254
cut 30236
le@@ 30228
debt 30216
Z@@ 30185
19 30144
results 30065
party 30031
de 29993
strong 29979
generally 29871
sounds 29856
ground 29817
laws 29797
February 29755
engine 29754
range 29579
Health 29550
prices 29506
de@@ 29494
self 29491
loss 29474
story 29432
media 29296
at@@ 29263
store 29251
taken 29234
grow 29213
cancer 29213
insurance 29205
Re@@ 29190
foods 29111
coming 29110
safe 28998
issues 28973
Time 28933
local 28905
Use 28903
fire 28879
asked 28851
teeth 28797
code 28766
stock 28751
drug 28750
U@@ 28711
worth 28707
services 28651
God 28648
ting 28645
wake 28566
st@@ 28502
economy 28476
memory 28420
hands 28401
period 28335
reading 28326
write 28192
points 28162
saying 28159
el@@ 28147
position 28147
affect 28126
modern 28044
went 28039
leave 28030
heard 28008
over@@ 27988
November 27975
thinking 27928
23 27902
lead 27902
month 27890
easier 27878
five 27843
mouth 27809
ts 27800
areas 27791
hit 27789
it@@ 27771
War 27769
September 27768
October 27759
ted 27720
various 27707
li@@ 27631
Black 27566
students 27564
caused 27538
Since 27533
Science 27519
standard 27377
talking 27372
drugs 27370
dark 27368
green 27357
as@@ 27346
basic 27315
near 27293
2009 27291
device 27290
choose 27278
build 27269
needed 27248
r 27185
police 27166
particular 27164
vote 27160
December 27124
planet 27112
· 27074
sell 27070
special 27036
film 27035
looks 27003
bed 26998
medical 26960
die 26909
am@@ 26879
huge 26782
Un@@ 26737
percent 26715
rights 26696
individual 26641
prevent 26636
South 26492
network 26478
function 26472
or@@ 26455
baby 26444
glass 26439
military 26403
26 26357
Other 26347
28 26302
Will 26292
radio 26278
break 26275
required 26245
moon 26230
exist 26223
writing 26210
bank 26181
is@@ 26162
kids 26155
President 26112
action 26092
di@@ 26031
original 25995
State 25987
smaller 25972
tend 25942
levels 25880
2008 25865
fuel 25856
entire 25848
class 25835
billion 25809
differences 25805
ly 25804
dis@@ 25782
helps 25760
healthy 25742
ates 25728
security 25696
K 25696
offer 25692
Video 25687
version 25666
middle 25653
evidence 25638
happened 25635
illegal 25587
18@@ 25542
27 25534
personal 25518
plan 25515
damage 25481
directly 25476
Americans 25465
city 25460
feet 25455
morning 25447
date 25444
nose 25428
gravity 25384
further 25355
allows 25277
told 25273
took 25237
rates 25209
expensive 25111
team 25075
act 25050
paid 25034
total 25034
Be 25031
series 25013
th@@ 24993
ab@@ 24983
re 24971
camera 24915
gives 24889
lines 24855
@@@ 24809
solar 24775
population 24755
friends 24721
M 24671
F 24625
picture 24615
Facebook 24612
larger 24580
S 24575
avoid 24541
designed 24502
Life 24446
benefits 24390
l 24389
bacteria 24388
meaning 24387
negative 24381
maybe 24364
warm 24362
distance 24354
objects 24345
appear 24335
Did 24334
consider 24331
voice 24292
ti@@ 24284
please 24201
hour 24155
Post 24147
Russia 24138
continue 24082
dry 24079
design 24073
box 24052
economic 24050
web 24034
drinking 23987
compared 23983
Please 23964
ant 23960
29 23959
kill 23938
users 23917
multiple 23917
z 23903
situation 23880
See 23879
contact 23878
ri@@ 23872
disease 23868
University 23845
clean 23829
basically 23825
slow 23811
Which 23807
among 23799
animal 23741
lost 23738
model 23688
direction 23658
stars 23640
Europe 23608
income 23608
present 23603
ic@@ 23587
material 23574
building 23573
actual 23519
stomach 23512
videos 23504
12@@ 23499
regular 23495
son 23494
places 23487
college 23483
co@@ 23482
L 23464
conditions 23461
step 23460
White 23403
federal 23372
extra 23354
colors 23283
via 23250
currency 23223
treatment 23198
according 23197
ac@@ 23194
focus 23152
60 23125
require 23060
im@@ 23039
.... 23030
interesting 23007
ro@@ 23005
dating 23001
allowed 22986
ing@@ 22983
rules 22964
written 22940
industry 22935
anti 22920
Top 22912
images 22895
Food 22888
PC 22847
oxygen 22842
third 22841
sugar 22836
machine 22808
young 22751
fine 22730
playing 22703
files 22700
40 22698
waves 22664
Online 22659
Answer 22627
ine 22572
R 22570
wind 22541
art 22509
Apple 22503
muscle 22464
comment 22444
development 22431
private 22430
save 22424
liquid 22424
System 22414
wanted 22405
tried 22404
sh@@ 22387
Re 22367
follow 22356
ball 22348
link 22291
impact 22260
environment 22249
hurt 22245
National 22187
fully 22184
fish 22183
song 22174
symptoms 22165
O 22150
Sun 22146
comments 22132
asleep 22119
Obama 22108
lo@@ 22087
nature 22045
Day 22040
cool 22030
h 22025
correct 22004
Canada 22004
global 21988
milk 21984
growth 21947
electricity 21944
built 21942
costs 21921
groups 21911
Comments 21909
sign 21898
lives 21891
sort 21873
necessary 21873
electric 21868
High 21860
send 21859
em@@ 21847
Great 21845
members 21825
11@@ 21824
meat 21822
user 21813
piece 21807
becomes 21807
degrees 21780
bring 21774
House 21769
Big 21743
Once 21699
v 21698
text 21685
chance 21603
wear 21583
Service 21579
perfect 21563
salt 21533
deep 21507
couple 21499
star 21495
potential 21493
purpose 21491
complete 21464
British 21458
P 21449
recent 21437
Al@@ 21418
response 21405
devices 21368
society 21313
Good 21308
led 21293
effective 21292
muscles 21283
address 21248
driving 21213
email 21197
ag@@ 21194
ton 21164
release 21069
cards 21054
board 21049
role 21047
report 21041
con@@ 21018
planets 21010
languages 21005
analysis 20981
Space 20965
diet 20944
added 20942
Chinese 20925
Download 20918
method 20908
happening 20899
spend 20886
parents 20875
weeks 20829
reach 20819
Car 20788
York 20782
national 20774
remove 20771
Up 20738
table 20733
digital 20711
calories 20705
chemical 20693
V 20667
community 20657
N 20626
mostly 20613
movement 20583
policy 20583
Find 20581
road 20579
burn 20578
extremely 20572
USA 20558
choice 20548
soon 20537
woman 20509
pass 20466
lots 20466
taxes 20457
fight 20456
whatever 20444
European 20444
als 20438
cover 20427
signal 20403
plants 20388
record 20363
myself 20363
app 20359
vision 20354
recently 20351
et@@ 20348
developed 20346
born 20337
ic 20336
lights 20322
noise 20305
note 20302
doctor 20280
older 20277
weather 20267
understanding 20266
DNA 20265
bottom 20253
financial 20240
factors 20240
flow 20236
reduce 20218
involved 20211
worse 20199
fun 20189
complex 20174
Learn 20163
determine 20155
le 20151
be@@ 20139
attack 20128
radiation 20119
majority 20092
names 20091
scale 20089
upon 20081
positive 20071
agree 20066
production 20056
performance 20052
measure 20030
dead 20012
wants 20010
protect 20007
mobile 19990
hole 19982
Today 19975
ha@@ 19951
sites 19940
Business 19935
plane 19930
towards 19897
event 19896
Tags 19825
straight 19811
currently 19807
ec@@ 19761
shot 19760
yes 19757
0@@ 19753
ap@@ 19749
pictures 19702
option 19681
bodies 19679
culture 19665
court 19664
traffic 19660
Con@@ 19657
Blog 19655
ad@@ 19639
Full 19624
although 19564
practice 19555
forms 19529
education 19491
sky 19472
John 19457
receive 19447
Music 19444
History 19435
hate 19429
reality 19426
seconds 19394
center 19382
motion 19381
trade 19361
el 19349
She 19328
learning 19325
solution 19295
therefore 19280
metal 19276
gold 19248
typically 19212
supply 19207
poor 19204
features 19180
ar 19174
pre@@ 19171
return 19154
president 19136
Trump 19126
begin 19111
subject 19099
Sometimes 19098
Although 19092
changed 19060
giving 19048
sick 19015
dollars 18988
shape 18954
programs 18952
stand 18946
options 18894
YouTube 18894
concept 18890
Law 18881
se@@ 18862
dangerous 18860
sp@@ 18835
property 18808
connection 18771
According 18757
et 18757
relationship 18748
attention 18731
ear 18712
moment 18698
degree 18693
particles 18689
Q 18682
figure 18676
serious 18674
Last 18645
computers 18642
crime 18620
books 18614
India 18603
friend 18598
scientists 18580
powerful 18570
players 18555
os 18553
An@@ 18549
sea 18548
Y 18547
dream 18545
Help 18537
released 18501
develop 18499
definition 18495
volume 18484
activity 18461
to@@ 18460
gun 18442
knowledge 18426
Their 18412
Credit 18401
door 18387
der 18383
Another 18380
California 18370
Take 18349
ia 18348
base 18315
coffee 18299
ings 18298
cable 18282
ra@@ 18280
hope 18261
significant 18234
ator 18229
AND 18217
vehicle 18207
foreign 18196
tired 18170
ul@@ 18151
win 18144
1.@@ 18130
growing 18118
Go 18116
male 18116
office 18109
per@@ 18092
late 18071
ma@@ 18070
Leave 18067
race 18062
button 18057
Light 18049
king 18040
became 18039
speak 18025
Sh@@ 18009
St@@ 18004
Would 18001
watching 17988
ons 17985
Air 17979
sports 17960
occur 17940
fly 17937
Every 17920
Money 17891
alone 17880
daily 17876
minimum 17869
throughout 17864
events 17845
enjoy 17843
Korea 17841
unless 17834
claim 17832
mental 17820
unique 17817
addition 17784
Japan 17780
review 17779
thus 17752
zero 17750
happy 17743
f 17700
Essay 17698
17@@ 17696
united 17691
location 17680
Red 17663
ans 17657
En@@ 17654
core 17625
jobs 17615
notice 17610
cat 17600
bill 17583
limit 17580
touch 17571
il@@ 17563
forward 17554
female 17542
marijuana 17537
qu@@ 17531
< 17508
IS 17502
sub@@ 17487
feels 17463
answers 17452
0.@@ 17444
apply 17444
Two 17442
rise 17422
limited 17416
walk 17416
contains 17393
rich 17380
birth 17364
plant 17345
bigger 17341
primary 17316
saw 17304
forces 17302
topic 17295
thousands 17282
us@@ 17280
international 17270
click 17263
miles 17259
lack 17256
os@@ 17245
fit 17245
Ch@@ 17237
greater 17231
blog 17228
virus 17210
URL_2 17208
Moon 17196
message 17186
rule 17186
equal 17174
starts 17165
atmosphere 17146
exercise 17137
Before 17127
3D 17119
reaction 17098
2007 17091
ideas 17081
wall 17080
)@@ 17068
op@@ 17068
wide 17065
sexual 17053
Car@@ 17047
Co@@ 17034
seeing 17015
depends 17010
NOT 16985
wave 16983
associated 16981
pick 16968
paying 16968
Africa 16954
,@@ 16950
carbon 16948
City 16938
um 16932
guy 16923
Act 16919
nice 16901
ed@@ 16898
causing 16896
posted 16879
provides 16878
contain 16874
19@@ 16858
structure 16849
Know 16845
RE@@ 16840
produced 16838
tips 16837
31 16834
cats 16831
drop 16827
gain 16810
15@@ 16809
hearing 16791
ad 16787
slightly 16785
buying 16770
Power 16762
track 16736
Out 16728
heavy 16726
opposite 16723
eventually 16707
requires 16697
flight 16688
no@@ 16676
cash 16667
Australia 16667
Next 16659
guess 16658
nearly 16652
player 16650
active 16645
safety 16616
plastic 16614
direct 16613
Pro@@ 16610
Mars 16601
net 16597
Its 16581
ds 16544
items 16537
U 16528
dollar 16495
Women 16489
length 16467
improve 16464
useful 16458
carry 16446
balance 16432
Mar@@ 16429
turned 16416
training 16406
si@@ 16392
} 16389
th 16373
breath 16370
banks 16325
nation 16305
General 16300
knows 16297
During 16291
ears 16279
winter 16270
Dis@@ 16267
um@@ 16265
election 16247
benefit 16230
w 16219
Any 16196
om@@ 16189
16@@ 16188
random 16175
decision 16174
increased 16173
project 16142
East 16136
weapons 16130
ter 16115
Dogs 16112
held 16101
spread 16082
International 16072
phones 16045
iPhone 16044
ads 16038
double 16031
decide 16025
starting 16011
depending 16002
ist 15972
expect 15972
style 15971
Using 15949
demand 15949
highly 15946
Japanese 15944
brand 15943
professional 15940
section 15925
ready 15923
Right 15919
frequency 15918
Thanks 15916
enter 15893
Ar@@ 15889
W 15872
individuals 15866
Part 15862
Tips 15860
stress 15851
fear 15841
Over 15833
millions 15821
stick 15813
customers 15808
IN@@ 15803
ten 15798
vs. 15796
six 15783
Germany 15772
wait 15766
changing 15751
20@@ 15740
student 15728
Energy 15728
commercial 15657
decided 15638
includes 15636
ex@@ 15627
century 15624
French 15623
guys 15620
certainly 15614
thoughts 15610
condition 15593
ations 15588
Android 15588
aware 15545
ol@@ 15543
Game 15541
ship 15530
immediately 15527
Security 15518
separate 15510
Need 15510
rid 15510
season 15486
switch 15467
flat 15465
ur@@ 15425
Court 15407
TO 15397
window 15392
unit 15388
variety 15384
yellow 15384
Di@@ 15383
te 15366
gone 15363
est 15352
largest 15350
car@@ 15346
Only 15345
constant 15345
mo@@ 15344
ING 15340
orbit 15336
impossible 15318
00@@ 15286
Page 15282
pull 15280
shown 15272
bottle 15255
sent 15244
batteries 15216
elements 15212
do@@ 15210
Click 15202
Back 15189
H 15173
ous 15146
connected 15136
Each 15130
turns 15118
Reddit 15115
examples 15112
Computer 15107
500 15088
resources 15086
favorite 15082
IN 15072
inter@@ 15070
id@@ 15057
solid 15049
Q@@ 15040
dreams 15038
scientific 15023
Could 15019
explanation 15015
press 15011
Research 15008
De@@ 15004
OF 14986
smoke 14985
atoms 14959
Social 14923
ter@@ 14919
ve 14906
physics 14903
creating 14897
ent 14896
survive 14892
properly 14890
tiny 14876
legs 14876
imagine 14847
particularly 14841
{ 14819
College 14810
profit 14802
32 14788
cycle 14781
truth 14776
fresh 14751
posts 14743
ker 14734
parties 14715
latest 14707
exchange 14704
purchase 14695
push 14684
ding 14663
Cold 14660
background 14653
Human 14647
Us 14642
wood 14627
pro@@ 14621
HD 14617
details 14604
Check 14587
biggest 14558
beginning 14552
audio 14543
tic 14532
materials 14531
argument 14530
Ex@@ 14522
application 14507
religion 14502
View 14499
ps 14486
selling 14466
falling 14456
closer 14439
climate 14437
quick 14436
definitely 14434
ling 14432
songs 14405
asking 14401
workers 14385
super 14375
block 14375
beyond 14372
summer 14370
Watch 14366
smoking 14352
Federal 14347
keeping 14339
ment 14330
ocean 14327
station 14313
ensure 14311
advantage 14308
photos 14305
waste 14269
massive 14264
charged 14263
relative 14261
USB 14261
13@@ 14258
mis@@ 14256
ir@@ 14246
speaking 14244
worked 14241
electrons 14239
supposed 14221
sources 14218
Israel 14218
Congress 14213
Bad 14211
responsible 14193
ies 14179
onto 14172
Much 14155
server 14154
fan 14153
views 14147
sing 14143
West 14131
Long 14124
photo 14122
Body 14106
Web 14105
characters 14104
Russian 14103
increases 14101
arms 14095
90 14092
relatively 14069
molecules 14068
additional 14059
remain 14054
14@@ 14052
sales 14049
tions 14040
200 14028
display 14023
2.@@ 14010
felt 14008
appears 14006
facts 14002
Review 13997
normally 13993
Things 13985
electrical 13982
guide 13970
he@@ 13954
acid 13948
ring 13946
stores 13934
se 13930
load 13926
instance 13924
bar 13910
interested 13905
notes 13904
out@@ 13896
Those 13896
websites 13878
occurs 13867
magnetic 13865
sold 13861
ors 13851
harder 13844
pop 13841
previous 13837
foot 13825
ST@@ 13818
Netflix 13809
perhaps 13803
schools 13799
Reply 13795
round 13794
throat 13787
american 13781
ants 13776
pe@@ 13776
storage 13771
protein 13766
School 13761
rain 13759
basis 13757
pages 13731
clock 13727
behavior 13724
broken 13720
vi@@ 13717
IT 13704
letter 13701
evolution 13695
naturally 13692
bo@@ 13692
programming 13686
mirror 13682
the@@ 13659
ne@@ 13644
tr@@ 13637
Buy 13632
except 13631
beer 13629
minute 13620
NASA 13617
3.@@ 13616
offers 13613
80 13606
began 13601
influence 13598
passed 13590
traditional 13574
provided 13565
meet 13564
region 13562
treat 13562
Both 13551
opinion 13550
70 13538
frame 13531
Guide 13529
kinds 13527
methods 13522
fix 13521
drinks 13507
© 13495
eggs 13495
Games 13493
Causes 13484
der@@ 13467
learned 13461
Mo@@ 13460
football 13455
sleeping 13454
removed 13444
ph@@ 13439
wage 13431
windows 13420
par@@ 13399
studies 13397
GB 13396
played 13396
Men 13390
stage 13362
cheap 13357
birds 13356
soft 13343
exact 13331
sw@@ 13323
steps 13315
meant 13304
fake 13302
spot 13282
operating 13278
formed 13253
Amazon 13246
ism 13246
quantum 13244
character 13243
ent@@ 13240
te@@ 13222
Way 13198
Microsoft 13185
expected 13179
plus 13176
’d 13163
cities 13149
clearly 13148
amounts 13143
Par@@ 13126
constantly 13121
inflation 13117
train 13105
final 13098
Think 13096
ance 13090
wonder 13079
Twitter 13077
Maybe 13061
visit 13057
ins 13054
connect 13042
transfer 13040
Keep 13036
loud 13036
commonly 13035
essays 13034
'@@ 13027
television 13021
engines 13020
2006 13016
feature 13009
oc@@ 13008
rock 12993
ters 12989
burning 12986
speeds 12983
speech 12967
Friday 12966
?@@ 12964
mentioned 12963
ks 12953
stored 12951
specifically 12950
mother 12948
Star 12942
spending 12941
amazing 12941
Iran 12939
Blue 12934
crisis 12923
overall 12923
Search 12922
statement 12911
signals 12900
Sleep 12886
immune 12885
member 12884
under@@ 12883
protection 12857
maintain 12853
IP 12849
handle 12848
closed 12843
defined 12834
II 12826
Care 12807
German 12800
ty 12793
depression 12791
map 12784
weird 12781
fruit 12778
killed 12778
slowly 12770
factor 12769
signs 12763
na 12736
floor 12735
equipment 12727
Instead 12726
debate 12723
Middle 12713
Government 12707
Real 12674
mm 12673
putting 12672
Party 12672
increasing 12670
forget 12668
Different 12664
bi@@ 12664
stations 12657
sale 12651
girls 12638
arm 12637
driver 12633
Look 12629
Solar 12628
leading 12619
noticed 12613
Sign 12601
loan 12592
Man 12589
doctors 12585
patients 12580
discovered 12570
looked 12568
calls 12567
Love 12564
visible 12564
stories 12563
goal 12549
sitting 12549
sit 12544
proper 12535
Green 12522
earlier 12515
tests 12498
approach 12480
math 12472
listen 12468
Without 12467
Was 12467
tion 12464
sides 12458
assume 12452
bar@@ 12448
published 12445
sc@@ 12443
citizens 12425
efficient 12423
central 12420
pee 12405
religious 12402
i.e. 12397
temperatures 12392
Universe 12377
mode 12365
sets 12357
25@@ 12350
up@@ 12338
Th@@ 12337
Digital 12335
functions 12307
standing 12306
Card 12300
ta@@ 12299
twice 12298
accurate 12296
becoming 12294
genetic 12294
girl 12270
glasses 12262
pl@@ 12261
me@@ 12246
raise 12241
layer 12240
AN@@ 12235
bright 12230
generation 12216
chemicals 12214
otherwise 12212
adults 12212
official 12208
Question 12201
ni@@ 12197
Washington 12187
Off 12183
keeps 12176
po@@ 12175
Ad@@ 12172
shower 12160
combination 12158
highest 12154
count 12151
ley 12134
strength 12128
ver@@ 12127
Source 12124
gender 12117
target 12113
leaves 12113
essential 12110
tools 12103
describe 12091
successful 12085
Union 12084
Bar@@ 12082
letters 12069
obvious 12067
wrote 12056
tree 12054
finger 12049
Aug 12048
Me 12044
Weight 12041
fl@@ 12038
finally 12031
Live 12029
prefer 12028
mon@@ 12025
Under 12016
Dog 12012
ON 12008
browser 12002
id 11990
ally 11989
Bank 11987
accept 11984
bought 11984
Data 11976
co 11976
match 11974
ties 11969
pieces 11966
\@@ 11962
Center 11960
budget 11946
apart 11938
babies 11936
values 11935
:@@ 11934
laptop 11932
infection 11932
Photo 11926
mix 11924
breathing 11924
Edit 11917
employees 11915
rare 11915
adult 11913
s’ 11887
24@@ 11881
famous 11875
internal 11874
essentially 11868
ster 11860
ID 11852
holes 11847
colour 11847
knew 11843
located 11841
brown 11841
remains 11834
Be@@ 11834
Words 11832
title 11832
ES 11829
ked 11819
compare 11814
serve 11810
David 11801
plans 11799
criminal 11790
realize 11788
copy 11784
businesses 11766
gave 11763
Stop 11751
pre 11747
tive 11743
print 11733
Sp@@ 11730
brought 11719
OS 11717
hundreds 11710
investment 11691
la@@ 11679
35 11672
path 11651
proof 11647
affected 11641
fair 11637
patient 11636
2000 11634
spent 11624
Monday 11619
Really 11609
funny 11608
tv 11599
Note 11598
01 11590
ED 11583
Tagged 11582
moves 11572
cup 11568
former 11567
resolution 11560
setting 11555
cheaper 11548
Z 11548
beautiful 11530
testing 11524
fill 11522
cross 11515
wondering 11502
99 11492
hi@@ 11487
Public 11486
possibly 11476
capacity 11474
complicated 11474
kept 11474
perform 11466
password 11463
Bill 11462
hydrogen 11462
tion@@ 11457
articles 11449
His 11448
ut@@ 11444
Syria 11442
politics 11441
pattern 11441
aircraft 11441
models 11430
Forum 11424
ge 11418
trouble 11417
wire 11417
soda 11414
electronic 11401
EU 11399
sensitive 11397
wet 11392
Add 11391
2005 11386
anyway 11383
included 11383
prove 11382
worry 11381
received 11372
activities 11371
snow 11368
truly 11367
Being 11358
Second 11358
north 11344
dy 11342
vehicles 11340
Share 11338
finding 11337
turning 11331
il 11327
marriage 11326
Mc@@ 11317
Information 11316
tool 11305
ancient 11301
Hot 11300
stuck 11294
wine 11267
Media 11267
les 11265
fingers 11265
Old 11263
stronger 11258
machines 11257
attacks 11255
covered 11252
marketing 11251
Sound 11250
diseases 11243
e.g. 11239
clothes 11222
wheel 11215
actions 11205
maximum 11205
ages 11204
drivers 11204
ge@@ 11203
=@@ 11199
leaving 11198
Times 11193
ators 11191
surgery 11191
showing 11187
absolutely 11184
medicine 11182
Le@@ 11178
ite 11156
bomb 11147
da 11142
ded 11135
List 11127
bag 11126
experienced 11124
mail 11122
Ro@@ 11119
existing 11117
anywhere 11108
France 11106
wish 11104
ie 11104
"@@ 11100
explained 11097
45 11089
ber@@ 11086
and@@ 11083
ends 11082
alternative 11069
accounts 11064
injury 11060
ch 11038
explains 11036
Down 11023
cigarettes 11016
Therefore 11015
ep@@ 11011
comparison 11009
suddenly 11008
resistance 11004
effort 11001
stopped 10999
lie 10998
entirely 10988
Comment 10983
empty 10983
identify 10976
and/or 10956
somewhere 10944
nations 10941
throw 10938
toilet 10937
intelligence 10933
Jan 10925
Li@@ 10912
links 10907
fighting 10906
applications 10903
charges 10901
Wikipedia 10894
LE@@ 10892
ci@@ 10891
ant@@ 10891
ness 10886
holding 10884
reported 10884
No@@ 10879
African 10878
placed 10877
replace 10872
shift 10863
extreme 10863
soap 10854
creates 10853
ta 10844
ke 10843
neck 10842
square 10841
chicken 10830
success 10828
microwave 10825
Nuclear 10813
totally 10806
street 10801
despite 10793
ina 10793
Technology 10792
Phone 10784
necessarily 10782
properties 10780
Policy 10770
viruses 10766
Open 10765
DVD 10762
reference 10758
Michael 10758
ey 10756
draw 10736
catch 10734
anymore 10732
CO@@ 10730
rec@@ 10728
attempt 10727
® 10724
determined 10723
comfortable 10722
100% 10720
gay 10719
ze 10717
Tax 10714
discussion 10708
Stock 10707
leg 10707
management 10704
ER 10700
ner 10695
tells 10693
man@@ 10685
|@@ 10682
Global 10679
Theory 10678
claims 10677
fixed 10677
particle 10670
angle 10670
advice 10667
ratio 10664
LI@@ 10662
heads 10656
south 10651
conflict 10646
Tuesday 10646
frequently 10641
trees 10637
hardware 10634
Natural 10634
super@@ 10629
independent 10629
voltage 10628
Try 10627
Se@@ 10616
feed 10615
Animals 10614
Bitcoin 10611
ence 10610
anxiety 10607
speakers 10607
bunch 10604
trial 10598
England 10598
toward 10595
4.@@ 10592
literally 10579
cl@@ 10572
cream 10571
ke@@ 10569
civil 10568
runs 10560
Change 10542
Humans 10536
Remember 10534
skills 10530
adding 10525
Texas 10521
walking 10513
whose 10507
Department 10507
severe 10502
trading 10496
Radio 10496
,,,@@ 10493
reply 10492
for@@ 10483
band 10481
losing 10472
nor 10469
lets 10467
automatically 10466
contract 10465
flying 10465
exists 10459
generate 10456
Paul 10449
perfectly 10449
fans 10449
seat 10447
ak@@ 10446
differently 10445
[@@ 10442
fluid 10442
status 10437
Dark 10436
helpful 10425
experiment 10423
els 10420
ou@@ 10418
exposed 10416
–@@ 10410
Image 10409
Sunday 10400
existence 10388
Start 10379
ma 10377
Book 10374
defense 10373
ders 10370
ingredients 10368
atomic 10368
smart 10367
sentence 10366
format 10362
ho@@ 10357
ste@@ 10347
apps 10347
tu@@ 10343
customer 10342
communication 10339
critical 10339
violence 10339
died 10338
30@@ 10331
slower 10324
Street 10314
Non 10313
50@@ 10312
Basically 10312
freedom 10298
cameras 10298
lies 10288
mar@@ 10287
native 10286
Oil 10277
bl@@ 10276
Republican 10275
^ 10274
« 10272
infinite 10259
Drive 10254
AC 10253
stream 10252
exposure 10251
missing 10248
atom 10248
scene 10246
ler 10234
error 10232
ves 10230
Super 10229
named 10228
+@@ 10226
flu 10226
fairly 10218
described 10215
1,@@ 10212
worst 10207
Medical 10207
Plus 10199
score 10192
Than 10190
26@@ 10189
Show 10184
Inter@@ 10183
sweet 10172
Mac 10169
lock 10165
tongue 10164
Iraq 10154
Market 10149
solve 10148
Common 10144
allowing 10138
Price 10128
suggest 10125
Better 10120
breathe 10119
charging 10117
raw 10111
units 10102
Hair 10099
emergency 10097
Bo@@ 10089
Police 10087
Canadian 10084
Questions 10079
votes 10075
Mar 10073
grade 10067
Movie 10061
recommend 10055
bone 10054
tics 10046
edge 10044
decades 10044
capital 10039
applied 10037
ish 10028
obviously 10025
Ca 10024
James 10020
ms 10018
campaign 10014
AR@@ 10005
filled 10003
Po@@ 10000
Cor@@ 10000
leads 9987
Press 9985
res@@ 9983
goods 9982
27@@ 9980
install 9977
cloud 9973
voting 9970
capable 9968
opportunity 9965
referred 9962
Per@@ 9957
Lo@@ 9954
mark 9938
porn 9937
shut 9936
cheese 9934
Control 9922
medium 9917
reports 9916
owners 9915
SE@@ 9912
wash 9906
5.@@ 9891
ISIS 9891
developing 9888
Images 9888
Anti 9885
Wednesday 9883
Call 9883
URL_3 9881
jump 9878
plenty 9878
Software 9874
update 9864
AS@@ 9862
moved 9854
CPU 9849
London 9840
regarding 9835
egg 9831
AC@@ 9830
trust 9826
hungry 9826
ahead 9823
wearing 9817
tissue 9814
Sub@@ 9811
ray 9811
CD 9810
acts 9808
ana 9807
64 9804
du@@ 9800
Still 9797
Jul 9788
Oh 9781
cooking 9778
av@@ 9766
treated 9759
town 9744
advanced 9740
percentage 9740
› 9734
abuse 9729
Speed 9727
crash 9726
Art 9723
Jesus 9721
genes 9710
vary 9701
Feb 9697
disorder 9682
ig@@ 9677
fe@@ 9676
ard 9670
Baby 9666
loans 9664
organization 9659
ches 9658
sts 9658
theories 9654
ill 9650
su@@ 9649
Thus 9645
minor 9642
Pre@@ 9636
tea 9635
upper 9623
wireless 9617
tip 9616
Map 9616
threat 9613
vacuum 9611
Network 9609
anti@@ 9608
Com@@ 9606
juice 9605
Western 9604
DC 9604
pitch 9604
300 9602
opening 9598
perspective 9593
forced 9592
info 9589
08 9588
spin 9588
Insurance 9586
28@@ 9584
affects 9583
go@@ 9580
ru@@ 9554
40@@ 9551
Gas 9545
Christian 9545
crazy 9544
we@@ 9540
sensation 9531
Travel 9526
union 9512
beat 9511
guns 9508
owner 9495
secret 9493
output 9493
organs 9490
£ 9486
so@@ 9485
warming 9482
keys 9478
Thursday 9472
ten@@ 9472
US@@ 9470
Spanish 9467
graphics 9459
wild 9456
com@@ 9453
plug 9453
string 9450
respect 9447
Ma@@ 9446
aid 9445
Movies 9445
AD@@ 9443
controlled 9434
telling 9429
falls 9429
Published 9424
row 9422
prison 9421
achieve 9420
chest 9415
Updated 9413
2004 9412
gi@@ 9409
CH@@ 9402
gu@@ 9399
tank 9399
emotional 9398
02 9395
lungs 9393
represent 9389
J 9389
breaking 9389
IT@@ 9389
measured 9388
LED 9382
ality 9379
Mobile 9375
Date 9375
sk@@ 9373
host 9372
patterns 9372
60@@ 9371
ourselves 9365
wing 9345
ize 9344
cre@@ 9343
gs 9343
pool 9341
ically 9340
2003 9339
Supreme 9338
flash 9336
Ice 9336
00 9335
collection 9332
Report 9331
velocity 9329
Services 9328
components 9324
sa@@ 9321
Play 9318
secure 9303
drives 9302
Eat 9302
element 9301
processes 9294
substance 9291
situations 9290
Sha@@ 9288
bits 9287
item 9286
ore 9283
entry 9281
networks 9279
ines 9278
ob@@ 9276
Year 9274
Asia 9270
split 9269
dust 9264
Type 9258
Rights 9248
listening 9246
thin 9244
monitor 9242
deleted 9239
willing 9235
sample 9235
healthcare 9235
spectrum 9231
Gold 9228
King 9227
false 9225
end@@ 9225
familiar 9216
Christmas 9215
Ask 9202
Forums 9200
Related 9197
,,@@ 9197
Jun 9194
weak 9193
presidential 9185
harmful 9183
Pro 9179
alive 9178
teams 9173
Physics 9172
motor 9172
knowing 9171
payment 9165
Everyone 9162
A. 9158
families 9158
transmission 9156
thanks 9149
Wall 9146
evolved 9142
Florida 9139
ry 9138
external 9131
la 9130
Indian 9129
ping 9125
ev@@ 9123
manage 9121
ah 9119
meal 9118
iron 9117
Has 9117
06 9115
brains 9115
father 9114
Apr 9112
providing 9112
fi@@ 9107
lens 9098
&@@ 9095
mine 9080
effectively 9075
1000 9072
Number 9071
Pages 9070
DE@@ 9068
7.@@ 9068
films 9065
Brain 9063
counter 9062
Copyright 9059
05 9059
physically 9057
discuss 9056
join 9055
bu@@ 9053
Contact 9051
sweat 9051
ak 9048
crack 9047
Everything 9046
Office 9044
orange 9044
Dec 9030
bugs 9028
Man@@ 9028
doubt 9024
strategy 9019
domain 9018
steel 9017
For@@ 9016
Sports 9008
experiences 9005
res 8998
Getting 8997
ary 8995
tri@@ 8993
Greek 8992
bread 8989
author 8987
ELI5 8982
galaxy 8980
emotions 8978
recognize 8975
bones 8974
context 8965
@ 8964
Su@@ 8959
cor@@ 8954
murder 8953
refer 8945
sl@@ 8945
processing 8939
launch 8929
23@@ 8928
papers 8928
appropriate 8926
Britain 8923
q@@ 8908
Mexico 8907
channel 8906
lift 8905
concerned 8901
caught 8901
limits 8898
07 8894
height 8893
Cancer 8889
significantly 8886
Works 8881
Happens 8881
harm 8875
Hard 8856
04 8849
Cats 8849
consumers 8843
seven 8842
Alcohol 8842
Qu@@ 8839
pi@@ 8838
mph 8831
sed 8829
Color 8828
Kids 8818
San 8818
Am@@ 8816
Company 8815
shares 8815
Archives 8806
ise 8804
03 8803
killing 8802
memories 8798
ass 8794
Nov 8787
Senate 8772
sneeze 8771
gear 8770
circle 8769
gaming 8769
depth 8758
AN 8747
flavor 8745
enable 8743
Again 8741
fail 8741
TR@@ 8739
raised 8738
Fast 8734
Children 8732
AM@@ 8732
stable 8731
contrast 8728
6.@@ 8724
circuit 8723
typical 8721
Church 8720
funds 8717
purposes 8712
Blood 8712
1/@@ 8705
ve@@ 8703
ical 8700
stops 8700
Want 8698
everywhere 8696
Tri@@ 8690
guilty 8689
instructions 8685
pair 8681
ber 8676
nervous 8675
none 8673
universal 8671
church 8668
ka 8668
manual 8663
Design 8660
Republicans 8658
ful 8657
Education 8656
UN@@ 8646
selection 8640
El@@ 8639
accident 8638
construction 8638
waiting 8633
AL@@ 8632
produces 8629
candidate 8629
shit 8618
Family 8611
competition 8611
cure 8611
followed 8609
Ne@@ 8593
af@@ 8587
Oct 8585
installed 8585
YOU 8585
Ab@@ 8583
mission 8567
pump 8567
OR 8565
freeze 8563
lightning 8563
Email 8560
Low 8559
awake 8558
mainly 8557
Latin 8557
wife 8556
america 8556
ble 8555
ships 8554
reddit 8549
suffer 8547
bonds 8545
Name 8545
researchers 8545
expanding 8542
Mon@@ 8541
des 8540
ens 8540
listed 8539
therapy 8537
lived 8533
galaxies 8528
non@@ 8526
detect 8524
standards 8520
ang@@ 8519
cultural 8518
speaker 8514
era 8509
tor 8505
st 8503
continues 8499
unable 8497
AT@@ 8497
bills 8495
input 8486
illness 8485
artificial 8480
→ 8479
reviews 8476
ER@@ 8475
distribution 8471
everyday 8470
inch 8466
Actually 8465
ity 8457
RO@@ 8457
regardless 8449
refers 8449
tech 8446
challenge 8442
trip 8440
cutting 8440
plays 8438
rays 8437
kers 8433
ative 8428
select 8427
teach 8426
Yet 8422
streaming 8421
visual 8420
tic@@ 8418
Fl@@ 8418
established 8414
recommended 8411
begins 8406
Thank 8403
Test 8401
fields 8399
Tesla 8399
Privacy 8398
mixed 8395
boy 8395
au@@ 8393
policies 8391
advertising 8387
zone 8385
Im@@ 8382
crimes 8372
Asian 8370
Small 8366
task 8363
09 8361
George 8358
governments 8356
pure 8356
’@@ 8352
Sex 8352
root 8352
introduction 8351
ics 8350
license 8347
eight 8344
platform 8340
communism 8327
gasoline 8327
Super@@ 8326
markets 8323
requirements 8322
Language 8320
pet 8317
uc@@ 8316
bathroom 8314
Types 8307
stone 8303
helped 8300
detail 8299
experts 8297
inner 8290
Me@@ 8289
Having 8287
satellite 8284
Cars 8283
advantages 8283
mention 8283
giant 8281
Saudi 8280
75 8278
hell 8278
Islam 8277
roll 8274
identity 8273
itch 8269
har@@ 8268
chain 8266
feelings 8264
Three 8263
channels 8261
importance 8258
messages 8252
judge 8251
com 8251
blind 8250
ology 8249
DO 8247
actors 8246
widely 8246
homes 8238
He@@ 8232
coverage 8232
Bi@@ 8230
fundamental 8220
initial 8209
NFL 8209
400 8208
intended 8203
himself 8202
records 8201
Talk 8200
ay@@ 8200
pack 8195
consumption 8192
communicate 8190
Group 8188
decisions 8185
failure 8183
ats 8182
ching 8180
afford 8176
na@@ 8175
consumer 8165
won 8157
29@@ 8154
Electric 8141
of@@ 8136
Tr@@ 8131
convert 8128
google 8124
pregnant 8119
ky 8118
artists 8117
ized 8116
tube 8116
ideal 8115
techniques 8115
forever 8114
potentially 8113
houses 8105
believed 8102
principle 8099
TS 8092
density 8091
Linux 8090
replaced 8090
leader 8090
urine 8087
operate 8084
wealth 8083
approximately 8075
facing 8075
producing 8073
settings 8071
County 8070
cuts 8066
TH@@ 8065
bs 8064
ach@@ 8058
Whether 8058
shoot 8058
den@@ 8058
shooting 8058
AP 8056
ear@@ 8056
recording 8055
pro 8050
MB 8050
medication 8048
alarm 8047
Cr@@ 8042
headphones 8038
strange 8037
correctly 8036
ses 8035
min@@ 8033
200@@ 8029
western 8027
Size 8025
portion 8022
excellent 8017
Har@@ 8016
Age 8011
8.@@ 8006
Board 8000
calling 7998
Her@@ 7997
nutrients 7993
mer@@ 7991
Sep 7990
oven 7990
suicide 7986
ay 7985
dies 7984
skip 7982
Fire 7980
gene 7963
breaks 7958
80@@ 7957
equivalent 7951
Greece 7950
east 7949
thread 7948
Or@@ 7947
Very 7941
prior 7941
shop 7940
sad 7935
agreement 7933
periods 7930
URL_@@ 7930
roads 7929
Sea 7923
somewhat 7922
port 7920
sharp 7920
admin 7918
Ever 7916
labor 7915
ne 7915
traveling 7909
sport 7906
index 7904
clouds 7904
default 7903
wondered 7901
Terms 7901
surrounding 7898
ink 7895
staff 7892
reduced 7891
helping 7891
confused 7889
repair 7888
cleaning 7887
opposed 7885
blow 7880
Central 7879
possibility 7875
GAME 7873
drunk 7870
Unfortunately 7867
rocket 7867
Eye 7867
filter 7866
operation 7863
ended 7861
laser 7860
Hi 7859
gr@@ 7859
disk 7854
reverse 7849
ering 7849
linked 7849
phase 7846
sharing 7843
respond 7840
english 7834
combined 7833
logic 7833
planes 7831
earn 7829
Never 7829
kid 7828
ok 7825
dec@@ 7825
wh@@ 7822
fees 7821
Pain 7820
insects 7820
Gu@@ 7816
expert 7814
ft 7811
technical 7803
Death 7803
attracted 7798
sm@@ 7795
eb@@ 7793
AL 7792
Facts 7791
pa@@ 7789
plate 7787
revenue 7787
presence 7780
curious 7768
regularly 7767
sizes 7766
Dec@@ 7766
bite 7762
laugh 7758
calculate 7756
Scientists 7756
ger 7753
Effects 7751
accepted 7750
doors 7747
owned 7746
Daily 7745
cooked 7743
cook 7741
hits 7740
smells 7740
spinning 7738
organic 7737
category 7737
Ver@@ 7737
So@@ 7736
]@@ 7733
Code 7731
Diet 7727
jet 7726
cry 7726
prime 7722
tone 7721
Ac@@ 7721
parent 7720
ving 7718
pregnancy 7715
sha@@ 7715
automatic 7714
ments 7714
west 7713
Vi@@ 7711
Saturday 7710
router 7708
spring 7706
relevant 7705
sunlight 7703
divided 7698
Skin 7696
Someone 7695
afraid 7694
candidates 7692
Tech 7689
absolute 7689
ming 7689
fever 7686
whereas 7683
ride 7678
powers 7677
95 7677
electron 7673
ched 7671
reactions 7671
nerve 7670
stupid 7668
biological 7664
prescription 7663
MO@@ 7660
walls 7654
belief 7651
EN@@ 7649
Series 7647
friendly 7630
proven 7630
episode 7629
chocolate 7629
fied 7628
stocks 7623
permanent 7623
handed 7622
stated 7615
Same 7614
cu@@ 7614
colder 7613
outer 7612
protected 7608
leaders 7604
sore 7604
buildings 7603
aging 7598
Politics 7597
RAM 7591
vast 7589
freezing 7589
documents 7587
whenever 7583
Bible 7582
shall 7577
acting 7576
que 7568
Mor@@ 7566
recorded 7561
paint 7557
measures 7553
ban 7552
bet 7549
organisms 7549
ALL 7545
frozen 7544
Mark 7542
Benefits 7540
war@@ 7539
Roman 7538
Videos 7538
request 7538
Self 7537
usage 7537
decrease 7536
her@@ 7533
powered 7530
Paper 7527
failed 7527
back@@ 7524
2nd 7524
university 7521
rating 7521
tors 7518
Cell 7518
izing 7516
Bur@@ 7516
Author 7515
OK 7513
master 7509
1st 7506
j 7505
attractive 7504
65 7501
air@@ 7499
fiber 7499
consequences 7498
attached 7493
ents 7487
IS@@ 7485
Set 7476
Night 7474
taught 7468
formula 7468
un 7461
versions 7457
escape 7448
Glass 7447
define 7440
suggests 7440
involves 7438
faces 7436
ES@@ 7436
Step 7433
audience 7433
alized 7432
Making 7428
mi@@ 7428
,000 7426
cookies 7426
str@@ 7425
sur@@ 7415
officer 7413
phenomenon 7412
ir 7411
45@@ 7395
forum 7392
ff@@ 7392
Mean 7389
tor@@ 7383
bus 7382
heating 7379
cast 7378
Fat 7375
indeed 7374
Australian 7374
vegetables 7371
fee 7364
reasonable 7363
48 7361
bottles 7361
ning 7359
landing 7357
tested 7354
ren@@ 7351
positions 7350
ill@@ 7348
stands 7344
resulting 7341
Park 7341
all@@ 7334
az@@ 7331
label 7331
chip 7330
shared 7328
2,@@ 7324
est@@ 7324
partner 7323
ending 7320
km 7318
chances 7316
Reviews 7316
36 7313
Over@@ 7310
Though 7309
passing 7306
Modern 7305
operations 7303
solutions 7301
hospital 7296
strike 7289
Writing 7287
loved 7286
lay 7285
static 7284
AR 7284
classes 7283
brush 7282
Samsung 7281
considering 7278
Left 7277
elections 7276
ars 7276
allergies 7275
Bay 7274
Net 7273
characteristics 7272
Drug 7271
legally 7270
binary 7269
Made 7266
ys 7262
ine@@ 7254
met 7253
airplane 7251
Join 7244
Too 7241
flies 7239
Wars 7238
consume 7237
tastes 7237
sudden 7236
drops 7235
roughly 7231
auto 7229
grown 7229
balls 7228
ya 7227
ME@@ 7227
argue 7227
painful 7227
generated 7225
excess 7222
Do@@ 7219
Force 7218
okay 7218
multi 7214
ale 7213
9.@@ 7209
100@@ 7207
gra@@ 7207
alism 7204
mechanism 7202
originally 7200
shock 7195
relationships 7195
sending 7194
AP@@ 7188
Community 7184
pounds 7180
Program 7179
log 7179
/r 7177
33 7176
Reasons 7174
athletes 7174
wheels 7172
officials 7171
planning 7169
bullet 7166
colours 7166
survival 7162
Vs 7161
dropped 7157
Ukraine 7154
engineering 7153
servers 7153
rent 7151
tons 7149
neither 7138
FOR 7137
ur 7137
younger 7135
announced 7134
concern 7127
ser@@ 7126
hundred 7124
2001 7123
Xbox 7122
Support 7120
Army 7119
officers 7117
technique 7116
mortgage 7114
artist 7112
Ways 7108
projects 7104
holds 7102
peace 7101
somehow 7100
tap 7100
OR@@ 7099
cigarette 7097
seriously 7096
vo@@ 7096
marks 7096
lighter 7095
greatest 7095
Categories 7094
god 7094
ade 7089
origin 7089
AT 7086
Constitution 7082
passes 7082
conversation 7079
identical 7078
vitamin 7076
UN 7072
Pacific 7072
updated 7068
Marijuana 7068
bird 7065
ty@@ 7064
aspect 7057
perception 7053
Jews 7051
Robert 7050
economics 7048
Imagine 7042
cord 7042
Products 7039
smooth 7037
offered 7036
introduced 7034
fewer 7030
primarily 7029
kitchen 7029
rising 7028
360 7028
aspects 7027
funding 7025
gh@@ 7022
Answers 7021
Democrats 7018
sub 7015
dominant 7009
Chapter 7002
matters 6999
Cat 6995
extent 6995
IC@@ 6994
3rd 6994
sum 6993
logical 6993
Civil 6993
description 6990
gen@@ 6989
antibiotics 6989
processor 6988
Donald 6986
Br@@ 6985
ls 6983
bubble 6977
Finally 6977
ver 6976
VPN 6972
Bl@@ 6971
remote 6970
reached 6969
rarely 6967
35@@ 6967
controls 6961
horse 6960
pot 6958
ery 6957
ai 6956
understood 6955
gravitational 6954
micro@@ 6954
Brown 6953
updates 6951
previously 6951
valuable 6949
versus 6948
Put 6945
shoes 6945
Prime 6945
Usually 6943
ire 6943
ef@@ 6943
Project 6943
Ireland 6942
Debt 6937
Northern 6937
appearance 6936
55 6936
mer 6935
creation 6933
boiling 6931
gl@@ 6930
;@@ 6924
Learning 6922
rapidly 6922
ex 6920
Football 6919
package 6909
democracy 6909
trigger 6908
Title 6908
ell@@ 6906
aw@@ 6905
spots 6903
.[@@ 6901
expand 6901
bags 6900
onic 6899
somebody 6898
storm 6898
syndrome 6896
sight 6892
PDF 6891
Deep 6888
Previous 6887
ee 6884
HIV 6881
don@@ 6876
Eating 6876
bike 6874
keyboard 6870
ned 6860
Tra@@ 6858
topics 6857
Posts 6857
ian 6855
tires 6855
comp@@ 6853
suffering 6850
tickets 6850
accent 6848
Muslim 6846
historical 6846
Ge@@ 6844
clothing 6844
apple 6843
liver 6842
CO2 6841
Road 6841
absorb 6840
Cl@@ 6836
voices 6831
classic 6827
Short 6827
ites 6824
File 6822
MS 6820
Standard 6819
thousand 6819
Model 6818
CA 6818
winning 6818
organizations 6816
billions 6816
sand 6812
rear 6812
Filed 6809
advance 6809
ane 6806
Student 6806
battle 6805
Jewish 6803
tobacco 6802
Military 6801
Flash 6798
follows 6797
EL@@ 6795
domestic 6793
signed 6790
Side 6790
frequencies 6790
delivery 6786
mid 6786
SP@@ 6781
practical 6779
DS 6778
allergic 6777
housing 6776
charger 6776
brands 6769
Special 6767
inches 6767
Cards 6766
cough 6766
shorter 6765
Kingdom 6764
cr@@ 6761
Ri@@ 6758
boys 6757
terrible 6756
Inc. 6755
danger 6748
é@@ 6747
ticket 6746
deals 6746
Korean 6745
diesel 6742
odds 6740
sion 6739
savings 6738
iz@@ 6737
cur@@ 6735
incredibly 6729
scratch 6728
fy 6727
arguments 6727
cons 6726
react 6724
evil 6721
Foods 6719
To@@ 6718
ran 6713
album 6712
cooling 6705
LO@@ 6703
career 6701
washing 6701
lenses 6700
guitar 6699
Current 6698
border 6694
Mr. 6694
ns 6693
pills 6693
container 6691
manufacturers 6690
fruits 6688
damaged 6688
Welcome 6687
electromagnetic 6684
largely 6682
tends 6682
JavaScript 6673
36@@ 6673
seek 6673
pen@@ 6672
pushing 6669
pixels 6668
nobody 6665
boat 6664
awesome 6664
focused 6663
br@@ 6662
hurts 6660
steam 6658
cultures 6655
34 6653
tracks 6651
pulled 6651
conservative 6650
elected 6650
ub@@ 6649
covers 6648
Democratic 6648
privacy 6647
Clinton 6646
screens 6644
Books 6642
Perhaps 6639
alization 6637
Category 6637
copyright 6637
GPS 6636
organ 6633
investors 6630
Used 6626
ISP 6625
numerous 6624
Bu@@ 6623
waking 6620
phrase 6616
suit 6615
sted 6613
husband 6613
NO@@ 6611
profits 6608
can@@ 6607
collapse 6606
Einstein 6606
formation 6606
rely 6605
DO@@ 6603
males 6603
showed 6601
medications 6601
expansion 6599
dinosaurs 6599
regions 6598
Anonymous 6594
equation 6592
usual 6591
ass@@ 6590
likes 6588
invest 6588
saving 6587
Living 6586
structures 6583
38@@ 6582
socialism 6576
movements 6576
politicians 6574
fusion 6567
ther@@ 6567
blocks 6566
Always 6563
post@@ 6563
Large 6563
truck 6561
lying 6554
weapon 6551
register 6548
my@@ 6547
supported 6546
warning 6545
Islamic 6544
Team 6543
tooth 6540
ved 6539
sequence 6536
shaped 6535
Ste@@ 6534
ON@@ 6534
revolution 6530
bubbles 6530
bur@@ 6529
dimensions 6528
manner 6527
DI@@ 6526
destroyed 6526
mu@@ 6524
client 6524
progress 6523
youtube 6522
creative 6521
Child 6520
brings 6519
conscious 6518
bug 6514
capitalism 6513
Min@@ 6511
des@@ 6510
Heat 6509
document 6508
ali@@ 6508
procedure 6508
committed 6502
Loss 6502
Fi 6502
corporations 6501
substances 6498
lips 6498
rotation 6498
Arabia 6494
37 6492
Bang 6490
Subscribe 6487
Amendment 6487
fund 6486
flag 6484
layers 6482
Quantum 6481
injuries 6481
circumstances 6481
sions 6481
ying 6481
37@@ 6478
Turn 6475
corporate 6475
explore 6475
800 6472
meeting 6471
authority 6463
del@@ 6463
edit 6461
closely 6458
е@@ 6458
risks 6458
discover 6454
League 6453
bowl 6452
Systems 6451
dioxide 6450
App 6446
philosophy 6446
ups 6444
Table 6441
IC 6440
Main 6439
Articles 6438
TI@@ 6436
shots 6433
personality 6432
providers 6432
ate@@ 6431
Institute 6430
iOS 6427
travels 6424
Gr@@ 6423
sting 6422
headache 6420
Audio 6418
axis 6415
destroy 6412
fashion 6411
citizen 6408
wars 6407
zing 6407
Trade 6405
sheet 6404
Heart 6404
proteins 6404
Reserve 6401
WHAT 6398
Comcast 6398
Follow 6395
Cap@@ 6386
thesis 6384
Cre@@ 6383
Say 6383
ase 6381
justice 6381
violent 6380
breast 6379
tw@@ 6377
Article 6376
Legal 6376
ell 6373
continued 6371
reflect 6371
ot@@ 6371
pets 6371
represents 6370
Pay 6370
AB@@ 6370
efficiency 6370
sink 6370
Save 6368
cent 6368
Key 6365
ess 6363
teacher 6362
satellites 6362
desire 6360
q 6360
ARE 6357
provider 6353
prepared 6352
backwards 6352
forth 6349
Simple 6348
tin 6346
Turkey 6343
profile 6342
mom 6341
bond 6341
Sal@@ 6341
den 6339
10.@@ 6331
carried 6329
reliable 6328
thick 6326
employee 6324
Cost 6323
­@@ 6321
soil 6320
Association 6317
Go@@ 6315
payments 6308
Feel 6308
Treatment 6306
ts@@ 6305
trick 6304
Col@@ 6301
Du@@ 6299
work@@ 6296
ation@@ 6294
console 6292
nails 6290
The@@ 6288
environmental 6288
opened 6283
trained 6283
ra 6282
odd 6282
liberal 6281
assets 6280
ion 6277
married 6276
Management 6275
44 6275
consciousness 6274
locations 6270
evolutionary 6270
printing 6269
aged 6263
Introduction 6260
thinks 6259
database 6259
intelligent 6259
ol 6259
choices 6256
lin@@ 6256
End 6252
Head 6252
puts 6251
Intel 6250
firm 6246
vitamins 6245
GDP 6241
concepts 6238
Despite 6238
ped 6237
miss 6235
sters 6235
recovery 6234
pp@@ 6234
director 6233
Mu@@ 6230
oo@@ 6229
enforcement 6229
beings 6229
grass 6226
Home@@ 6225
URL_4 6224
adjust 6222
squ@@ 6222
magic 6220
Mag@@ 6220
mal@@ 6218
38 6217
beliefs 6215
shipping 6213
Soviet 6211
*@@ 6211
Machine 6211
Looking 6209
Healthy 6207
agency 6205
pr@@ 6202
finish 6200
intense 6199
Store 6198
deliver 6197
unlike 6196
fer@@ 6195
Pr@@ 6195
serving 6195
banned 6191
offering 6190
LE 6188
Political 6186
TO@@ 6181
Core 6177
AS 6177
Auto 6176
ists 6176
tra@@ 6173
Muslims 6172
Def@@ 6172
chips 6171
valid 6169
Can@@ 6165
hand@@ 6161
gap 6161
vice 6160
cables 6160
1080p 6160
Mal@@ 6159
ong 6158
shopping 6157
1:@@ 6154
Plan 6151
teachers 6150
angry 6149
dr@@ 6147
detailed 6142
dish 6139
connections 6136
shell 6135
hide 6134
estimated 6134
heal 6134
rape 6132
tape 6130
mammals 6130
observed 6129
clients 6123
HOW 6123
caffeine 6119
10:@@ 6117
relativity 6112
Republic 6109
collect 6106
remaining 6106
custom 6102
Coffee 6097
finished 6095
Galaxy 6092
(s 6091
Des@@ 6091
11:@@ 6089
directions 6089
Effect 6088
darker 6087
War@@ 6085
Engine 6083
gon 6081
explosion 6081
oral 6080
spicy 6079
seeds 6076
addiction 6075
Depression 6074
codes 6072
indicate 6070
symbol 6069
Come 6068
dealing 6064
administration 6063
mechanical 6062
parallel 6061
upload 6058
Pl@@ 6058
Pe@@ 6057
dying 6056
interests 6055
efforts 6053
Give 6051
watched 6051
stretch 6051
mining 6050
Easy 6050
jury 6050
NSA 6049
Sony 6046
ast@@ 6041
Chicago 6041
writer 6040
2002 6039
voters 6031
Photos 6031
Society 6030
hidden 6028
Little 6027
shapes 6025
Development 6025
personally 6022
Often 6022
component 6021
~@@ 6020
amp 6019
ys@@ 6016
ly@@ 6016
trillion 6014
Remove 6014
Order 6013
Ocean 6012
ven@@ 6008
toxic 6008
reducing 6007
pri@@ 6006
rated 6005
bitcoin 6001
ization 6000
interview 6000
managed 5998
Makes 5998
Study 5998
wi@@ 5996
12:@@ 5996
Drink 5994
Single 5993
Sk@@ 5993
occurred 5990
Definition 5990
Point 5983
150 5980
AI 5976
lawyer 5971
08@@ 5970
virtual 5970
ff 5970
bridge 5968
weed 5968
Dating 5967
dental 5966
1% 5962
nerves 5960
di 5959
Week 5955
Box 5954
Jupiter 5954
receiving 5952
Word 5951
seats 5951
concerns 5950
fying 5948
penalty 5947
tional 5946
ths 5946
menu 5946
Battery 5945
bas@@ 5944
ess@@ 5942
ERS 5939
NO 5939
goals 5937
nutrition 5931
Through 5926
deeper 5926
bear 5923
EM@@ 5921
seemed 5920
Something 5920
studying 5920
applies 5919
Al 5918
responsibility 5917
Kim 5917
creatures 5916
raising 5914
processed 5910
AG@@ 5909
Hi@@ 5908
mat@@ 5907
Ser@@ 5907
Nothing 5906
selected 5906
ently 5904
Council 5900
eg@@ 5898
classical 5897
developers 5895
ously 5891
bang 5889
probability 5889
39 5887
aff@@ 5883
differ 5881
tight 5880
stem 5879
Choose 5879
park 5878
22@@ 5877
gum 5877
48@@ 5876
red@@ 5872
distinct 5871
lighting 5870
Continue 5869
CR@@ 5869
agencies 5868
corner 5868
dedicated 5865
Out@@ 5862
gar@@ 5861
Spain 5861
#@@ 5860
schedule 5860
proposed 5858
Richard 5857
brief 5857
annual 5851
Cal@@ 5851
Create 5850
answered 5850
Drinking 5850
army 5849
Chris 5849
chosen 5848
med 5847
neutral 5842
Medicine 5841
ann@@ 5840
Am 5838
silver 5837
Native 5836
Understanding 5835
favor 5835
Case 5832
extended 5831
beneficial 5830
99@@ 5830
ably 5828
PS 5827
frames 5826
tough 5825
Ob@@ 5825
bars 5825
served 5825
orders 5824
radioactive 5823
men@@ 5823
Sch@@ 5822
ised 5822
belly 5822
gift 5821
everybody 5820
lowest 5819
struggle 5819
fell 5815
burns 5815
females 5812
sized 5809
Memory 5808
We@@ 5806
4th 5805
boxes 5803
tension 5803
boost 5800
iness 5798
J. 5797
apparently 5797
pping 5796
psychological 5796
ultimately 5793
Cable 5793
42 5791
Flag 5789
Salt 5788
ju@@ 5781
s.@@ 5779
EN 5779
betting 5778
pipe 5778
Journal 5775
iting 5775
Nature 5772
depend 5768
ang 5768
worldwide 5766
Jo@@ 5766
sees 5763
vertical 5758
scared 5752
Safe 5751
Winter 5751
edited 5751
annoying 5750
Mac@@ 5749
spoken 5749
immigrants 5749
-year 5749
conventional 5748
relief 5747
Bush 5745
industrial 5743
butter 5742
Sure 5741
WiFi 5740
PO@@ 5738
mg 5735
ari@@ 5734
contribute 5732
mood 5730
!@@ 5727
quote 5726
-1 5724
Based 5722
NE@@ 5722
Zero 5722
Explain 5721
dates 5719
corn 5719
alize 5715
Financial 5713
baseball 5712
Ru@@ 5710
desktop 5710
unlikely 5709
Future 5709
Unlike 5705
disorders 5703
bees 5703
concrete 5702
ours 5702
victim 5700
Dr@@ 5698
20th 5697
equally 5697
Camera 5697
gre@@ 5697
Lose 5696
warmer 5690
predict 5690
Si@@ 5690
Ber@@ 5688
а@@ 5687
surfaces 5687
algorithm 5686
Link 5684
spray 5683
ure 5682
melt 5682
Example 5680
singing 5679
soldiers 5677
FM 5677
instruments 5677
surprise 5675
ce 5674
Eyes 5674
a. 5673
capture 5673
jo@@ 5671
sperm 5670
carrying 5668
tasks 5665
scenes 5665
Cause 5664
teaching 5663
consistent 5660
instantly 5658
cap 5656
concentration 5655
Problem 5654
pu@@ 5654
maps 5652
poop 5651
victims 5649
Tell 5648
dependent 5648
gotten 5647
executive 5642
figures 5642
tail 5641
AA 5640
infected 5640
calorie 5638
Cha@@ 5637
Rate 5637
breakfast 5636
EX@@ 5635
UR@@ 5634
hyper@@ 5634
mor@@ 5633
Safety 5632
immigration 5627
Such 5627
Fi@@ 5626
star@@ 5625
scheme 5624
ham 5621
perceive 5619
ach 5617
hitting 5615
HO@@ 5614
Personal 5611
Clean 5611
top@@ 5611
ams 5610
invented 5608
sorry 5608
obtain 5608
pros 5607
Mer@@ 5606
coin 5604
soccer 5604
mouse 5604
IM@@ 5603
daughter 5603
Climate 5602
bound 5600
WHY 5599
ick 5599
Queen 5599
Justice 5596
hire 5596
gases 5595
ick@@ 5592
department 5591
tro@@ 5591
Private 5590
Basic 5589
Christianity 5588
statistics 5586
nucleus 5586
haven't 5583
ash 5583
china 5583
cooler 5582
colored 5581
Red@@ 5580
od@@ 5579
beef 5579
compression 5578
receptors 5577
aries 5574
experiencing 5573
101 5572
Action 5572
tis 5571
dimension 5569
expression 5567
Place 5566
gate 5565
shake 5565
ered 5562
vital 5558
chart 5557
relations 5557
presented 5556
Wireless 5556
SE 5554
restaurant 5553
modified 5552
driven 5552
inf@@ 5551
consists 5551
maintenance 5551
suspect 5550
Wh@@ 5550
Major 5550
monthly 5549
Fox 5547
trans@@ 5547
mechanics 5545
2:@@ 5544
Italian 5544
Tom 5543
supports 5542
col@@ 5542
successfully 5542
containing 5541
Ti@@ 5541
unemployment 5538
~ 5536
heavily 5534
infections 5534
Generally 5531
ances 5530
penis 5528
fo@@ 5527
Avoid 5527
eng@@ 5527
appeared 5526
Math 5523
mixture 5523
Class 5522
CEO 5521
bra@@ 5521
kin 5520
joint 5520
drawn 5519
approved 5518
diabetes 5517
surprised 5515
northern 5515
tically 5513
performed 5513
careful 5513
communities 5511
whom 5510
club 5508
5% 5508
Film 5507
launched 5506
awareness 5505
sal@@ 5504
consent 5501
island 5501
loose 5500
panel 5499
traits 5498
beauty 5498
measurement 5497
07@@ 5496
Analysis 5494
wonderful 5494
Years 5494
50% 5492
pound 5490
Weather 5489
Site 5489
categories 5486
SS@@ 5484
Tag 5478
assuming 5478
min 5477
Smell 5477
chemistry 5475
discussed 5474
helium 5473
ware 5472
Commercial 5471
locked 5468
met@@ 5466
moisture 5466
premium 5465
Cup 5465
inc@@ 5462
jail 5460
computing 5460
Fall 5459
kes 5458
BO@@ 5457
cy@@ 5455
torrent 5453
ws 5453
Voice 5451
Going 5449
vessels 5449
ha 5445
Bal@@ 5444
ceiling 5443
tag 5442
decade 5442
ular 5440
FBI 5439
infrastructure 5439
ET 5436
blocked 5433
resistant 5433
Dollar 5432
hence 5432
39@@ 5432
ID@@ 5431
ton@@ 5431
pole 5431
absorbed 5431
hu@@ 5429
nine 5426
47@@ 5426
TE@@ 5422
vers 5422
sodium 5422
Reading 5417
Working 5415
forming 5415
Countries 5413
rac@@ 5411
identified 5409
ori@@ 5409
03@@ 5406
bombs 5406
greatly 5406
animation 5405
arrested 5403
Los 5401
asks 5400
ignore 5400
Story 5399
alist 5397
Er@@ 5396
legislation 5394
ino 5394
Pictures 5391
\ 5390
ba@@ 5388
Doctor 5383
ble@@ 5382
ford 5380
technologies 5379
° 5379
encryption 5377
fre@@ 5376
pan@@ 5376
recipe 5375
photons 5375
Young 5374
FREE 5367
dance 5365
fourth 5361
oz 5360
anger 5357
determines 5354
Training 5353
musical 5353
wires 5352
ki@@ 5352
eliminate 5351
estate 5350
metals 5350
Star@@ 5343
enti@@ 5341
controversial 5341
clo@@ 5339
agreed 5338
rice 5338
pen 5337
ash@@ 5334
worried 5334
unknown 5334
dense 5332
rooms 5331
2-@@ 5331
osis 5330
Disney 5326
Metal 5326
coins 5325
о@@ 5324
Milky 5322
magnet 5321
manufacturing 5321
encourage 5320
dimensional 5320
Pi@@ 5319
route 5315
Gl@@ 5315
Fin@@ 5314
tim@@ 5314
prepare 5314
Product 5313
promote 5312
► 5308
debit 5308
Sale 5307
09@@ 5304
hydro@@ 5302
^@@ 5300
moral 5299
pill 5299
drain 5296
bal@@ 5293
urge 5293
protons 5292
ey@@ 5289
faith 5288
Martin 5287
Universal 5285
command 5282
49 5282
fired 5282
restaurants 5282
floating 5281
As@@ 5280
pulling 5279
600 5277
meals 5276
regulations 5273
poverty 5272
ited 5271
EDIT 5269
electronics 5269
Sw@@ 5269
intake 5269
3:@@ 5268
Companies 5268
honey 5267
Empire 5264
voted 5261
suggested 5260
issued 5260
enemy 5259
Fe@@ 5259
3,@@ 5258
Rock 5257
Important 5256
interact 5256
reaches 5256
pur@@ 5254
returns 5254
Rec@@ 5254
Jobs 5251
comm@@ 5250
estimate 5250
arrest 5250
terrorist 5249
disc 5249
distant 5247
realized 5247
rocks 5246
practices 5246
uncomfortable 5246
USD 5245
S. 5245
Dry 5243
healing 5242
mathematical 5241
acceptable 5241
и@@ 5239
wages 5238
patent 5237
scenario 5236
exception 5236
agent 5236
cher 5235
ah@@ 5234
Pres@@ 5234
Essays 5232
bringing 5232
rings 5231
scope 5231
sensor 5230
pat@@ 5228
safely 5227
Smith 5226
Marketing 5224
printed 5221
commit 5221
outs 5220
haven’t 5220
removing 5219
facial 5219
Anyone 5217
ath@@ 5216
bri@@ 5215
quiet 5215
rises 5213
tries 5211
5:@@ 5210
writers 5209
tly 5207
heated 5207
dinner 5207
Chrome 5206
hormones 5205
graph 5204
accents 5204
wings 5202
Hand 5201
employment 5201
ist@@ 5201
Line 5199
47 5197
shirt 5195
momentum 5193
banking 5192
Res@@ 5192
dreaming 5191
drawing 5190
ville 5190
Steam 5189
Building 5188
ement 5188
Stephen 5186
persons 5186
Students 5186
dirt 5185
Met@@ 5185
Sur@@ 5183
blame 5183
Five 5182
Dead 5182
graphic 5180
Ho@@ 5180
Figure 5179
choosing 5178
Te@@ 5177
swallow 5177
plain 5176
’. 5174
technically 5174
commercials 5172
Coke 5171
Wind 5170
float 5167
Cur@@ 5163
D. 5161
viewing 5158
Em@@ 5156
pocket 5156
46 5154
wound 5152
recover 5148
BE@@ 5147
Nintendo 5147
aside 5146
AD 5146
Symptoms 5146
sector 5145
Run 5145
Station 5141
mistake 5138
Italy 5138
currencies 5137
Christians 5136
Others 5135
folks 5135
Four 5135
horizon 5134
noted 5133
entering 5132
broadcast 5131
lu@@ 5131
sol@@ 5130
dad 5128
lesson 5128
allergy 5124
express 5121
Season 5119
resource 5115
improved 5113
acceleration 5113
skill 5112
trend 5112
IR@@ 5110
che@@ 5110
sufficient 5110
conclusion 5110
bandwidth 5110
Getty 5109
Early 5108
discovery 5108
generations 5108
Island 5107
2% 5104
fossil 5104
repeat 5104
Bob 5103
journey 5103
Her 5101
divide 5098
duty 5097
decay 5097
kick 5094
checking 5093
fed 5093
minds 5090
pal@@ 5088
registered 5086
mess 5084
Discussion 5084
Win@@ 5084
zed 5084
Economic 5082
meter 5079
sy 5079
strongly 5079
Uncategorized 5078
deficit 5077
BBC 5076
C. 5075
Country 5073
sun@@ 5073
SA 5071
semi 5070
recall 5069
ny 5069
Examples 5067
describes 5067
wax 5066
addresses 5066
Drugs 5063
challenges 5062
competitive 5062
lab 5060
bro@@ 5059
yesterday 5058
relation 5057
Blu 5057
lyrics 5056
ges 5052
Defense 5052
habits 5051
carefully 5048
principles 5045
meters 5045
05@@ 5045
Log 5045
weekend 5044
decent 5044
Ford 5044
spiders 5043
claimed 5042
picked 5041
ot 5041
Thomas 5041
recognized 5040
purchased 5040
Gravity 5039
ut 5037
psychology 5034
Colorado 5034
Yeah 5033
Gra@@ 5029
Mass 5028
ac 5025
nap 5022
é 5019
checks 5018
territory 5018
SO@@ 5016
lifestyle 5014
Wi@@ 5014
tall 5013
quarter 5012
pink 5012
Southern 5011
pped 5011
honest 5010
carrier 5010
4:@@ 5010
Pinterest 5009
ordinary 5008
adds 5007
Hollywood 5006
Maps 5005
spacecraft 5003
reflection 5002
branch 5001
Popular 4998
our@@ 4998
missile 4998
releases 4997
Screen 4997
friction 4996
division 4996
confidence 4992
suitable 4991
At@@ 4990
Don@@ 4990
Similar 4990
episodes 4989
observe 4988
06@@ 4988
Evolution 4986
ONE 4986
PR@@ 4986
molecule 4986
existed 4984
Double 4984
calculated 4983
marked 4981
Third 4981
boards 4981
nail 4980
noises 4977
entertainment 4976
Views 4975
owns 4974
sion@@ 4973
04@@ 4973
UTC 4973
Hey 4972
201@@ 4972
roots 4971
CON@@ 4969
evolve 4967
oh 4966
excited 4965
85 4963
va 4963
cents 4962
headaches 4960
stages 4959
merely 4956
120 4956
checked 4955
stays 4955
curve 4954
lists 4953
viewed 4953
broke 4951
43 4949
pilot 4949
minerals 4948
Fish 4945
involve 4944
workout 4944
difficulty 4939
supporting 4939
hor@@ 4939
sen@@ 4938
Smart 4937
comfort 4937
sorts 4936
fa@@ 4936
Animal 4936
opportunities 4934
ache 4934
CC 4932
brother 4930
dirty 4930
burned 4930
LCD 4927
secondary 4925
Access 4923
neutrality 4923
habit 4923
equ@@ 4921
instant 4918
extension 4917
pan 4916
Below 4915
Update 4913
UV 4913
pointed 4908
tes 4907
William 4906
fraud 4906
pour 4904
Select 4902
saved 4901
Matter 4900
swimming 4900
em 4899
conduct 4899
Account 4898
household 4897
Planet 4896
Catholic 4895
Exchange 4894
affordable 4892
fault 4892
Obviously 4892
religions 4891
eaten 4891
ratings 4890
Muscle 4890
Wi 4889
Minister 4889
Cri@@ 4887
Club 4887
abortion 4886
Irish 4884
Snowden 4883
ica 4883
racist 4882
tie 4881
tune 4880
converted 4878
unusual 4878
powder 4877
pe 4877
55@@ 4876
democratic 4875
down@@ 4875
evening 4873
ko 4873
strikes 4873
mathematics 4873
grew 4872
41 4871
om 4871
counting 4871
busy 4869
Inside 4868
Vietnam 4867
employer 4865
rubber 4864
sec@@ 4862
Mil@@ 4862
10% 4862
Instagram 4861
Angeles 4859
Gar@@ 4858
transport 4855
ATION 4851
Fre@@ 4851
quotes 4851
True 4851
unions 4849
upset 4849
investigation 4849
uk 4848
poly@@ 4848
M. 4848
varies 4844
seeking 4843
bulb 4843
Micro@@ 4842
pays 4840
ets 4838
Summer 4837
Hello 4836
injured 4836
generic 4836
library 4835
weigh 4834
ca@@ 4834
senses 4834
UT@@ 4832
readers 4832
bath 4829
classified 4829
loading 4828
sive 4827
represented 4826
Ir@@ 4825
literature 4824
Beer 4824
B. 4821
1,000 4821
copper 4821
makers 4820
с@@ 4819
instrument 4819
cycles 4819
passengers 4819
blowing 4818
pronounced 4818
black@@ 4817
log@@ 4816
Foreign 4816
appeal 4815
Jack 4814
Teeth 4814
reader 4814
loc@@ 4813
Sorry 4812
enc@@ 4810
Fix 4809
routine 4807
da@@ 4802
nuts 4801
confusing 4801
ging 4800
session 4797
Latest 4796
sends 4794
Java 4794
coal 4794
compounds 4794
plugged 4792
fiction 4791
cha@@ 4789
Mis@@ 4789
digestive 4788
responses 4785
Numbers 4784
circles 4783
downloading 4782
thank 4782
delivered 4781
Pri@@ 4781
subreddit 4780
oceans 4779
Okay 4778
Write 4776
sch@@ 4776
barely 4772
Peter 4769
chapter 4769
dose 4769
attract 4765
retail 4764
balloon 4764
altitude 4764
ational 4763
horizontal 4761
appreciate 4760
Intelligence 4760
Magic 4758
ined 4756
My@@ 4756
cute 4756
Bri@@ 4755
luck 4750
Comp@@ 4749
rapid 4748
lands 4748
panels 4747
Eastern 4744
stroke 4744
joke 4744
delete 4742
Pop 4742
mate 4740
immediate 4739
feedback 4739
Computers 4738
lion 4738
Total 4736
Ebola 4736
Differences 4735
Room 4735
Tea 4735
Air@@ 4734
zz@@ 4731
tire 4731
itation 4731
compete 4730
Culture 4730
sti@@ 4728
hom@@ 4726
flights 4726
printer 4725
variable 4724
wise 4724
loop 4724
51 4724
replacement 4722
engage 4720
PRO@@ 4720
ier 4720
lifting 4720
Fer@@ 4719
ises 4717
Ideas 4715
letting 4714
combat 4712
stopping 4711
Anti@@ 4709
Against 4708
treatments 4708
smartphone 4707
guarantee 4703
tolerance 4703
ai@@ 4703
Ni@@ 4702
referring 4701
reserved 4700
Obamacare 4700
permission 4697
au 4697
gallon 4696
discrimination 4692
grocery 4691
hang 4690
safer 4690
horses 4689
covering 4688
Up@@ 4687
disaster 4685
grams 4684
measuring 4681
grows 4681
Trading 4681
Labels 4679
pushed 4679
plates 4679
10,000 4679
St. 4679
manager 4678
bots 4678
SU@@ 4677
ran@@ 4677
Gi@@ 4675
Orange 4675
SD 4675
5th 4673
cal@@ 4671
flip 4671
Web@@ 4668
photography 4668
opinions 4667
belt 4665
chronic 4665
Mel@@ 4664
Ph@@ 4663
bands 4661
fridge 4661
are@@ 4660
FCC 4660
amendment 4657
peak 4657
Youtube 4657
hunger 4657
46@@ 4657
conducted 4657
Level 4655
Che@@ 4652
organized 4651
stri@@ 4649
balanced 4648
Carbon 4647
courts 4647
:) 4646
baking 4645
Pros 4644
mid@@ 4641
ack 4641
Laws 4641
knife 4641
Ancient 4639
roof 4639
pizza 4639
compressed 4636
terrorism 4632
ment@@ 4631
pi 4630
myth 4629
ow@@ 4629
institutions 4627
pollution 4626
chair 4625
independence 4624
flowing 4624
val@@ 4623
flows 4622
New@@ 4622
legitimate 4622
centre 4622
hotter 4622
Problems 4621
alphabet 4621
centuries 4620
Files 4618
Mi@@ 4616
dy@@ 4616
sentences 4616
AV@@ 4615
Ben@@ 4613
Buying 4612
deaths 4611
tied 4611
diameter 4610
agents 4610
outcome 4609
basketball 4609
ISPs 4608
IP@@ 4608
trucks 4607
ial 4606
maker 4605
nearby 4605
temporary 4604
ron 4604
manufacturer 4604
breed 4604
transactions 4603
underwater 4601
lim@@ 4600
Ur@@ 4600
Cloud 4599
Master 4599
Steve 4598
es’ 4598
Yellow 4598
clocks 4597
Original 4596
pipes 4596
heavier 4595
Into 4594
Location 4593
mo 4593
Vitamin 4593
Taste 4591
holiday 4590
iPad 4590
Local 4589
icon 4589
ely 4588
river 4588
Babies 4588
joints 4588
Egypt 4587
Milk 4587
explaining 4586
talks 4585
accurately 4585
reduces 4585
searching 4583
Bas@@ 4583
southern 4582
fuck 4582
Sugar 4582
8:@@ 4581
ki 4581
Sun@@ 4581
horrible 4579
Studies 4579
ries 4577
Programming 4576
quit 4576
Content 4575
mile 4575
actor 4574
Joined 4574
Boston 4573
increasingly 4571
Depending 4571
chi@@ 4571
vector 4571
4,@@ 4570
1/2 4569
theme 4569
Fr@@ 4569
transition 4569
Sa@@ 4567
pleasure 4564
Hor@@ 4564
52 4563
™ 4562
*. 4561
reproduce 4560
Prices 4559
9:@@ 4558
urban 4558
realistic 4557
97@@ 4557
Pan@@ 4556
kills 4556
Men@@ 4555
Syrian 4553
panic 4553
plasma 4553
prevents 4551
multi@@ 4551
Value 4550
childhood 4550
Were 4549
ric@@ 4548
Disease 4548
wallpaper 4545
On@@ 4544
moments 4543
similarities 4541
craft 4541
PS@@ 4541
head@@ 4541
Deal 4540
// 4539
ease 4539
Chicken 4539
aim 4538
ose 4538
Simply 4535
ute 4535
pin 4534
freezer 4534
punishment 4533
Economy 4531
wifi 4531
survey 4529
locks 4529
crew 4528
bass 4528
Navy 4527
tracking 4526
ket@@ 4525
Funny 4524
shadow 4524
Saturn 4524
Hitler 4522
Mike 4521
Ref@@ 4520
URL_5 4520
Arab 4517
Shows 4516
grid 4515
summary 4514
250 4514
98 4513
tur@@ 4513
talked 4512
distances 4511
mirrors 4511
accused 4511
ii 4509
tower 4509
armed 4508
Index 4507
Jones 4506
Channel 4506
metric 4506
circulation 4503
organism 4503
Cam@@ 4502
yawn 4499
900 4496
investing 4495
Scotland 4493
biology 4491
Topic 4490
throwing 4489
ap 4488
digits 4488
tears 4487
Income 4486
Pal@@ 4486
pc 4486
cat@@ 4485
attempts 4483
rub 4482
pdf 4481
races 4481
ger@@ 4481
statements 4479
hip 4479
Engineering 4477
quantity 4476
dri@@ 4476
ple@@ 4474
finds 4473
salary 4473
Become 4472
Stay 4471
ory 4470
$@@ 4470
ingly 4469
Rules 4469
Mat@@ 4468
purchasing 4467
form@@ 4467
ME 4466
decline 4466
residents 4465
finance 4464
max 4463
Edward 4462
contained 4462
6:@@ 4462
Joe 4460
sister 4457
script 4455
scary 4453
Build 4451
ony 4451
ov@@ 4451
Protection 4451
constitution 4450
removal 4450
int@@ 4449
La@@ 4448
3% 4448
Dictionary 4446
Christ 4444
{@@ 4443
win@@ 4443
signature 4443
virtually 4440
Michigan 4440
electoral 4440
buttons 4439
Stars 4437
Bre@@ 4434
Grow 4434
symbols 4433
char@@ 4433
mentally 4433
farm 4432
completed 4432
Lord 4432
relax 4430
ency 4428
Black@@ 4428
WE@@ 4426
tags 4426
000 4425
Them 4423
hi 4423
revealed 4423
smile 4422
fires 4422
passenger 4422
silent 4421
acids 4419
ownership 4418
ination 4418
Magazine 4417
ums 4416
BR@@ 4415
}@@ 4415
ung 4415
mountain 4415
Pakistan 4414
Pi 4412
indicates 4411
backs 4410
torque 4409
admit 4408
wisdom 4408
Crisis 4407
Almost 4406
FAQ 4405
Website 4404
painting 4404
fabric 4403
desired 4403
till 4402
bre@@ 4401
Player 4400
Ray 4399
adopted 4398
Taking 4396
genetically 4395
rats 4394
thrown 4394
Male 4394
Behind 4393
Den@@ 4393
cake 4392
suppose 4390
ink@@ 4390
airport 4388
blades 4387
ain@@ 4386
melting 4385
HE@@ 4384
twins 4384
reaching 4382
distributed 4380
Secret 4378
candy 4377
wealthy 4377
representation 4377
ita 4376
Due 4373
Cola 4373
Quality 4371
Rel@@ 4371
derived 4369
ich 4369
emails 4368
int 4368
ISS 4367
rolling 4365
experiments 4363
processors 4360
scientist 4359
Val@@ 4359
Driving 4359
tre@@ 4358
streets 4358
Afghanistan 4357
dress 4357
teen 4355
attorney 4355
chose 4353
lung 4353
fastest 4352
coast 4352
contracts 4351
cap@@ 4350
Given 4350
tradition 4349
Repair 4349
Under@@ 4347
Mind 4347
grey 4347
Ju@@ 4345
YOUR 4345
ect 4345
1999 4344
Hu@@ 4344
garden 4343
Vision 4343
PA 4343
outlet 4343
magnets 4340
underground 4340
Calories 4340
lunch 4339
Cut 4338
Compare 4338
Around 4337
..... 4337
flavors 4337
reform 4336
Truth 4336
mixing 4336
filling 4335
troops 4335
excessive 4335
knee 4335
ro 4334
parking 4334
Retrieved 4332
texture 4331
DR@@ 4331
versa 4330
Verizon 4330
000@@ 4329
ue 4329
ports 4329
innocent 4328
ech@@ 4327
frequent 4326
designs 4325
Au@@ 4324
ese 4323
factory 4322
offspring 4322
Smoking 4320
criminals 4319
Presidential 4319
ners 4318
deadly 4317
Own 4316
reporting 4316
Scientology 4316
poles 4314
welcome 4314
compatible 4312
Hubble 4312
formal 4311
directed 4309
Currency 4308
applying 4308
Affect 4308
Female 4308
yeah 4305
scan 4304
ner@@ 4302
acc@@ 4301
involving 4301
MP@@ 4301
reflected 4301
corporation 4300
combine 4300
prey 4300
Atlantic 4294
titles 4293
believes 4293
dual 4293
IL@@ 4292
cm 4292
acne 4291
kg 4289
—@@ 4288
styles 4286
crying 4286
lifetime 4285
Running 4285
ture 4284
strategies 4283
sphere 4282
rel@@ 4282
sy@@ 4279
Half 4279
cam@@ 4278
Bra@@ 4278
E. 4277
Flight 4277
Lights 4276
bit@@ 4275
rotate 4275
Fed 4274
performing 4274
cannabis 4274
LA 4273
Mental 4272
seed 4271
broad 4271
elsewhere 4271
beach 4271
universities 4271
Dr 4271
americans 4269
ultimate 4268
gg@@ 4268
mild 4267
reduction 4267
crucial 4267
hypothesis 4267
ba 4266
lucky 4264
vaccine 4263
boil 4262
ax@@ 4262
cellular 4260
tical 4259
Johnson 4258
diagram 4258
touching 4257
Pen@@ 4256
enters 4255
liquids 4255
Nations 4254
SH@@ 4253
67@@ 4253
Nor@@ 4250
Term 4249
cups 4248
gen 4247
Trans@@ 4245
hunting 4244
germs 4244
Gun 4242
expressed 4241
vocal 4241
Ra@@ 4241
conspiracy 4239
Rid 4238
ile 4236
7:@@ 4235
berg 4235
ace 4235
superior 4235
humidity 4235
calendar 4234
fuels 4234
Electricity 4232
sa 4231
57@@ 4230
don 4229
19th 4229
racing 4228
neurons 4227
Shi@@ 4226
occurring 4223
transaction 4223
seemingly 4223
apparent 4223
assault 4220
you@@ 4219
spaces 4218
Additionally 4216
incredible 4216
Freedom 4216
professor 4216
overview 4215
behaviour 4215
e.@@ 4215
staying 4215
convenient 4215
scores 4214
consuming 4214
exercises 4214
oid 4214
labels 4213
á@@ 4213
easiest 4211
ow 4210
yl@@ 4209
Picture 4208
sem@@ 4206
disadvantages 4206
navigation 4205
supplies 4204
Fun 4203
ney 4203
closest 4202
Plastic 4202
ama 4201
neutrons 4201
copies 4200
defend 4199
posting 4197
MA 4197
Coca 4197
populations 4195
fraction 4192
Pluto 4192
refuse 4191
bling 4190
III 4190
Ca@@ 4188
Professional 4188
humanity 4186
hairs 4186
equations 4185
м@@ 4185
confirmed 4185
Election 4185
Yahoo 4184
CIA 4184
naked 4184
promise 4182
ils 4182
ano 4182
sel@@ 4182
hy@@ 4180
Slow 4180
ain 4179
constitutional 4177
radar 4177
Ke@@ 4176
slight 4175
loves 4173
Area 4170
BC 4168
Asset 4166
gy 4166
Less 4165
Radiation 4164
serves 4164
21@@ 4163
ath 4162
bin 4162
functional 4161
vapor 4161
bother 4159
league 4158
Consider 4158
LY 4157
Hum@@ 4157
mus@@ 4156
в@@ 4154
hal@@ 4154
tear 4154
delicious 4153
lane 4153
junk 4153
ids 4152
ster@@ 4152
oils 4151
River 4150
worker 4147
basics 4147
Electronic 4147
za 4146
Win 4146
deaf 4145
gram 4142
aka 4141
tissues 4141
gam@@ 4140
barrier 4140
upgrade 4139
lic 4136
Edition 4136
fats 4136
passwords 4134
destination 4133
nu@@ 4133
preferred 4131
aluminum 4131
accuracy 4130
closing 4130
professionals 4130
Mexican 4130
exclusive 4129
eu@@ 4129
exciting 4129
wavelength 4128
prone 4127
Economics 4125
alists 4124
4% 4121
ker@@ 4119
viewers 4117
Commission 4117
liked 4116
Faster 4116
communist 4115
interaction 4114
Enter 4113
delay 4113
FDA 4113
loses 4112
fin@@ 4112
pitched 4111
unlimited 4110
popularity 4109
gray 4109
yn@@ 4107
ward 4107
ordered 4107
mistakes 4107
scent 4106
ADHD 4105
cul@@ 4104
beam 4104
Direct 4102
brake 4102
beverages 4101
unhealthy 4101
seasons 4100
composition 4099
transmitted 4098
planned 4098
aches 4096
recognition 4094
rational 4093
FE@@ 4092
shed 4092
56 4090
telephone 4090
calm 4090
Je@@ 4090
gradually 4089
Cuba 4089
Hol@@ 4089
Pressure 4089
← 4088
Lake 4088
pol@@ 4086
Spring 4086
Jump 4085
л@@ 4085
cocaine 4082
iled 4080
GPU 4079
purple 4079
clicking 4077
generator 4075
barrel 4075
roles 4074
det@@ 4072
verse 4072
functioning 4070
metabolism 4070
wanting 4069
ati@@ 4069
interface 4069
ella 4069
establish 4068
QU@@ 4067
Probably 4065
underlying 4064
veins 4064
Got 4063
app@@ 4063
Virginia 4063
hack 4063
Ros@@ 4062
Skip 4062
Lee 4061
1.5 4061
Zealand 4061
emissions 4061
Shop 4059
loads 4058
intensity 4057
Laser 4057
initially 4054
upside 4054
hotel 4053
restrictions 4051
ide@@ 4050
orgasm 4050
Temperature 4050
composed 4049
dic@@ 4048
travelling 4048
Golden 4047
aggressive 4046
Hope 4045
02@@ 4044
procedures 4043
owe 4043
Hz 4043
Grand 4042
logo 4041
][@@ 4040
Sta@@ 4039
Results 4038
bing 4038
IV 4036
cli@@ 4036
Birds 4036
studio 4035
R. 4035
Quick 4035
thermal 4035
assistance 4032
Sol@@ 4032
offensive 4031
Library 4031
Custom 4030
Exactly 4029
chat 4028
Section 4028
linear 4025
ski 4025
lawyers 4025
stolen 4024
angles 4023
alcoholic 4023
editing 4021
india 4021
employers 4021
Traffic 4021
Adam 4021
AF@@ 4020
deposit 4019
latter 4019
12.@@ 4019
trains 4018
sil@@ 4017
anc@@ 4017
swing 4017
Print 4016
compound 4016
Topics 4015
loaded 4015
Job 4015
bend 4013
setup 4012
plot 4011
shoulder 4011
ref@@ 4010
Putin 4010
%@@ 4009
facebook 4008
Is@@ 4006
terminal 4005
soul 4005
backed 4004
Answered 4004
20% 4003
Land 4002
CT 4001
draft 4000
LLC 3998
Vegas 3998
TVs 3997
damn 3996
occasionally 3996
ken 3995
ola 3995
producers 3994
NBA 3994
MORE 3994
wa@@ 3993
88@@ 3993
wrap 3991
partners 3991
Mon 3991
Porn 3991
Venus 3991
op 3990
suck 3988
highway 3987
scandal 3987
Charles 3987
Scott 3986
sauce 3986
contents 3984
Gre@@ 3984
Lu@@ 3984
cra@@ 3984
ards 3984
dynamic 3983
tile 3981
Ter@@ 3981
Wal@@ 3979
blade 3979
fps 3978
caps 3977
Industry 3976
ack@@ 3976
bul@@ 3976
regulation 3975
Happy 3975
bladder 3975
Carolina 3974
informed 3973
Sites 3973
Jackson 3973
ure@@ 3972
Bowl 3971
zer 3971
precise 3965
Lost 3965
BY 3964
bles 3964
Face 3964
Jersey 3963
thumb 3963
Foundation 3962
Post@@ 3962
consoles 3960
candle 3960
authorities 3959
calculator 3959
engineers 3959
Older 3958
="@@ 3957
chief 3956
Sam@@ 3955
objective 3954
IQ 3953
counter@@ 3952
lit@@ 3952
Newton 3952
drag 3951
sin 3951
toe 3951
Communism 3949
by@@ 3949
picking 3949
IRS 3949
overcome 3949
continent 3949
magazine 3948
entered 3947
Kar@@ 3947
decides 3947
bankruptcy 3947
leg@@ 3946
cho@@ 3943
Kong 3942
Average 3942
hum@@ 3942
swim 3940
animated 3939
Shower 3938
certificate 3935
book@@ 3935
Royal 3935
Signs 3934
itchy 3934
photon 3933
SS 3933
acy 3932
Unless 3932
fac@@ 3931
3-@@ 3930
supplements 3930
achieved 3929
49@@ 3929
tan 3928
returned 3927
Stomach 3926
Girl 3925
accidents 3925
web@@ 3924
collected 3923
im 3923
narrow 3923
eastern 3922
VA 3922
orbits 3922
fluids 3921
tan@@ 3920
2/@@ 3920
Cat@@ 3917
Administration 3917
matches 3915
novel 3914
anime 3914
ged 3914
ancestors 3914
pixel 3912
relate 3912
Motion 3910
leadership 3908
66 3908
interference 3908
pres@@ 3908
1998 3907
Brazil 3907
т@@ 3906
gging 3906
og@@ 3905
sickness 3905
orbiting 3905
Cancel 3904
ata 3903
ا@@ 3903
reasoning 3902
corruption 3902
farther 3902
dly 3901
eless 3900
tablet 3900
polar 3900
gut 3899
finite 3898
diagnosed 3897
racial 3896
perceived 3895
edges 3895
Resources 3892
toes 3892
tagged 3891
72 3891
Interest 3891
branches 3890
healthier 3890
Rep@@ 3888
odor 3888
bers 3887
producer 3887
tations 3887
surely 3886
buds 3885
HP 3884
nicotine 3884
Hel@@ 3883
gross 3880
preventing 3879
rough 3878
ette 3877
rotating 3877
saliva 3876
separated 3875
tens 3874
lit 3874
Fresh 3873
THAT 3871
Apps 3871
errors 3870
gambling 3870
extend 3869
Ta@@ 3868
continuous 3866
Cheap 3865
chewing 3864
faced 3863
focusing 3863
д@@ 3861
Rated 3861
5/@@ 3861
Spotify 3861
Field 3860
confusion 3860
dizzy 3860
disappear 3859
11.@@ 3859
rep@@ 3858
destruction 3858
declared 3858
dem@@ 3858
Pol@@ 3857
ban@@ 3856
actively 3856
01@@ 3854
land@@ 3854
conductor 3853
Error 3853
v. 3853
ml 3853
obtained 3852
controversy 3851
water@@ 3851
vulnerable 3851
Bel@@ 3850
installation 3848
surprising 3847
tar@@ 3847
cracking 3847
requirement 3846
consumed 3845
Fiber 3844
emotion 3844
21st 3843
Random 3838
off@@ 3837
academic 3836
hardly 3836
missed 3835
connecting 3835
Thread 3834
debts 3833
ther 3833
foundation 3833
•@@ 3831
tablets 3831
Episode 3829
tures 3829
garbage 3828
regional 3826
strain 3826
bias 3825
PL@@ 3824
hormone 3824
recession 3823
Euro 3823
SC@@ 3823
riding 3823
regime 3822
trash 3822
infrared 3822
dro@@ 3822
Andrew 3821
Illegal 3821
wins 3821
THIS 3820
colonies 3819
studied 3817
nutritional 3817
kit 3817
simultaneously 3813
Girls 3813
exit 3812
regard 3811
kin@@ 3811
54 3810
elling 3810
cube 3810
afternoon 3810
ity@@ 3809
fore@@ 3809
alert 3809
boo@@ 3808
predators 3808
astronauts 3808
PE@@ 3807
2.0 3806
optical 3805
assist 3804
NATO 3804
transparent 3803
lean 3803
por@@ 3803
Celsius 3802
new@@ 3801
﻿ 3800
URL 3800
Ko@@ 3799
grain 3799
Sky 3799
footage 3798
reserve 3798
MS@@ 3798
antenna 3798
facilities 3795
AMD 3795
qualified 3794
apartment 3792
comparing 3791
cancel 3791
ort 3791
colleges 3791
Nutrition 3790
distinguish 3790
anybody 3789
Paris 3788
ences 3785
MD 3785
bleeding 3785
Banks 3783
grab 3783
Bro@@ 3782
ere 3782
communications 3782
Arizona 3781
Wil@@ 3781
ham@@ 3779
twenty 3776
mucus 3776
sheets 3775
Finance 3774
Tim@@ 3774
duration 3772
Scientific 3772
Ohio 3770
wavelengths 3769
borders 3768
flexible 3767
ou 3765
hel@@ 3764
officially 3763
Uber 3763
User 3762
Valley 3762
DNS 3761
fur 3761
approval 3759
nitrogen 3759
figured 3755
combustion 3754
spelling 3754
Hillary 3753
stra@@ 3753
wn 3752
firms 3751
tru@@ 3751
FO@@ 3750
ological 3750
fication 3749
Furthermore 3749
ingredient 3749
louder 3749
dle 3748
ridiculous 3747
fighter 3747
folder 3746
lam@@ 3746
tricks 3745
,,,,@@ 3745
Hong 3744
TA 3744
tomorrow 3743
key@@ 3741
empire 3741
shelf 3741
Ed@@ 3740
feeding 3740
missiles 3740
Europeans 3739
Diagram 3739
Ear@@ 3739
ruling 3737
SSD 3737
dot 3737
plan@@ 3736
pants 3734
Cool 3733
bon@@ 3733
Ok 3733
expenses 3733
sections 3732
RA@@ 3732
Ki@@ 3732
racism 3731
asteroid 3731
у@@ 3730
mainstream 3729
zi@@ 3728
Pu@@ 3728
Silver 3727
Bon@@ 3726
Exercise 3726
Close 3725
lip 3725
conversion 3725
yours 3725
ening 3725
hosting 3725
ish@@ 3724
Insider 3723
mag@@ 3721
cans 3720
CE 3719
fits 3718
и 3718
kidney 3718
receives 3717
hoping 3714
accessible 3714
Lightning 3714
transferred 3713
Fly 3713
Noise 3710
Philosophy 3709
Ba@@ 3708
Steel 3708
Eventually 3707
net@@ 3707
Dream 3707
ous@@ 3707
Coast 3706
arrive 3705
10/@@ 3704
county 3704
Director 3704
thr@@ 3704
Microwave 3702
rank 3702
flame 3701
welfare 3700
slide 3700
Complete 3699
56@@ 3699
Gal@@ 3699
poison 3699
funded 3695
Cons 3694
Str@@ 3693
tones 3693
dropping 3692
handling 3692
rush 3690
tuition 3689
crap 3688
time@@ 3687
Artificial 3687
regulated 3686
globe 3686
molecular 3686
sticks 3685
ie@@ 3685
Far@@ 3684
inal 3682
portable 3682
bulbs 3681
displayed 3681
ada 3681
Quotes 3681
leak 3681
donate 3680
depressed 3680
maintaining 3679
oning 3679
aring 3678
Dra@@ 3678
77@@ 3677
flowers 3676
Perfect 3675
lar@@ 3674
Electrical 3672
SO 3671
penny 3670
gained 3670
lin 3668
Days 3665
fri@@ 3665
retirement 3664
matic 3663
samples 3663
syn@@ 3663
incident 3662
stones 3660
Fahrenheit 3658
kinda 3657
but@@ 3657
interpretation 3656
eli@@ 3655
п@@ 3654
mystery 3654
Breaking 3654
telescope 3654
е 3653
dairy 3652
bites 3651
displays 3650
sleepy 3650
randomly 3649
nor@@ 3649
Dar@@ 3649
ops 3647
Description 3647
evenly 3647
speci@@ 3646
3/@@ 3644
Pet@@ 3644
Religion 3644
len@@ 3644
Friends 3643
89 3643
let@@ 3642
scales 3642
cognitive 3640
gears 3640
swelling 3640
pairs 3640
Written 3639
bi 3639
--@@ 3638
diversity 3636
association 3635
Cream 3634
guidelines 3634
enabled 3634
Process 3633
cow 3633
wipe 3632
mini 3631
Asked 3629
dictionary 3629
Criminal 3628
day@@ 3627
besides 3627
toys 3626
inspired 3625
WWII 3624
variation 3624
Morning 3623
Fuel 3623
granted 3622
foam 3622
glucose 3622
circular 3621
Touch 3620
Server 3619
fucking 3619
Gaming 3618
breeding 3618
Text 3617
Front 3616
UL@@ 3616
installing 3615
threats 3614
Committee 3614
9/11 3613
blurry 3613
moderate 3613
utility 3611
pin@@ 3610
glow 3610
implications 3606
dial 3606
youth 3605
burst 3605
ani 3604
Cro@@ 3603
MP3 3603
tract 3603
Switch 3602
zes 3602
Style 3601
Entertainment 3600
Solid 3600
enormous 3600
extinct 3600
vomiting 3600
useless 3599
counts 3599
Bed 3599
Form 3598
dia 3598
Romney 3598
Play@@ 3598
Rather 3597
airline 3597
Islands 3597
wider 3596
pose 3596
Info 3595
strip 3594
NY 3594
deeply 3593
Ham@@ 3593
homeless 3593
Explorer 3593
belong 3592
jack 3592
celebrities 3592
uck 3592
minority 3591
variables 3590
consistently 3589
Physical 3588
Advanced 3588
reveal 3588
whilst 3587
Cash 3585
ethnic 3584
grammar 3584
lbs 3583
salty 3583
Sounds 3582
recipes 3582
popping 3582
ti 3582
forest 3582
productive 3581
Pre 3581
Meaning 3581
precisely 3580
opposition 3580
Final 3580
conference 3580
joined 3579
90% 3579
translation 3578
lol 3577
strings 3577
neuro@@ 3575
any@@ 3574
W. 3573
Advice 3573
treating 3573
reset 3573
District 3572
debris 3572
ek 3571
jaw 3571
hat 3570
Holy 3570
ae 3570
istic 3569
Tue 3569
Currently 3569
crowd 3568
Race 3568
ruled 3568
Issues 3567
senior 3567
fu@@ 3567
ü@@ 3567
filed 3567
outlets 3567
Tor@@ 3566
Discover 3564
ining 3564
Revolution 3564
les@@ 3564
dishes 3563
Iron 3562
Sen@@ 3562
cleaner 3560
dent 3557
ric 3556
Anyway 3555
importantly 3554
Wake 3554
Tu@@ 3553
rubbing 3553
partially 3553
pper 3553
eth@@ 3551
​@@ 3550
fitness 3548
92 3548
retain 3546
","@@ 3546
spirit 3545
missions 3543
Swiss 3543
inflammation 3543
Crime 3542
mel@@ 3542
Kill 3542
eling 3541
PC@@ 3541
86 3540
assigned 3540
detected 3540
ished 3539
ulation 3539
set@@ 3539
je@@ 3538
Francisco 3538
Hate 3537
cows 3537
dryer 3537
measurements 3536
700 3535
opens 3535
pressing 3535
subjects 3534
Na@@ 3534
monetary 3533
Especially 3533
illusion 3533
Cy@@ 3533
injection 3533
bio@@ 3532
fails 3531
eds 3531
pace 3530
journal 3530
disagree 3528
spider 3527
cop@@ 3526
shops 3526
4-@@ 3526
Cra@@ 3526
VE 3525
digest 3525
shampoo 3524
architecture 3524
discount 3523
poisoning 3521
cou@@ 3520
ox@@ 3520
mil@@ 3520
Ren@@ 3519
convicted 3518
bee 3518
horror 3517
Official 3516
platforms 3516
53 3516
lake 3516
Wine 3516
Options 3515
Plants 3515
cont@@ 3515
Syndrome 3514
crystal 3513
xi@@ 3512
sor@@ 3512
atory 3508
filters 3508
extract 3508
Del@@ 3507
investments 3507
88 3507
inate 3506
quicker 3506
ank@@ 3506
contacts 3505
android 3504
mask 3504
hopefully 3502
ements 3502
62 3500
profitable 3499
CI@@ 3499
cas@@ 3498
tables 3498
allies 3497
winner 3497
67 3496
Song 3496
zo@@ 3495
musicians 3494
68 3494
micro 3494
FPS 3494
protecting 3493
SI@@ 3493
59 3493
sin@@ 3493
apples 3492
IL 3492
Wood 3491
87 3491
distinction 3491
Hydrogen 3491
lid 3490
carries 3489
containers 3487
Storage 3487
del 3487
Wire 3486
happiness 3486
Die 3486
lasting 3485
Nazi 3485
ps@@ 3484
5-@@ 3484
medicines 3484
associate 3483
controller 3483
Chi@@ 3483
piano 3483
Gay 3482
IG@@ 3482
Pa@@ 3482
moons 3481
Tech@@ 3480
Agency 3480
Ram@@ 3478
pointing 3477
examine 3476
lasts 3476
bel@@ 3475
She@@ 3475
rose 3473
Boo@@ 3472
Loan 3472
2.5 3472
ater 3472
alizing 3470
disabled 3469
ide 3469
blocking 3469
uni@@ 3468
attraction 3467
Vo@@ 3467
Cover 3464
Kitchen 3464
clip 3463
transportation 3462
invention 3461
Available 3460
one@@ 3459
eter 3459
ongoing 3458
educational 3458
minister 3457
Guy 3456
lethal 3456
Wild 3456
Objects 3453
°C 3453
Fruit 3452
Besides 3451
protest 3451
spec@@ 3450
regulate 3450
hard@@ 3449
fission 3449
newer 3449
laid 3448
NEW 3447
Liquid 3447
zones 3447
sexually 3447
Soda 3447
solved 3445
Mail 3445
beard 3445
News@@ 3443
AIDS 3443
Higher 3441
Tro@@ 3441
radius 3441
tanks 3440
Tools 3440
desk 3440
Adobe 3440
defendant 3439
Fri 3439
smallest 3439
dar@@ 3438
Happen 3438
Meat 3438
boot 3437
environments 3437
arrow 3437
MY 3437
ame 3436
flush 3434
aking 3433
abilities 3433
3d 3433
Until 3432
Thu 3432
transmit 3430
civilization 3429
Visit 3428
interior 3428
nasal 3428
soci@@ 3427
reg@@ 3427
whales 3427
desert 3426
URL_6 3426
IA 3426
sty 3425
Maximum 3425
engineer 3424
employed 3423
limitations 3423
Attack 3422
Cas@@ 3421
Arts 3421
Puerto 3421
Pur@@ 3420
Bluetooth 3420
93 3420
Similarly 3418
hol@@ 3417
Switzerland 3416
killer 3416
gers 3415
ast 3415
hunt 3415
San@@ 3414
Capital 3413
visiting 3413
consideration 3413
stressed 3413
alien 3413
jumping 3412
Minecraft 3411
citizenship 3410
Max 3409
Increase 3409
Record 3408
Fantasy 3408
cotton 3407
fire@@ 3407
notion 3406
XP 3405
exp@@ 3405
gains 3404
proved 3404
Ger@@ 3404
ea 3404
hockey 3403
Olympics 3403
strict 3402
Soap 3402
stability 3402
carbs 3402
rural 3401
ini 3401
zip 3400
Pingback 3400
approaches 3400
gri@@ 3400
broadband 3399
Burn 3398
Rule 3397
assumed 3396
alternatives 3395
improving 3394
Manager 3393
pad 3393
art@@ 3392
targets 3392
influenced 3390
Several 3389
array 3388
guaranteed 3388
Sweden 3388
57 3388
courses 3388
Psychology 3387
Helpful 3386
Healthcare 3386
explanations 3385
Mary 3385
fold 3384
Ha@@ 3383
Rates 3383
wedding 3383
ades 3382
van 3382
diamond 3382
steady 3381
MA@@ 3380
FL@@ 3379
earned 3379
Sales 3378
py 3378
mature 3377
sensors 3377
mad 3376
Send 3376
struck 3374
determining 3374
hybrid 3374
pepper 3374
1997 3372
diverse 3372
FR@@ 3371
Gen@@ 3371
participate 3370
Cu@@ 3370
Hence 3370
badly 3369
ising 3369
mac@@ 3369
column 3368
exploration 3367
grades 3367
Clear 3367
immunity 3366
silly 3366
Pirate 3366
bacterial 3366
Links 3365
Cross 3365
น@@ 3365
ga 3364
Names 3364
foil 3364
ich@@ 3363
voter 3363
farmers 3362
Medicare 3361
5,@@ 3361
Professor 3361
Login 3361
GHz 3360
monitors 3359
Beyond 3358
Organic 3358
waters 3358
accounting 3358
massage 3358
shi@@ 3357
Fu@@ 3357
peanut 3357
reflects 3356
eligible 3356
worlds 3356
ken@@ 3355
Fitness 3355
ora 3355
mechanisms 3355
pun@@ 3355
90@@ 3354
Whenever 3353
hospitals 3353
spam 3353
CNN 3353
screw 3352
Vis@@ 3352
58 3352
typing 3351
Hawking 3350
Colors 3350
threatening 3349
beats 3348
bail 3348
Labor 3347
edition 3347
trap 3346
--- 3346
favourite 3346
dge 3345
british 3345
accidentally 3344
sue 3344
absence 3343
El 3342
worn 3342
Century 3341
Straight 3341
authors 3340
honestly 3340
ep 3340
diarrhea 3339
firing 3339
ATE 3338
steal 3338
Square 3338
exhaust 3337
switches 3337
conditioning 3337
ENT 3336
Chemical 3336
GE 3334
Power@@ 3334
` 3334
refugees 3332
Doctors 3332
Dutch 3331
challenging 3330
deserve 3330
efficiently 3329
trauma 3329
decreases 3328
Tim 3327
CE@@ 3326
¶ 3326
browsing 3325
hypo@@ 3325
nit@@ 3325
def@@ 3324
96 3323
hackers 3323
hood 3323
Olympic 3323
improvement 3322
recycling 3322
mold 3321
Classic 3320
Beach 3320
Mother 3320
analog 3320
hanging 3319
trapped 3319
pul@@ 3317
ani@@ 3317
Bathroom 3316
malware 3316
ong@@ 3316
pricing 3316
Anxiety 3316
sensitivity 3315
tilt 3314
awful 3313
headed 3312
enhance 3312
terrorists 3311
sn@@ 3311
affecting 3311
Person 3311
airlines 3311
Moving 3310
Photography 3310
61 3309
impacts 3308
partial 3308
radi@@ 3308
911 3307
Flat 3307
EST 3306
enjoyed 3306
din@@ 3306
receiver 3306
varying 3305
Either 3305
stationary 3304
algorithms 3303
suggestions 3303
forcing 3302
arts 3302
steering 3302
founded 3301
Premium 3300
equipped 3300
fi 3300
Dep@@ 3299
separation 3299
plugs 3299
overnight 3299
nights 3297
ici@@ 3296
ji 3296
beans 3296
bo 3296
Archive 3295
fatigue 3295
tiv@@ 3294
definitions 3293
chill 3293
ram 3293
sour 3292
repeated 3291
Mus@@ 3291
Events 3290
FA@@ 3290
teens 3289
Academic 3289
Release 3289
transplant 3289
nausea 3288
Return 3287
Singapore 3287
fantasy 3287
coma 3287
industries 3285
mas@@ 3285
:45 3285
Letter 3285
tin@@ 3285
replies 3284
trends 3284
SM@@ 3284
tubes 3283
infinity 3283
weights 3283
eve 3282
translate 3282
Kin@@ 3281
Pet 3281
congress 3280
ä@@ 3280
Performance 3279
sticky 3279
laying 3278
pyramid 3278
credits 3278
tutorial 3278
Tel@@ 3277
addicted 3277
noticeable 3277
pop@@ 3275
yard 3274
chy 3273
antibiotic 3273
Mbps 3272
refrigerator 3272
peoples 3271
gener@@ 3271
Sar@@ 3270
abstract 3270
Columbia 3270
Georgia 3270
GO@@ 3270
Virus 3270
losses 3269
fascinating 3269
7/@@ 3269
power@@ 3268
bid 3268
captured 3267
nie 3267
Therapy 3267
outdoor 3267
fr@@ 3266
dist@@ 3266
Guest 3265
hook 3265
incorrect 3265
Zone 3265
Pat@@ 3265
ffs 3265
Executive 3264
ICE 3263
brushing 3263
Taiwan 3262
ili@@ 3262
extinction 3261
addictive 3261
mic 3261
>@@ 3261
yp@@ 3260
bil@@ 3260
continuing 3260
CH 3260
editor 3260
winds 3260
seal 3259
":"@@ 3259
pilots 3259
possession 3258
Israeli 3257
Sexual 3257
airplanes 3257
Guitar 3256
knees 3256
straw 3256
Parts 3255
exceptions 3255
purchases 3254
Notes 3254
Acid 3254
wor@@ 3253
bor@@ 3251
Back@@ 3251
uranium 3250
chess 3250
capabilities 3249
rhythm 3249
curved 3248
coat 3248
oldest 3247
ston 3246
Ron 3246
lig@@ 3246
Santa 3245
Sy@@ 3245
variations 3245
releasing 3245
eclipse 3245
100,000 3244
Unit 3244
Estate 3244
ben@@ 3244
Cheese 3244
Dreams 3243
blank 3243
Sell 3242
bedroom 3242
Anything 3240
mint 3239
lawsuit 3239
struggling 3238
TH 3238
Ear 3238
iTunes 3237
twin 3236
Typically 3236
technological 3236
heater 3236
NP 3236
spine 3236
widespread 3235
amps 3235
holder 3233
Fight 3233
:02 3232
switching 3231
birthday 3231
comprehensive 3230
mountains 3230
boring 3229
towers 3229
son@@ 3228
bot@@ 3228
suits 3228
earthquake 3228
integrated 3227
Higgs 3227
Ben 3226
yer 3226
91 3225
carriers 3225
lazy 3225
Mirror 3225
Warm 3225
tionally 3224
Tree 3224
play@@ 3224
spoke 3223
Regular 3223
dos 3222
Amazing 3222
Cook 3222
Trust 3221
Multiple 3221
bury 3220
karma 3220
triggers 3218
significance 3217
subreddits 3217
decimal 3217
combinations 3216
ron@@ 3216
lia 3216
uck@@ 3215
dots 3215
Songs 3215
Soft 3214
european 3213
Emergency 3213
Fo@@ 3213
abroad 3211
Vote 3211
district 3211
Laptop 3211
butt 3211
chords 3211
extensive 3210
implement 3209
fought 3209
sanctions 3208
63 3208
deny 3208
oring 3208
exam 3208
comic 3207
1-@@ 3207
Q&A 3206
Per 3206
autism 3206
87@@ 3205
Address 3205
patch 3204
11/@@ 3203
Member 3202
facility 3202
Gear 3202
Hand@@ 3201
Dental 3201
introduce 3200
hop 3200
crashes 3200
publicly 3199
Jim 3198
lot@@ 3198
behave 3197
centers 3197
toothpaste 3197
kar@@ 3196
F. 3194
discomfort 3194
ye 3193
lessons 3193
6% 3193
BS 3192
weekly 3192
3.5 3192
reputation 3191
du 3191
serial 3191
modem 3191
Subject 3190
fantastic 3190
vel@@ 3189
La 3188
interactions 3188
claiming 3188
appetite 3188
observer 3188
Move 3186
width 3186
Manual 3186
fifth 3186
ins@@ 3186
arrived 3186
32@@ 3185
educated 3185
Poly@@ 3185
borrow 3184
Ryan 3184
ethics 3184
wiring 3184
synthetic 3184
fil@@ 3183
oriented 3183
wired 3183
unconscious 3183
acted 3182
bot 3181
encounter 3181
viral 3181
dried 3181
Electoral 3180
tattoo 3180
rockets 3179
Batteries 3179
reproduction 3179
heroin 3177
writes 3176
genetics 3176
Reason 3175
yr@@ 3175
atmospheric 3175
8/@@ 3173
fancy 3173
restricted 3173
targeted 3172
AU@@ 3172
theft 3172
woke 3172
Academy 3171
Virtual 3171
ected 3171
low@@ 3170
Features 3170
controlling 3168
bulk 3168
homework 3168
jar 3168
entity 3167
grand 3166
theoretical 3165
Woman 3165
ringing 3165
Version 3164
WITH 3164
alike 3163
illnesses 3163
ena 3163
instances 3162
hacking 3162
Register 3162
slows 3162
grip 3162
obesity 3162
spiritual 3161
packages 3160
yl 3160
guard 3159
Airlines 3159
findings 3158
ula 3158
Worth 3157
Surgery 3157
toy 3156
economies 3154
timing 3154
helicopter 3153
french 3153
renewable 3153
dumb 3153
ects 3152
bin@@ 3151
bitter 3150
submit 3150
observation 3150
dive 3150
Must 3150
theater 3149
shirts 3148
dopamine 3148
casino 3147
Chocolate 3147
remained 3146
Reality 3146
Staff 3145
pes 3145
:05 3144
L. 3144
robot 3144
activated 3142
pay@@ 3142
invisible 3142
&apos;s 3141
judges 3141
slavery 3141
uniform 3140
stack 3140
encrypted 3139
confirm 3139
Harry 3139
euro 3139
Impact 3137
relieve 3137
chinese 3136
ph 3136
VR 3136
ll@@ 3135
ram@@ 3134
brightness 3134
attempting 3132
real@@ 3132
kins 3132
UP 3132
dramatic 3132
lab@@ 3131
TER 3131
Hold 3131
assumption 3130
developer 3130
Parliament 3130
Gallery 3129
makeup 3128
clinical 3128
GR@@ 3128
quantities 3127
tom@@ 3127
Pack 3126
att@@ 3125
prescribed 3125
Creative 3124
adapt 3123
Fun@@ 3121
Application 3121
freely 3121
Diesel 3121
breeds 3121
origins 3120
Ag@@ 3120
orientation 3119
pasta 3119
GO 3118
Atomic 3118
:03 3117
ions 3117
entropy 3117
attempted 3115
worms 3115
intellectual 3114
poll 3114
cle@@ 3113
Solutions 3113
:40 3113
Attorney 3112
Bul@@ 3109
Magnetic 3109
tively 3109
Brand 3109
rivers 3109
ABC 3107
nowhere 3107
priority 3107
settle 3107
emp@@ 3106
Baseball 3106
н@@ 3105
ush@@ 3105
ce@@ 3105
fellow 3104
substantial 3102
NOW 3102
tendency 3102
toxins 3102
г@@ 3100
needle 3099
Socialism 3099
rows 3099
formats 3099
damages 3098
masses 3098
restore 3098
Stress 3098
presentation 3096
Bor@@ 3096
mod@@ 3095
limbs 3095
A.@@ 3094
Mul@@ 3094
roman 3094
lately 3093
ze@@ 3093
regards 3092
far@@ 3092
weaker 3092
divorce 3090
Mercury 3090
protests 3089
darkness 3088
shine 3087
luxury 3087
graduate 3086
downloaded 3085
entitled 3085
Snow 3085
fibers 3085
ore@@ 3084
Ken@@ 3084
Notice 3083
Duration 3083
Hill 3081
None 3080
insight 3080
cops 3079
dislike 3077
bol@@ 3077
minimal 3077
progressive 3076
Dig@@ 3075
knock 3075
OU@@ 3074
concerning 3073
hill 3073
69 3073
Toilet 3073
tides 3072
socially 3071
proud 3071
alter 3070
paralysis 3068
Ven@@ 3068
Secretary 3067
span 3066
Multi 3065
triangle 3064
reactor 3064
BE 3063
Express 3063
All@@ 3063
Affordable 3062
Nose 3062
6th 3061
sync 3061
Mountain 3061
dentist 3061
Languages 3060
Green@@ 3060
Whatever 3059
Sc@@ 3059
Birth 3059
lemon 3059
rainbow 3059
720p 3059
impression 3058
:55 3058
12/@@ 3057
BL@@ 3056
Volume 3055
5,000 3054
criteria 3054
unfortunately 3054
Mode 3053
sto@@ 3053
IF 3052
Squ@@ 3052
vaccines 3052
tab 3051
Top@@ 3051
reward 3050
ened 3049
mice 3048
digit 3047
Prevent 3047
behaviors 3046
sat 3045
aming 3045
Prince 3045
age@@ 3044
Schools 3044
Ball 3042
84 3042
flu@@ 3042
analogy 3041
amp@@ 3041
pencil 3041
golden 3041
yield 3040
API 3040
Sto@@ 3040
dig 3040
97 3039
Wo 3038
requiring 3037
:35 3037
furniture 3036
dig@@ 3036
ala 3036
equator 3036
PA@@ 3035
4/@@ 3035
tunnel 3034
'S 3034
specialized 3034
Co 3034
("@@ 3034
Feeling 3034
mosquito 3034
packed 3034
anism 3033
ith 3033
popcorn 3033
Within 3032
essay@@ 3032
tier 3032
:31 3031
License 3031
ables 3031
margin 3031
Walmart 3031
Television 3030
REM 3030
33@@ 3029
tour 3029
violation 3029
viable 3026
Beauty 3026
pos@@ 3025
grounds 3025
glue 3025
Por@@ 3025
remedies 3025
neighborhood 3024
boom 3024
ST 3023
UC@@ 3022
Growth 3022
discussing 3021
Among 3021
pins 3021
Detroit 3021
bears 3021
).@@ 3020
Auto@@ 3020
:32 3019
Tar@@ 3019
uk@@ 3019
ologist 3019
ounce 3019
calculations 3018
simplest 3018
replacing 3018
dramatically 3018
GOP 3017
Recently 3017
longest 3017
Risk 3015
Eggs 3014
Plant 3012
oms 3012
Hawaii 3011
Says 3011
TE 3010
solving 3010
Mini 3010
equity 3009
relaxed 3009
fies 3009
explode 3009
conditioner 3008
person@@ 3008
smartphones 3008
estimates 3007
Stories 3007
�@@ 3007
Bar 3007
raises 3006
damaging 3006
eg 3006
genre 3006
Fil@@ 3005
Mas@@ 3005
Tre@@ 3005
pork 3005
doc@@ 3004
packaging 3004
confident 3003
possibilities 3003
laughing 3003
ser 3002
dev@@ 3002
Steps 3002
crops 3002
Sem@@ 3002
purely 3001
90s 3001
witness 3000
aks 3000
Property 3000
Experience 2998
preference 2997
Fear 2997
BA 2996
boats 2996
Lev@@ 2996
mp@@ 2995
knuckles 2995
LES 2994
underneath 2994
add@@ 2994
attitude 2994
chamber 2994
к@@ 2993
\/@@ 2993
camp 2992
freezes 2991
lucid 2990
Tip 2990
newly 2987
interpret 2987
ö@@ 2987
kinetic 2987
Wear 2985
Practice 2984
carbonated 2984
invasion 2983
ll 2982
110 2982
Hyper@@ 2981
biting 2981
bases 2981
Water@@ 2981
Garden 2980
repeatedly 2979
bly 2979
Daniel 2978
HTML 2978
cores 2978
spo@@ 2977
PER@@ 2977
Barack 2977
:06 2977
tense 2977
Normal 2977
functionality 2976
Cure 2976
scam 2975
ry@@ 2974
visitors 2974
overseas 2973
aling 2972
ethical 2971
Oregon 2971
chord 2971
vis@@ 2971
monopoly 2971
implemented 2970
accelerate 2970
sake 2969
Grade 2969
reviewed 2969
mp3 2969
pulse 2968
Crash 2967
Pop@@ 2967
pon@@ 2967
120@@ 2967
Comm@@ 2966
hash 2966
imp@@ 2966
Lots 2966
dness 2966
han 2966
gym 2965
participants 2963
1996 2963
poorly 2962
ately 2961
Million 2961
acking 2961
cylinder 2960
:07 2960
Sky@@ 2960
imagination 2960
Lisa 2959
:33 2959
tails 2959
Assad 2959
Lyrics 2958
chromosomes 2957
ja 2956
Lower 2956
Automatic 2955
bottled 2955
Recent 2954
banana 2954
ake 2954
:01 2953
Fashion 2953
Visa 2953
solely 2952
trait 2952
-2 2952
suffered 2951
Graphics 2951
photo@@ 2951
Phones 2951
elevator 2951
founder 2950
:09 2949
Adult 2949
TER@@ 2949
Las 2949
Moreover 2948
greenhouse 2947
slot 2947
Wrong 2946
tering 2946
Honey 2946
:34 2945
ri 2945
:04 2945
induced 2945
Gift 2944
Reg@@ 2944
G. 2944
switched 2943
adapter 2943
CC@@ 2943
cookie 2942
Hearing 2942
Hall 2941
tra 2941
:58 2941
Collection 2940
ene 2940
Rico 2940
fun@@ 2939
vol@@ 2939
McDonald 2937
magnitude 2937
withdrawal 2937
Chemistry 2936
PP@@ 2936
Ground 2936
glands 2936
optimal 2935
Gro@@ 2935
blend 2934
Crack 2934
intent 2933
protective 2933
kidneys 2933
​ 2932
continuously 2932
conservation 2932
petrol 2932
calcium 2931
Industrial 2930
seller 2930
Mom 2930
oma 2930
:59 2930
GM 2929
Finding 2928
bonus 2928
canada 2928
drum 2928
swear 2927
ave 2927
matting 2927
sells 2926
blanket 2926
Fair 2926
sugars 2926
Wiring 2923
cloth 2923
aps 2923
Sim@@ 2923
gro@@ 2923
pronunciation 2922
laptops 2922
Places 2921
reflex 2921
Boy 2920
CAN 2920
ko@@ 2920
staring 2920
P. 2919
argued 2918
crude 2918
iling 2917
:57 2917
stretching 2917
wounds 2917
brakes 2917
engaged 2916
europe 2916
:36 2915
discharge 2915
Bugs 2915
imaginary 2914
programmed 2914
Alaska 2913
stein 2913
slip 2913
marine 2913
Listen 2912
fiscal 2912
gods 2912
syrup 2912
Brian 2911
:51 2911
glad 2911
� 2911
demonstrate 2911
Fan 2911
500@@ 2911
mic@@ 2909
Further 2909
:49 2908
gel 2907
japan 2907
Certain 2907
Jet 2907
Palestine 2906
apes 2906
Frank 2906
sensory 2906
ought 2905
compensation 2904
Bomb 2903
representative 2902
DIS@@ 2902
ga@@ 2902
Hy@@ 2902
valve 2902
storms 2902
Holocaust 2901
acquire 2901
couples 2901
ret@@ 2901
generating 2900
Created 2900
diving 2900
Ten@@ 2898
CS@@ 2898
ulated 2898
adi@@ 2898
celebrity 2898
robots 2898
lers 2897
sued 2897
CL@@ 2896
asthma 2896
pedal 2895
Protein 2895
Nobody 2894
maintained 2894
trac@@ 2894
vacation 2893
TB 2893
permanently 2892
Dev@@ 2892
Commons 2891
:48 2891
Waves 2891
pic@@ 2890
Elizabeth 2890
towel 2889
motivation 2888
sweating 2888
attacked 2887
los 2887
islands 2887
Cookies 2886
heading 2886
Following 2886
diamonds 2886
Arabic 2886
forgotten 2885
prominent 2885
Leg@@ 2884
wooden 2884
threads 2883
accomplish 2882
blast 2882
buses 2881
lining 2880
VE@@ 2880
Telescope 2879
WE 2879
Six 2878
protects 2877
bumps 2877
val 2877
font 2876
qualities 2875
opponent 2875
AGE 2875
dozen 2875
numb 2875
Disorder 2875
Stuff 2874
:08 2873
antly 2873
PS4 2873
configuration 2873
Lim@@ 2873
Machines 2872
gie 2872
Primary 2872
insulin 2872
bleed 2871
asset 2870
Shar@@ 2870
get@@ 2870
:52 2869
cer@@ 2869
Firefox 2869
80% 2868
peer 2868
Loc@@ 2868
ender 2868
reserves 2868
possess 2868
subscribe 2868
€ 2868
ez 2867
blown 2867
diagnosis 2867
beverage 2867
worthy 2866
:41 2866
sh 2866
wind@@ 2865
pulls 2864
AY 2864
presents 2864
gather 2864
nowadays 2863
trace 2863
Stone 2863
DDoS 2863
pers 2863
sec 2862
scratching 2862
anonymous 2861
PH@@ 2861
kie 2861
Bell 2860
Permalink 2859
Hom@@ 2859
washed 2857
construct 2857
generates 2856
adopt 2856
Drinks 2856
Fact 2855
Possible 2854
societies 2853
Marriage 2853
Month 2853
ides 2853
Pick 2852
nut 2852
cart 2851
logy 2850
1995 2850
excuse 2850
med@@ 2850
Biology 2850
Ten 2850
expanded 2850
tered 2849
defines 2848
rage 2847
utter 2847
:46 2847
serotonin 2846
6/@@ 2846
stu@@ 2845
”@@ 2845
dozens 2844
Loans 2844
expectations 2843
socialist 2843
gn@@ 2843
p.m. 2843
Chief 2843
resulted 2843
Had 2842
eting 2842
Kevin 2841
demands 2841
Playing 2841
smarter 2841
cut@@ 2840
jokes 2840
monitoring 2840
Marvel 2840
RE 2839
CGI 2839
80s 2839
82 2839
Med@@ 2838
paradox 2837
protocol 2837
landscape 2837
run@@ 2837
coding 2836
Glasses 2836
70@@ 2836
light@@ 2836
lic@@ 2836
sealed 2836
soup 2836
enables 2835
Eric 2835
Clo@@ 2835
tide 2834
Rain 2834
ures 2833
tran@@ 2833
ITY 2833
inger 2830
:43 2829
7th 2829
Peace 2829
login 2829
emit 2828
failing 2828
:44 2828
Enjoy 2828
lottery 2827
expense 2827
implies 2827
girlfriend 2827
:37 2827
MP 2827
liability 2827
Encyclopedia 2826
sman 2826
dam@@ 2825
capability 2825
Minimum 2824
nar@@ 2824
fatal 2824
Sam 2824
chew 2824
convenience 2823
:47 2822
bounce 2822
ei@@ 2821
justify 2821
Mortgage 2821
vibrations 2821
check@@ 2820
Inflation 2820
fle@@ 2820
Ci@@ 2819
Fund 2819
alot 2819
bored 2819
wheat 2818
impressive 2818
:42 2817
ero@@ 2817
aliens 2816
bet@@ 2816
Neutrality 2815
sum@@ 2814
lesser 2814
backup 2814
corrupt 2813
Fake 2813
Rem@@ 2812
spreading 2812
isolated 2812
TY 2811
FOR@@ 2811
stro@@ 2811
chains 2810
Joseph 2810
burden 2809
IE 2809
qualify 2809
81 2809
japanese 2809
alities 2807
adjusted 2807
:53 2807
hero 2806
fur@@ 2806
Planets 2806
Apply 2805
Gender 2805
committee 2804
NYC 2804
Base 2803
subscription 2803
Sanders 2802
upcoming 2802
triggered 2802
SpaceX 2802
indicator 2801
wal@@ 2801
180 2800
:39 2800
8% 2798
specified 2798
sits 2798
76 2797
unnecessary 2797
documentary 2797
streams 2797
tornado 2797
:56 2796
Heavy 2796
Netherlands 2796
ugly 2796
ious 2795
:54 2795
Lin@@ 2795
bell 2795
Degree 2793
aching 2793
Astronomy 2793
Indeed 2793
steak 2791
Advantages 2790
Ring 2789
donor 2789
deb@@ 2788
Electronics 2787
Soccer 2787
Mad@@ 2787
Overview 2786
submitted 2786
scal@@ 2786
featured 2786
vinyl 2785
buyers 2785
gaining 2785
breasts 2785
Comparison 2784
operated 2780
gently 2779
respectively 2779
fighters 2779
microwaves 2779
burg 2779
auto@@ 2778
tus 2777
34@@ 2776
ills 2776
observations 2776
mol@@ 2776
mutations 2775
Wa@@ 2775
visited 2773
cos@@ 2773
cro@@ 2773
climb 2772
carbohydrates 2772
Cities 2772
temporarily 2771
references 2771
precious 2771
crust 2771
unlock 2770
row@@ 2770
qui@@ 2769
equality 2769
Found 2769
read@@ 2768
lanes 2768
trailer 2768
golf 2768
Pink 2768
Hal@@ 2767
ulate 2767
gluten 2767
Sat 2767
walked 2767
supplement 2767
runny 2767
picks 2766
Beautiful 2766
inequality 2764
execution 2764
punch 2764
dor@@ 2764
sof@@ 2763
Bridge 2763
van@@ 2763
sis 2762
activate 2761
legalization 2761
resume 2761
certified 2761
sidebar 2760
Ka@@ 2760
liquor 2760
:38 2759
iphone 2759
Corporation 2758
signing 2758
Rating 2758
13.@@ 2758
Net@@ 2758
locate 2758
surrounded 2757
describing 2757
25% 2756
Relationship 2755
Char@@ 2755
HDMI 2755
innovation 2755
competing 2754
Smoke 2754
verify 2753
Domain 2753
satisfied 2753
HI@@ 2752
requests 2752
AK@@ 2751
ashes 2751
pet@@ 2751
Rich 2750
sen 2750
lip@@ 2749
partly 2749
trials 2749
Famous 2748
Soci@@ 2748
collision 2748
snakes 2748
ION 2747
eBay 2747
assembly 2746
proportion 2746
toilets 2746
IRA 2745
simpler 2745
Whole 2745
registration 2744
dom@@ 2744
83 2744
nic@@ 2744
intervention 2743
Taxes 2743
Door 2743
touched 2742
.com 2742
effectiveness 2742
preserve 2741
attend 2740
Message 2740
circuits 2739
strategic 2738
Growing 2738
equals 2738
HAVE 2738
focuses 2737
newspaper 2736
saturated 2736
directors 2736
flood 2736
amongst 2735
pains 2735
CS 2735
Editor 2735
verb 2734
licensed 2734
chromosome 2734
aids 2733
complexity 2733
rail 2732
Op@@ 2732
flour 2732
litter 2732
manually 2731
subtle 2731
slowing 2731
roc@@ 2731
yn 2731
Illinois 2730
Cells 2729
pile 2729
Sleeping 2729
App@@ 2727
Wait 2726
correlation 2726
Researchers 2725
shifts 2724
humor 2723
Desktop 2723
eness 2723
6,@@ 2723
medi@@ 2723
traction 2722
contributions 2720
ji@@ 2720
TA@@ 2719
bullets 2719
aters 2718
lunar 2718
pleasant 2718
agreements 2716
som@@ 2716
Battle 2715
Mount 2715
tal@@ 2714
Coming 2714
AT&T 2714
framework 2713
Dem@@ 2713
Warming 2713
Myth 2712
SEO 2711
,"@@ 2711
reads 2710
HERE 2710
:00 2710
volts 2710
offense 2710
uring 2710
manufactured 2709
lan@@ 2708
nasty 2708
proposal 2707
beta 2707
Apollo 2707
Brexit 2707
Oxygen 2707
detection 2706
singer 2706
surveillance 2705
Flu 2705
prints 2704
thrust 2704
Work@@ 2703
Satellite 2703
eyesight 2702
Debate 2701
celebrate 2701
photograph 2701
terror 2700
HD@@ 2700
predictions 2700
rolls 2699
cri@@ 2699
Protect 2699
absorbs 2699
shade 2698
ased 2697
1990 2697
symptom 2697
sty@@ 2696
ok@@ 2696
Musk 2696
Ret@@ 2695
Meg@@ 2695
cubes 2695
passage 2694
Williams 2694
illing 2694
Near 2693
Vice 2693
indicated 2693
Explained 2692
H. 2692
dic 2692
spell 2692
acquired 2691
thoroughly 2691
Doing 2691
Ali@@ 2691
skilled 2691
Relativity 2690
CT@@ 2690
Democrat 2689
joining 2689
ss 2689
snake 2689
earnings 2688
essence 2687
adequate 2687
insert 2687
ome 2686
neural 2686
Tor 2685
shifting 2684
Bio@@ 2684
reveals 2683
Stu@@ 2683
bow 2682
gun@@ 2681
opt 2680
De 2680
pit 2680
Taylor 2679
instruction 2679
Hell 2678
Rome 2678
Players 2677
geometry 2677
storing 2676
Movement 2676
si 2676
constructed 2675
Otherwise 2675
ud@@ 2675
з@@ 2674
smokers 2674
Ed 2674
pushes 2674
hated 2673
bes 2673
predicted 2673
94 2673
Been 2673
fallen 2672
Nar@@ 2672
digestion 2671
readily 2670
Alex 2670
Jong 2670
itting 2669
membership 2669
trans 2669
BU@@ 2668
Sti@@ 2668
Bit@@ 2667
exercising 2667
Sl@@ 2666
Alternative 2666
identification 2666
Connect 2665
paragraph 2665
disp@@ 2665
gates 2665
ole 2665
polls 2665
enzymes 2665
ases 2664
fs 2664
ington 2664
1994 2664
placing 2663
lb 2662
ump 2662
Grey 2662
rap@@ 2662
Aid 2661
convince 2661
^2 2660
kingdom 2660
ideology 2659
í@@ 2658
ians 2658
unk 2658
practically 2658
mandatory 2658
comedy 2658
html 2657
PS3 2657
Norway 2656
potatoes 2656
involvement 2655
scheduled 2654
dangers 2654
Down@@ 2653
Focus 2653
71 2653
cru@@ 2653
Supply 2653
Pretty 2652
beating 2652
May@@ 2652
Sec@@ 2651
vet 2651
boss 2650
labeled 2649
fried 2649
300@@ 2649
CP@@ 2649
browsers 2649
ny@@ 2649
spinal 2649
fog 2648
obese 2648
Cooking 2648
holders 2646
Consumer 2646
Kit 2646
hot@@ 2646
microphone 2645
ental 2644
Matt 2644
investigate 2644
refresh 2644
queen 2644
Easter 2644
2D 2643
Airplane 2643
ading 2642
translated 2642
handy 2642
ashed 2642
mates 2642
usa 2641
Walking 2641
crystals 2641
talent 2641
RSS 2640
Plans 2639
handful 2639
shave 2638
deposits 2638
Naturally 2638
hr 2637
350 2637
Meanwhile 2636
prof@@ 2636
viewer 2636
prisoners 2636
CD@@ 2636
yeast 2636
dat@@ 2635
VO@@ 2635
IR 2635
Judge 2635
Stocks 2634
Transfer 2634
Sm@@ 2634
ard@@ 2633
germany 2633
Indiana 2633
collective 2632
Normally 2632
Syn@@ 2632
africa 2631
radical 2631
tz 2631
mutation 2630
limb 2630
Testing 2629
Generation 2629
Clock 2629
Solution 2628
Vol@@ 2628
harsh 2628
charity 2628
ero 2628
convinced 2627
tis@@ 2627
inv@@ 2626
locking 2626
Photoshop 2626
Flo@@ 2625
ometer 2625
complain 2624
photographs 2624
mineral 2624
GU@@ 2623
forgot 2623
CO 2623
cen@@ 2623
respective 2623
Active 2622
40% 2622
Parents 2622
crossing 2621
mothers 2621
grains 2621
membrane 2620
Circuit 2620
ini@@ 2620
shoulders 2619
tropical 2619
pics 2619
dissolve 2619
ancy 2618
Treasury 2617
showers 2616
lag 2616
spy 2616
Mix 2616
exc@@ 2615
hoo@@ 2615
Negative 2615
Centre 2615
Wedding 2615
Sweet 2614
Open@@ 2613
Bacteria 2613
mounted 2613
Cameras 2613
insect 2612
IF@@ 2612
paste 2612
burnt 2612
ona 2611
meets 2611
eller 2609
T. 2609
inks 2609
Morgan 2609
avoiding 2609
temp 2609
Speech 2609
beneath 2608
shells 2608
Stand 2607
mere 2607
donation 2607
vinegar 2607
K. 2605
behalf 2605
Wheel 2605
Display 2604
deck 2604
hiring 2603
Essentially 2603
orbital 2603
susceptible 2602
colony 2602
hair@@ 2602
shaking 2601
enemies 2601
Spirit 2600
Fol@@ 2600
relates 2600
cartoon 2600
Extra 2599
Budget 2599
warrant 2599
Fowler 2598
concentrated 2597
rit@@ 2597
Added 2597
Head@@ 2597
overweight 2596
lakes 2596
tennis 2596
physician 2596
ays 2596
vegetable 2595
Members 2595
resi@@ 2595
nan@@ 2593
Lab 2593
sky@@ 2591
warfare 2591
hon@@ 2591
pH 2591
principal 2590
oph@@ 2590
herself 2589
balloons 2589
tricky 2588
Thing 2588
surprisingly 2588
concentrate 2586
criticism 2586
www 2585
transfers 2585
tick 2585
Dan 2585
Independent 2584
ranging 2584
Score 2583
pot@@ 2582
insane 2582
intentionally 2582
Away 2582
unt 2582
Multi@@ 2581
duc@@ 2580
Menu 2579
che 2579
irrational 2579
Jeff 2579
campaigns 2579
Agreement 2578
iPod 2578
Ears 2578
30% 2577
DE 2575
Off@@ 2575
Poor 2575
silence 2575
ers@@ 2574
1980 2574
buffer 2574
jets 2574
77 2573
adapted 2573
Statistics 2573
nest 2573
Cleaning 2572
whites 2572
cope 2572
Chernobyl 2572
handwriting 2572
Sil@@ 2571
strongest 2570
downloads 2570
joy 2570
Gulf 2569
Course 2569
18th 2569
connects 2569
phrases 2569
conversations 2568
DS@@ 2568
sho@@ 2568
Voyager 2568
Dam@@ 2567
theaters 2566
interfere 2566
multiply 2566
watches 2565
mi 2564
Scottish 2564
convention 2564
vomit 2564
overwhelming 2563
Toronto 2563
tal 2563
referendum 2563
bay 2562
ranges 2562
thes@@ 2562
ans@@ 2562
RNA 2562
bacon 2561
vocabulary 2561
award 2560
DOES 2560
gged 2559
sand@@ 2559
observable 2559
Changes 2558
Qaeda 2558
mem@@ 2557
ential 2557
stereo 2557
meaningful 2557
OUR 2557
Paint 2555
CA@@ 2555
parliament 2555
Production 2555
needles 2555
°F 2555
Bottle 2555
lows 2554
snap 2554
ppers 2553
1.1 2553
8th 2553
Environment 2552
Philippines 2552
theorem 2552
Van 2551
ord@@ 2551
Snapchat 2551
BUT 2549
Pin@@ 2549
automated 2549
holidays 2549
Stick 2548
ashing 2548
:4@@ 2548
dra@@ 2548
texts 2548
Background 2547
aut@@ 2547
Ep@@ 2546
packs 2546
/0@@ 2545
corresponding 2545
GA 2545
atter 2545
Investment 2544
hey 2544
collecting 2543
Basics 2543
Knowledge 2543
illegally 2543
deciding 2542
prevention 2542
meats 2542
क@@ 2541
9/@@ 2541
arise 2540
resting 2540
Health@@ 2540
Marine 2540
thunder 2539
arm@@ 2539
WW2 2539
anxious 2539
Supp@@ 2537
Sense 2536
Berlin 2536
hurting 2536
cooled 2536
vibrate 2535
Pennsylvania 2534
Wor@@ 2534
...... 2533
sophisticated 2533
Jordan 2533
เ@@ 2533
prostitution 2533
lamp 2532
peripheral 2532
restart 2532
GIF 2531
Sunni 2531
Rings 2531
Exp@@ 2530
mos@@ 2529
bat@@ 2529
Pole 2529
separately 2528
rescue 2528
clutch 2528
domesticated 2528
offices 2527
unpleasant 2527
hur@@ 2527
Ev@@ 2527
transistors 2527
characteristic 2527
trusted 2526
Apparently 2526
URL_7 2526
pa 2524
eps 2524
returning 2523
contest 2523
Feed 2523
DIY 2523
needing 2522
she@@ 2522
visa 2522
matching 2522
pockets 2520
vent 2520
ED@@ 2520
'' 2520
MAR@@ 2519
lions 2519
Lesson 2518
Nation 2518
nearest 2518
KS 2518
Issue 2518
MRI 2518
designer 2518
Mouth 2518
Aff@@ 2517
Fle@@ 2517
Interesting 2517
ration 2517
eful 2516
Recovery 2516
Programs 2516
Alan 2515
pt 2515
aci@@ 2515
discussions 2514
aster 2514
bent 2514
Det@@ 2514
า@@ 2514
testosterone 2514
Selling 2513
Mid@@ 2513
rifle 2513
acks 2512
insights 2512
hose 2512
Indonesia 2512
Bernie 2511
SA@@ 2511
Driver 2511
conf@@ 2511
concert 2510
sustainable 2510
hasn’t 2509
exclusively 2509
churches 2509
elementary 2509
greek 2509
stairs 2509
hub 2508
varieties 2508
rope 2508
belts 2508
flesh 2508
F-@@ 2508
tender 2507
Warner 2507
brighter 2507
mouths 2507
Ultimate 2506
Da@@ 2506
ara 2506
myths 2506
Tru@@ 2505
Hurt 2504
4k 2504
phen@@ 2503
Dun@@ 2503
networking 2503
simulation 2503
Lets 2502
rap 2502
potato 2501
clue 2500
utilize 2500
rental 2500
lined 2500
Ultra 2500
Mr 2499
fights 2499
ishing 2499
institution 2498
Good@@ 2498
pressed 2498
I. 2498
.’ 2498
Strong 2498
bombing 2498
GE@@ 2497
MC@@ 2497
show@@ 2497
inhale 2497
sexy 2496
dissolved 2496
tured 2496
theoretically 2495
lish 2495
Antarctica 2495
**@@ 2494
instinct 2494
amine 2494
Hiroshima 2494
Conservative 2493
Believe 2493
gauge 2492
cholesterol 2492
anal 2492
fier 2491
equilibrium 2491
Land@@ 2491
aimed 2491
schemes 2491
coke 2491
Ban@@ 2490
daylight 2490
St 2490
negatively 2490
signatures 2490
Improve 2490
competitors 2490
а 2490
cop 2490
Spicy 2490
expiration 2489
politically 2489
9% 2489
meanings 2489
ison 2488
Han@@ 2488
hopes 2488
diets 2488
twitch 2488
TL;DR 2487
defeat 2487
builds 2487
stove 2487
Homo 2487
regarded 2486
vin@@ 2486
pronounce 2486
sticking 2486
coach 2485
Dual 2485
retailers 2485
campus 2485
promises 2484
lady 2484
loving 2484
inations 2484
Might 2483
dum@@ 2483
trail 2483
Block 2482
stayed 2482
forums 2482
til@@ 2482
78 2482
stain 2482
HA@@ 2481
Install 2481
3.0 2481
't 2481
knocked 2481
operates 2481
Ul@@ 2481
Hen@@ 2481
Louis 2481
entities 2480
LTE 2480
hemisphere 2479
defects 2479
org@@ 2478
shelter 2477
Non@@ 2476
assessment 2476
lon@@ 2476
adrenaline 2476
OP@@ 2475
outcomes 2475
contrary 2475
vibration 2475
spiral 2474
representatives 2473
Evidence 2473
resolve 2473
Pregnancy 2473
cruise 2473
arbitrary 2472
Proof 2472
render 2472
fears 2471
Ly@@ 2471
Forces 2471
albums 2470
WordPress 2470
Pass 2469
sucks 2469
dinosaur 2469
Hardware 2468
Organization 2468
Range 2468
tonight 2468
Lines 2468
Keeping 2467
ethnicity 2467
Tap 2467
Communist 2465
DA 2465
astronomers 2465
fade 2465
ock 2464
Monitor 2464
aces 2464
mac 2464
Juice 2464
piracy 2463
Speaking 2463
elled 2463
Key@@ 2463
VI@@ 2462
Ex 2462
los@@ 2462
currents 2462
usion 2462
Seattle 2462
delegates 2462
tel@@ 2462
coughing 2462
valued 2461
yed 2461
itor 2461
sta@@ 2460
contemporary 2460
prize 2460
dealer 2460
taxed 2459
turbine 2459
ris 2459
ager 2459
republican 2458
managers 2457
phenomena 2457
passive 2456
mit@@ 2456
cramps 2456
Wash 2455
Wow 2455
deer 2455
traded 2454
incentive 2454
bucket 2454
struc@@ 2454
proxy 2454
towns 2454
continents 2454
shrink 2454
module 2453
breakdown 2452
onal 2452
Burning 2452
Later 2451
transform 2451
Past 2451
spouse 2451
smelling 2450
flower 2450
Hands 2450
sey 2450
attach 2450
utes 2449
representing 2449
Liberal 2449
ium 2449
proportional 2449
appreciated 2448
analyze 2448
teenagers 2448
thereby 2448
Viruses 2448
advances 2447
Rise 2447
Track 2447
overhead 2447
han@@ 2447
preparing 2447
upvotes 2447
BB@@ 2447
icks 2447
preparation 2447
proves 2446
Wave 2445
filing 2445
personnel 2444
comparable 2444
Rob@@ 2444
128 2444
Far 2444
sneezing 2444
Dave 2443
IDE 2442
conservatives 2442
appointment 2442
dated 2441
Massachusetts 2441
Bankruptcy 2441
Lifestyle 2440
berry 2440
Target 2440
Iowa 2440
adoption 2439
wr@@ 2439
ab 2439
ball@@ 2439
ail 2439
sooner 2438
threshold 2438
Operating 2438
ignored 2438
voc@@ 2437
structural 2437
hat@@ 2437
ily 2436
with@@ 2436
Airport 2436
boundaries 2435
:5@@ 2435
fossils 2435
Break 2435
0.00 2435
Motor 2435
li 2435
steroids 2435
gloves 2434
civilians 2434
bitcoins 2433
bicycle 2433
asian 2433
spark 2433
coil 2432
Candy 2432
ст@@ 2431
rendering 2431
prevalent 2431
Expensive 2431
ush 2430
ч@@ 2430
Coun@@ 2430
Ap@@ 2429
izes 2429
lactose 2429
Guard 2428
grasp 2427
Swe@@ 2427
ali 2427
sharks 2427
Port 2426
ds@@ 2426
Venezuela 2426
Ari@@ 2425
Malaysia 2425
mes@@ 2425
Weird 2425
supposedly 2424
elderly 2424
ven 2424
neighbors 2423
reasonably 2423
bump 2423
historically 2422
Ready 2422
Russians 2421
laughter 2421
diver@@ 2420
bla@@ 2420
bearing 2420
GET 2419
appealing 2418
ust 2418
avi@@ 2418
FL 2417
Day@@ 2417
elle 2416
Addiction 2416
Expert 2415
socks 2415
Chat 2414
stood 2413
ask@@ 2413
repeating 2413
Reverse 2413
handled 2411
boyfriend 2411
con 2411
10th 2411
Nobel 2411
Prize 2411
vation 2410
homosexuality 2409
consequence 2409
dd@@ 2408
compact 2408
mosquitoes 2408
RED 2407
ado 2407
oper@@ 2406
ket 2406
emitted 2406
VER@@ 2405
speaks 2405
enjoying 2405
socket 2405
retina 2405
Hotel 2404
supporters 2403
:3@@ 2403
lis@@ 2403
consist 2403
squeeze 2403
wiki 2402
tivity 2401
Pope 2401
poisonous 2401
Origin 2400
Henry 2400
Round 2400
Blu@@ 2400
tingling 2400
may@@ 2399
Gener@@ 2399
tle 2399
Weed 2399
leap 2399
sole 2398
patents 2398
motivated 2397
Jer@@ 2397
paintings 2397
Challenge 2397
thicker 2397
clubs 2397
Train 2397
contagious 2397
Patrick 2396
ı@@ 2395
binding 2394
likelihood 2394
s- 2393
mod 2393
14.@@ 2393
preferences 2393
Officer 2393
octane 2393
ck 2392
Opens 2392
Sli@@ 2392
rod 2392
Understand 2391
shadows 2391
Gam@@ 2391
doses 2391
sim@@ 2390
It@@ 2390
Hispanic 2390
chills 2390
Radi@@ 2389
abandoned 2389
physicists 2389
Traditional 2388
WH@@ 2388
pie 2388
tes@@ 2388
Ak@@ 2387
EA 2387
Changing 2387
brothers 2387
oo 2386
Tests 2386
Charge 2386
dre@@ 2385
NBC 2385
9th 2385
Trees 2384
olds 2384
priced 2384
independently 2384
dges 2384
arg@@ 2384
hiccups 2384
Spray 2382
und@@ 2381
PCs 2381
Alzheimer 2381
GMT 2380
INE 2380
pumps 2380
Rev@@ 2379
fan@@ 2379
sovereign 2379
honor 2379
twist 2378
hearts 2378
mutual 2377
sign@@ 2377
leaf 2376
eff@@ 2376
painted 2376
una 2376
ail@@ 2376
pornography 2376
sentenced 2375
CDs 2374
MM@@ 2374
Savings 2374
twitter 2374
owed 2374
pumping 2374
donations 2374
threatened 2373
poker 2372
Quote 2372
pupils 2372
arranged 2372
ek@@ 2371
itching 2370
disability 2370
PAR@@ 2370
iner 2370
optic 2370
Wet 2370
ultra 2369
0% 2369
denied 2369
Kansas 2369
Regardless 2369
drying 2369
answering 2368
settled 2368
CRE@@ 2368
Headphones 2368
Thinking 2367
Studio 2367
bridges 2367
bodily 2367
fishing 2366
Response 2365
dump 2365
anytime 2365
nom@@ 2364
drone 2364
Convention 2363
spl@@ 2363
enforce 2363
Raw 2363
mattress 2363
noun 2362
LA@@ 2362
cousin 2362
Museum 2362
buried 2362
AAA 2361
Summary 2361
Division 2361
layout 2361
noses 2361
pillow 2361
apped 2360
shades 2358
Streaming 2358
bananas 2358
tized 2357
Overall 2356
Devices 2356
path@@ 2355
Gates 2355
ress 2355
Recipes 2355
addressed 2355
Thoughts 2354
crave 2354
dehydrated 2354
sheep 2354
Planned 2354
Discovery 2353
Saving 2353
franchise 2353
rer 2353
vagina 2353
iser 2352
Customer 2352
hiding 2352
declare 2352
recreational 2352
cleaned 2352
RT 2351
Tower 2351
civilian 2351
decreased 2351
spar@@ 2351
Internal 2351
Abuse 2351
tops 2350
lied 2350
Thailand 2350
gb 2348
bab@@ 2347
turkey 2347
aded 2347
Trans 2347
Banking 2346
้@@ 2346
Albert 2345
yo 2344
managing 2344
islam 2344
Seriously 2343
melted 2343
bytes 2343
import 2343
Mathematics 2342
Fri@@ 2341
john 2341
ano@@ 2341
Sport 2341
Naked 2341
followers 2341
Rick 2340
Starting 2340
kilometers 2340
Removal 2340
converter 2340
74 2339
Allergies 2339
christianity 2339
ells 2339
TPP 2339
Religious 2338
Speci@@ 2338
swollen 2338
conflicts 2337
victory 2337
strictly 2337
anna 2337
Wiki 2337
Palestinian 2337
spacetime 2336
evaluate 2335
guest 2335
expands 2334
sustain 2334
manufacture 2334
Calculate 2334
pride 2334
cloudy 2334
permit 2333
1.2 2333
tactics 2332
CF@@ 2332
CBS 2331
Gri@@ 2331
ice@@ 2331
Houston 2330
a.m. 2330
big@@ 2330
sunset 2329
settlement 2329
Pokemon 2329
Wii 2328
Records 2327
buyer 2327
destructive 2327
tives 2327
influences 2327
gamers 2327
50,000 2326
shaving 2326
emphasis 2326
Poland 2326
Bond 2326
dealers 2325
walks 2325
Yourself 2325
dehydration 2325
ree 2325
Wage 2325
alongside 2325
Vehicle 2324
:0@@ 2324
uncommon 2324
deemed 2324
Coll@@ 2324
70% 2324
Freeze 2324
Vacuum 2324
placebo 2324
TION 2323
Details 2323
1993 2323
Halloween 2323
Sick 2323
nostril 2323
West@@ 2322
earning 2321
consensus 2321
C++ 2321
altered 2321
HowStuffWorks 2320
Q. 2320
reception 2320
Aqu@@ 2319
arch@@ 2319
appliances 2319
propaganda 2319
refused 2319
Ker@@ 2319
Tony 2318
Users 2318
drama 2318
cs 2318
universes 2317
Experts 2317
exempt 2317
Password 2317
cartoons 2317
Interview 2316
arrangement 2316
succeed 2315
Cli@@ 2315
sli@@ 2315
treaty 2314
Free@@ 2314
ballot 2314
calculation 2314
grant 2313
Crimea 2313
Inst@@ 2313
You@@ 2312
sible 2312
FROM 2311
embedded 2311
reproductive 2310
Nails 2310
WS 2309
Diamond 2309
Connection 2308
dering 2308
singers 2308
HDD 2307
ego 2307
unfair 2306
subsequent 2306
CN@@ 2306
zoom 2306
Democracy 2305
gang 2305
Sarah 2305
contribution 2305
ethanol 2305
Stra@@ 2305
ori 2304
Billion 2304
Disk 2304
torture 2304
Tur@@ 2303
ouring 2303
resist 2303
″ 2303
Mining 2302
leaks 2302
sit@@ 2302
turbines 2302
Ash@@ 2301
Walk 2301
gallons 2301
unwanted 2301
Golf 2300
yawning 2300
Dangerous 2299
Av@@ 2299
invested 2298
asteroids 2298
esh 2296
amed 2296
Breath 2296
creature 2296
slaves 2296
2,000 2296
ank 2294
detector 2294
une 2293
mann 2293
CPUs 2293
stare 2293
ranking 2293
productivity 2292
outline 2292
Mur@@ 2292
Awesome 2292
LSD 2292
respiratory 2291
ر@@ 2291
garage 2291
ounds 2291
ranks 2290
identifying 2290
etting 2290
อ@@ 2290
exploring 2289
shame 2289
asing 2289
approaching 2289
gh 2288
slave 2288
Cutting 2288
ozone 2288
intention 2287
Role 2287
cult 2287
8,@@ 2287
Lead 2287
torrents 2286
fro@@ 2286
motor@@ 2286
Flying 2286
hangover 2286
Jason 2285
Classical 2285
countless 2285
surge 2284
genuine 2284
Len@@ 2284
rier 2284
originate 2284
rolled 2283
Sort 2283
dered 2282
Toyota 2282
avoided 2282
bald 2282
FI@@ 2281
elite 2281
afterwards 2281
availability 2280
Conditions 2280
Aer@@ 2280
counted 2279
RC 2279
tub 2279
pipeline 2279
salaries 2278
jurisdiction 2278
ip 2278
cured 2278
uncertainty 2277
brilliant 2277
Equ@@ 2277
Limited 2277
awkward 2276
Method 2275
Dri@@ 2275
Bow@@ 2275
EMP 2275
PR 2274
Mod@@ 2274
Schedule 2274
oming 2273
guilt 2273
б@@ 2273
alpha 2273
Equipment 2273
hygiene 2273
garlic 2273
Hospital 2272
Tour 2272
compromise 2272
SD@@ 2272
stic 2272
Imp@@ 2271
Stream 2271
Sore 2271
ols 2270
compress 2270
pretend 2269
Arctic 2269
yogurt 2269
Strategy 2268
fic@@ 2268
eted 2268
spelled 2268
Real@@ 2267
recommendations 2267
speeding 2267
Debit 2266
drought 2266
Helium 2266
earliest 2265
Featured 2265
Ethernet 2265
Miller 2265
free@@ 2264
ama@@ 2264
palm 2264
harmless 2264
od 2263
Hole 2262
Explo@@ 2262
ple 2262
tuned 2262
minimize 2261
Sel@@ 2261
lawn 2260
catching 2259
99% 2259
chro@@ 2259
RI@@ 2258
precision 2258
160 2258
lo 2258
asi@@ 2257
sam@@ 2257
absorption 2257
Meet 2256
MB@@ 2256
exceed 2256
wikipedia 2255
Balance 2255
titled 2254
ONLY 2254
Sum@@ 2254
n.d 2254
historic 2254
Turkish 2254
stop@@ 2253
calculus 2253
secrets 2253
atic 2253
ng 2253
cone 2252
alternate 2251
VIDEO 2251
Speaker 2251
),@@ 2251
lump 2251
elif 2251
coloring 2251
Tattoo 2251
Mari@@ 2250
routes 2250
eyed 2250
template 2250
ander 2249
workplace 2249
Reagan 2249
subjective 2249
﻿@@ 2249
abs 2249
DJ 2249
exhausted 2249
FIFA 2248
bia 2248
posture 2248
Engines 2247
Choice 2247
neutron 2247
Pizza 2247
chickens 2246
casual 2246
differentiate 2245
liberalism 2245
Convert 2245
similarly 2244
indication 2244
How@@ 2244
sought 2244
EP 2244
bare 2243
slo@@ 2243
a.@@ 2242
ting@@ 2242
motors 2242
surplus 2241
distribute 2241
OP 2241
chers 2241
ers’ 2240
Hours 2240
ect@@ 2240
Shipping 2239
planetary 2239
arian 2238
commission 2238
tioning 2238
ion@@ 2238
life@@ 2238
pause 2237
Maryland 2237
royal 2237
Knowing 2236
Ads 2236
minus 2236
printers 2236
counterparts 2235
upwards 2234
Purpose 2234
wherever 2234
LS 2234
Diabetes 2234
Upload 2234
tible 2234
Dom@@ 2233
cereal 2233
export 2233
Wisconsin 2233
suspended 2233
stimulate 2232
Sample 2232
ulating 2232
eats 2232
ku 2232
isation 2231
XL 2231
Count 2231
Lit@@ 2230
Transmission 2230
advertisements 2230
Hun@@ 2230
amino 2230
color@@ 2229
Murder 2229
subscribers 2228
String 2228
ater@@ 2228
Pepsi 2228
snack 2228
irrelevant 2228
patches 2228
severely 2227
flexibility 2227
Suicide 2227
inj@@ 2227
Cop@@ 2226
Duty 2226
wrist 2226
transgender 2226
fla@@ 2225
asses 2225
Judaism 2225
Asleep 2225
proton 2225
Spe@@ 2225
hips 2225
sellers 2224
FacebookShare 2224
roller 2224
kets 2224
bleach 2224
ecting 2223
pic 2223
clone 2223
Lawyer 2223
bat 2223
Bab@@ 2223
Nazis 2223
Gain 2223
home@@ 2222
akers 2222
civilizations 2222
strains 2222
boxing 2222
Moore 2220
cache 2220
cords 2220
feminine 2220
lithium 2219
1945 2219
shoe 2219
matrix 2218
dispute 2218
itable 2218
rejected 2217
traditionally 2217
pharmaceutical 2217
ologists 2217
gle 2217
Fukushima 2217
UPS 2217
spoon 2216
evaporate 2215
Tired 2215
chargers 2215
sle@@ 2214
Basketball 2214
unexpected 2214
Treat 2214
shaft 2214
thinner 2214
idi@@ 2213
poses 2213
vir@@ 2213
skull 2213
considerably 2213
Neuro@@ 2213
stimulus 2212
faint 2212
ก@@ 2212
shark 2211
ati 2211
Tutorial 2211
Hulu 2211
1991 2210
Hot@@ 2210
Spot 2209
Websites 2209
sounding 2209
studios 2209
not@@ 2208
و@@ 2208
refund 2207
residential 2206
Immigration 2206
ature 2206
Eu@@ 2205
Soon 2205
ert 2204
unstable 2204
electro@@ 2204
Elon 2204
urinate 2204
Pra@@ 2203
mc@@ 2203
spends 2203
physiological 2203
rinse 2203
Egyptian 2203
ENT@@ 2202
ough@@ 2202
develops 2202
traumatic 2201
ography 2200
Vista 2200
Sciences 2200
passport 2200
ains 2200
horsepower 2200
peaceful 2199
1992 2199
Hour 2198
dough 2198
telescopes 2197
clips 2197
MIN@@ 2197
Reduce 2197
limiting 2197
Hydro@@ 2197
Bees 2197
wel@@ 2196
eld 2196
mar 2195
oun@@ 2195
Applications 2194
stating 2194
substitute 2194
listing 2194
clarify 2193
Oc@@ 2192
Bit 2192
blo@@ 2192
DA@@ 2192
advertise 2191
coconut 2191
Muscles 2191
ees 2190
periodic 2190
Points 2189
ranked 2189
packets 2189
shortly 2189
Extreme 2189
ader 2188
inated 2188
×@@ 2188
Scale 2188
mentation 2188
Weapons 2187
fe 2187
TwitterShare 2187
12th 2187
Papers 2187
enter@@ 2187
Dor@@ 2186
segment 2185
browse 2185
namely 2184
Bear 2184
Father 2184
slice 2184
cavity 2184
ever@@ 2183
Submitted 2183
Bureau 2183
demonstrated 2183
holy 2183
expressions 2183
Adding 2183
Minnesota 2182
Oxford 2182
relating 2182
Browse 2182
operators 2182
Event 2181
Fran@@ 2181
Trying 2181
standardized 2181
wolves 2181
whiskey 2181
Bubble 2180
MI@@ 2180
79 2180
Kennedy 2179
HBO 2179
long@@ 2179
intestines 2179
Homework 2178
Demand 2178
passion 2178
ques 2178
conver@@ 2178
ices 2178
relaxing 2178
pimples 2178
Personally 2177
ELI@@ 2177
scream 2177
Printing 2177
satisfaction 2177
dil@@ 2177
ples 2177
destroying 2177
Letters 2177
after@@ 2177
Spider 2177
fluoride 2177
sten@@ 2176
crop 2176
spherical 2175
USSR 2175
Sound@@ 2175
16.@@ 2175
operator 2174
zy 2174
nightmares 2174
Corporate 2173
swallowing 2173
Harvard 2172
Networks 2172
rist 2172
lob@@ 2172
earthquakes 2172
Lam@@ 2171
Breast 2171
leather 2171
DVDs 2171
rewards 2170
emo@@ 2170
laundry 2170
cav@@ 2170
Started 2170
rob@@ 2170
genic 2170
blink 2169
foo@@ 2168
veterans 2168
CAN@@ 2168
lowering 2168
integration 2168
Shift 2168
NC@@ 2168
buys 2167
nation@@ 2167
commitment 2167
recycled 2167
altogether 2166
Whit@@ 2166
Stat@@ 2165
256 2165
norm 2165
ila 2163
commands 2163
ond@@ 2163
Miami 2163
lobbying 2163
narrative 2163
15.@@ 2163
NC 2163
Fro@@ 2162
Rom@@ 2162
hasn't 2162
dit@@ 2161
Accessories 2161
hammer 2161
tasting 2161
windshield 2161
womb 2160
suggesting 2159
Gate 2159
worship 2159
Remote 2159
trademark 2159
ATM 2159
hosts 2158
oned 2158
Drivers 2158
tex@@ 2158
inevitable 2157
ura 2157
complications 2157
pain@@ 2157
surroundings 2157
spi@@ 2156
stainless 2156
Acne 2156
bowel 2156
Jay 2155
ind@@ 2155
indoor 2155
wallet 2154
improvements 2154
blur 2154
dol@@ 2153
fingerprints 2153
Python 2152
Seven 2152
ISO 2152
nude 2152
mount 2152
Frozen 2152
intuitive 2151
implementation 2151
Prevention 2151
ft@@ 2151
imposed 2151
Broken 2151
leaked 2150
navigate 2150
belongs 2150
republic 2150
human@@ 2150
cosmic 2150
Dubai 2150
drastically 2150
1980s 2149
ling@@ 2149
briefly 2149
Floor 2149
EC@@ 2148
genres 2148
Forex 2148
accepting 2148
cos 2148
portions 2147
supreme 2147
Band 2147
O2 2147
costly 2146
PE 2146
ami 2146
disposal 2146
blooded 2146
7,@@ 2146
Num@@ 2146
1960s 2145
KING 2145
Nu@@ 2144
agenda 2143
‹ 2143
brow@@ 2143
fingerprint 2143
nm 2143
Effective 2142
2020 2142
foot@@ 2142
73 2142
Conference 2141
ов@@ 2141
Lock 2140
jam@@ 2139
Voting 2139
eous 2139
Actors 2139
Spl@@ 2138
documented 2138
establishment 2138
Inf@@ 2138
ee@@ 2138
canal 2138
justified 2137
Dow 2137
goo@@ 2137
Beef 2137
enced 2136
phases 2136
Horse 2136
vessel 2136
gamma 2136
landed 2136
Pure 2135
1970s 2135
infl@@ 2135
Germans 2135
spins 2134
sor 2134
Turing 2134
wanna 2133
Specifically 2133
Replies 2132
razor 2132
snow@@ 2132
Fire@@ 2132
infinitely 2132
ris@@ 2132
vin 2132
flo@@ 2132
Representatives 2131
promoting 2131
remembering 2131
blu@@ 2131
BM@@ 2131
infant 2131
Libya 2130
alleged 2130
ALS 2130
mers 2130
thirsty 2129
bloodstream 2129
LP 2129
Construction 2129
AW@@ 2128
Lincoln 2128
1990s 2128
oppose 2128
Formula 2127
mating 2127
Stri@@ 2127
gums 2127
mill 2126
usi@@ 2126
reject 2125
hin@@ 2125
romantic 2125
engaging 2125
Christopher 2125
Micro 2125
S.@@ 2125
MLB 2125
injected 2124
opposing 2124
Fac@@ 2124
Window 2124
neg@@ 2124
endless 2124
shareholders 2123
bun@@ 2123
Game@@ 2122
VS 2122
durable 2122
puzzle 2121
VERY 2121
dr 2121
Tab@@ 2121
Shot 2121
stuffy 2121
carpet 2120
Reuters 2120
kiss 2120
Nevada 2120
mercury 2120
resident 2119
populated 2119
remedy 2119
stains 2119
parameters 2118
Cuban 2118
illa 2117
Medium 2117
corners 2117
lava 2117
о 2116
rounds 2116
Reserved 2116
GMO 2116
clarity 2115
Surface 2115
Labour 2114
stealing 2114
Zi@@ 2114
zation 2114
lovely 2114
detectors 2114
Davis 2114
bic@@ 2114
debates 2113
acing 2113
accelerating 2112
Pool 2112
Parenthood 2112
remind 2111
arteries 2111
bled 2111
reactors 2111
vein 2111
abdomen 2111
GS 2110
mods 2110
58@@ 2110
Sand@@ 2110
Injury 2110
icing 2110
presidents 2110
specialist 2110
Along 2110
HealthTap 2110
brick 2110
trips 2110
cracks 2110
Warning 2109
hydrated 2109
rant 2109
Google+ 2108
Ga@@ 2108
Outside 2107
violate 2106
expecting 2106
Bruce 2106
Chart 2106
probe 2106
Argentina 2105
asia 2105
ounded 2105
FX 2104
Drop 2104
17th 2104
Elements 2104
cares 2104
amy 2104
ached 2103
und 2103
Newer 2103
EE@@ 2103
izer 2103
clockwise 2103
URL_8 2102
tightly 2102
defining 2102
converting 2102
examination 2102
accessories 2102
pled 2102
PRE@@ 2102
ually 2102
Genetic 2102
interpreted 2101
Rice 2101
sons 2101
Truck 2101
Bread 2101
cheat 2100
Methods 2100
executed 2100
Capitalism 2100
Justin 2100
securities 2099
dominated 2099
delayed 2098
paths 2098
Guns 2098
boundary 2097
vers@@ 2096
investor 2096
labour 2096
simplified 2096
payer 2096
gentle 2096
drill 2096
401k 2096
permitted 2095
admitted 2095
م@@ 2095
aqu@@ 2095
appearing 2095
logists 2094
originated 2094
URE 2094
wan@@ 2094
emotionally 2094
astro@@ 2094
pads 2094
cave 2093
explosive 2093
Boeing 2093
Remedies 2093
considerable 2092
Batman 2092
experimental 2091
Cou@@ 2091
Panama 2091
rence 2090
enzyme 2090
statistical 2090
liqu@@ 2090
ен@@ 2089
attacking 2089
Mission 2089
ump@@ 2089
Wales 2089
boarding 2089
Simpson 2089
Plane 2089
hun@@ 2088
tia 2088
Environmental 2088
Poli@@ 2087
cancers 2087
dan 2086
compensate 2085
atives 2085
placement 2085
survived 2085
bred 2085
striking 2084
nal 2084
ancestor 2084
Profit 2083
ener@@ 2083
arguing 2083
Instant 2083
Photo@@ 2083
void 2083
salts 2083
tab@@ 2082
Cos@@ 2082
EF@@ 2081
dialogue 2081
bec@@ 2081
applicable 2081
designers 2081
Species 2081
Bring 2081
70s 2081
derivatives 2080
spe@@ 2080
evolving 2080
ests 2079
ThisBlogThis!Share 2079
15% 2079
1000@@ 2079
fingernails 2079
prevented 2078
Ceiling 2078
classroom 2078
Period 2078
Cycle 2078
lend 2077
CB@@ 2077
spare 2076
Campaign 2076
antibodies 2076
hitler 2076
circumcision 2075
pursue 2075
Tank 2074
·@@ 2074
stabili@@ 2074
TIME 2073
realise 2073
Visual 2073
prec@@ 2073
THC 2073
gallery 2072
guessing 2072
taller 2072
promised 2071
Originally 2071
dead@@ 2071
stretched 2071
begun 2071
Hemisphere 2071
conclude 2070
inspiration 2070
DR 2070
news@@ 2069
shortage 2069
1984 2069
couch 2069
Complex 2068
Cannabis 2068
creativity 2068
O'@@ 2068
canned 2068
Daylight 2068
Lat@@ 2066
dolphins 2066
Highway 2066
wildlife 2065
beers 2065
pigment 2065
stats 2064
contributing 2064
Sin@@ 2064
Positive 2064
spit 2064
Trek 2064
shocked 2063
irritation 2063
rup@@ 2062
Carl 2062
soviet 2062
diplomatic 2062
posed 2062
scenarios 2062
shiny 2062
Dad 2062
suited 2061
Seems 2060
Reports 2060
dull 2060
responding 2059
EV@@ 2059
watts 2059
Citizens 2059
NHL 2059
Pas@@ 2059
treats 2059
innovative 2059
Autism 2059
eman 2058
Sav@@ 2058
lat@@ 2058
hacked 2058
AB 2058
act@@ 2057
optim@@ 2057
ruin 2057
encouraged 2056
UM 2056
exports 2056
99.@@ 2056
Binary 2055
proc@@ 2055
grand@@ 2055
Fortunately 2055
Falling 2055
asts 2055
floors 2055
ICS 2054
Ol@@ 2054
relies 2054
Trial 2054
mysterious 2054
relatives 2054
Tex@@ 2054
Circle 2054
mul@@ 2053
scar 2053
toll 2053
Lar@@ 2053
ร@@ 2053
recordings 2052
Bird 2052
Neither 2051
Fusion 2051
privilege 2050
occupied 2050
supplied 2050
meditation 2050
ured 2049
PD@@ 2049
gent 2048
SIM 2048
agging 2048
Alpha 2047
SL@@ 2047
burger 2047
recycle 2047
inst@@ 2046
upward 2046
Shakespeare 2046
law@@ 2045
14th 2045
Iranian 2045
memes 2044
hen@@ 2044
Der@@ 2043
Log@@ 2043
nauseous 2043
Nice 2042
varied 2042
adverse 2042
differential 2042
urs 2042
encing 2041
handles 2041
Charlie 2041
Blind 2040
frustrating 2040
Rap@@ 2040
REALLY 2040
Fit 2040
Fiction 2040
SPE@@ 2039
Giant 2039
elec@@ 2039
cabin 2039
6-@@ 2039
edi@@ 2039
fatty 2039
thrive 2039
pho@@ 2038
Wilson 2038
weighs 2037
shuttle 2037
Skype 2037
duties 2037
ari 2037
offs 2037
flags 2037
Shampoo 2037
charts 2036
contributed 2036
1989 2036
Oscar 2036
guidance 2036
affairs 2035
9,@@ 2035
IBM 2035
DUI 2035
lay@@ 2034
silicon 2034
fines 2034
solids 2034
Compared 2034
Citizen 2034
60% 2034
demanding 2033
genome 2033
cran@@ 2033
censorship 2032
interactive 2032
fel@@ 2032
cracked 2032
Essential 2031
pouring 2031
Bug 2031
umes 2031
Foot 2030
Panel 2030
courtesy 2030
blonde 2030
offset 2029
44@@ 2029
ull 2029
Device 2029
Pyramid 2029
Elections 2029
ym@@ 2028
Late 2028
jerk 2028
Advertising 2028
individually 2028
economically 2028
hem@@ 2028
RPM 2028
IST 2027
Filter 2027
Asians 2027
advise 2027
130 2027
characterized 2026
dom 2026
anne 2026
eable 2026
departments 2026
stimulation 2026
bis@@ 2024
Few 2024
Panels 2024
dow@@ 2024
colleagues 2024
remarkable 2024
tac@@ 2024
Cel@@ 2024
EM 2024
modify 2023
Matthew 2023
aims 2023
hacker 2023
mins 2023
puberty 2023
ves@@ 2022
13th 2022
Indians 2022
3000 2021
heats 2021
announcement 2020
searched 2020
Hit 2020
packet 2020
climates 2020
Explore 2019
lessly 2019
critics 2019
Strength 2019
hd 2019
selective 2019
venom 2019
sar@@ 2018
MR@@ 2018
lif@@ 2017
occasional 2017
ensuring 2017
camps 2017
Computing 2016
ped@@ 2016
designated 2016
ector 2015
bolt 2015
Tom@@ 2015
rpm 2015
Mem@@ 2014
guards 2014
Eve 2014
rie 2014
Roll 2013
shutter 2013
ratios 2013
Portable 2013
cones 2013
Neil 2012
monkeys 2012
Tem@@ 2012
agriculture 2012
ound 2012
ET@@ 2011
expectancy 2011
headphone 2011
Spec@@ 2011
Caribbean 2011
Pul@@ 2011
nurse 2011
tremendous 2011
Egg 2011
Communications 2010
bible 2010
ç@@ 2010
strengthen 2010
endangered 2010
ind 2009
Nov@@ 2009
Wood@@ 2009
stimuli 2009
antimatter 2008
legalized 2007
gif 2007
Steven 2007
SN@@ 2007
subconscious 2007
chaos 2006
Object 2006
esp@@ 2006
abnormal 2006
removes 2006
knots 2006
risky 2005
Qatar 2005
Pla@@ 2005
constitu@@ 2005
vegan 2005
Mostly 2004
searches 2003
judgment 2003
ka@@ 2003
Button 2003
Betting 2002
Sn@@ 2002
mon 2002
smoothly 2002
flashing 2002
banning 2002
Creating 2001
imply 2001
contraction 2001
concluded 2001
interval 2001
ambient 2001
Nail 2001
BLACK 2001
Calculator 2000
Shel@@ 2000
Partnership 2000
Looks 1999
ix 1999
rude 1998
stance 1998
deficiency 1998
60s 1998
ultraviolet 1998
execute 1997
assess 1997
cited 1997
way@@ 1997
Senior 1997
Prison 1997
bb@@ 1997
Reader 1996
motherboard 1996
Missouri 1996
Cle@@ 1996
Powered 1995
tumor 1995
chin 1995
testicles 1995
alistic 1994
Fans 1994
16th 1994
lifespan 1994
coating 1993
discusses 1993
smoked 1993
sinus 1993
manuals 1992
Nigeria 1992
Kir@@ 1992
recipient 1992
phon@@ 1991
eliminated 1991
Stores 1991
interviews 1990
shallow 1990
Shopping 1990
1970 1989
Book@@ 1989
Alexander 1989
ั@@ 1988
heaven 1987
metallic 1987
Fa@@ 1987
Clothing 1987
silk 1987
Dallas 1986
morality 1986
outdoors 1985
integral 1985
sensations 1985
farms 1984
aria 1984
itter 1984
ANY 1983
stressful 1983
Oklahoma 1983
Gray 1983
Function 1982
weakness 1982
bankrupt 1982
Senator 1982
Tal@@ 1981
Rand 1981
Medicaid 1981
acked 1981
responded 1981
Bet@@ 1981
tos 1981
worm 1981
plural 1981
Diseases 1981
Gary 1980
Utah 1980
yoga 1979
continually 1979
ester 1979
meme 1979
Sheet 1979
filmed 1979
rip 1978
Paradox 1978
Town 1978
transit 1978
Thrones 1977
Run@@ 1977
taxi 1977
subsidies 1977
intervals 1977
hurricane 1977
reptiles 1977
Identity 1977
Caffeine 1977
legislative 1976
py@@ 1976
guests 1976
domains 1975
das 1975
creator 1975
Ty@@ 1975
disappeared 1975
drones 1975
140 1974
modes 1974
800@@ 1974
199@@ 1974
Writer 1974
guides 1974
Resolution 1973
PlayStation 1973
I.@@ 1973
spac@@ 1973
jeans 1973
Rose 1972
clever 1972
V. 1972
territories 1971
minim@@ 1971
Diego 1971
tray 1971
Gets 1971
sunglasses 1971
king@@ 1970
ensures 1970
Torrent 1970
Experiment 1970
Technical 1969
sing@@ 1969
whale 1969
Everest 1969
heck 1968
outstanding 1968
uploaded 1968
cloning 1968
peeing 1968
reflective 1968
CK 1967
algebra 1967
8-@@ 1967
emerging 1966
Kid@@ 1966
inherently 1965
monarchy 1965
2019 1965
tribes 1965
Uni@@ 1964
Violence 1964
oop 1963
cock 1963
sunny 1963
contaminated 1963
Belly 1963
band@@ 1963
drift 1963
Oper@@ 1962
vic@@ 1962
committing 1962
After@@ 1962
cools 1962
Patent 1961
rash 1960
nec@@ 1960
Lewis 1959
Opinion 1959
JO@@ 1959
slowed 1959
tar 1959
DN@@ 1959
indoors 1959
sores 1959
Needs 1958
Az@@ 1958
usable 1957
Dell 1957
moist 1957
siblings 1957
SI 1956
node 1956
Stage 1955
Spo@@ 1955
psych@@ 1955
towels 1955
Printer 1954
Brit@@ 1954
lease 1954
Former 1953
berries 1953
consistency 1953
cd 1953
gling 1953
fascism 1953
derivative 1952
Dakota 1952
village 1952
backing 1952
WILL 1952
thro@@ 1952
difficulties 1951
gaps 1951
66@@ 1951
Vector 1951
Relief 1951
marry 1950
ance@@ 1949
ace@@ 1949
Feet 1949
sunburn 1949
ра@@ 1948
Moscow 1948
port@@ 1948
Mario 1948
voluntary 1948
cabinet 1948
sword 1948
touches 1947
withdraw 1947
eri@@ 1947
Keys 1947
7% 1947
vivid 1947
Together 1946
assumptions 1946
droplets 1946
PayPal 1946
400@@ 1946
bad@@ 1946
Aircraft 1946
Polish 1945
Meth@@ 1945
Commonwealth 1945
Luxury 1945
motorcycle 1945
accompanied 1945
Mint 1944
congestion 1944
tel 1944
surgical 1944
Pets 1944
suspected 1944
Dinosaurs 1943
lengths 1943
Emp@@ 1943
Fine 1943
Romans 1943
meg@@ 1943
pens 1943
Edge 1942
itated 1942
Secure 1941
Sle@@ 1941
meth@@ 1941
incorporated 1941
Cross@@ 1941
hotels 1941
Uses 1940
ppy 1940
Mos@@ 1940
ag 1940
Items 1940
Americas 1940
peanuts 1940
Dear 1939
Structure 1939
Artist 1939
accomplished 1939
U.S 1939
1500 1939
io 1939
disgusting 1939
tale 1938
ces 1938
Communication 1936
lowered 1936
Gold@@ 1936
quest 1936
alt 1936
GP@@ 1936
incoming 1936
olive 1936
partnership 1935
pigs 1935
fixing 1935
sul@@ 1935
draws 1935
positively 1934
ms@@ 1934
Drives 1934
cy 1933
α@@ 1933
logist 1933
inherited 1933
discs 1933
athlete 1932
notifications 1932
exhale 1932
Delete 1931
verified 1931
cam 1931
improves 1931
necessity 1930
Comic 1930
Ontario 1930
Anatomy 1929
scalp 1929
Kri@@ 1929
bus@@ 1928
baked 1928
boiled 1928
downward 1927
ues 1927
20,000 1927
cyber 1927
agrees 1926
Hurricane 1926
Crazy 1926
anim@@ 1925
Planning 1925
Es@@ 1925
boils 1925
merge 1925
startup 1924
Investing 1924
desirable 1924
sex@@ 1924
forecast 1924
commodity 1924
Tricks 1924
poster 1924
Muhammad 1924
jewelry 1924
reversed 1923
wrapped 1923
Farm 1923
acidic 1923
15th 1922
crossed 1922
shore 1922
gar 1922
tam@@ 1922
breath@@ 1922
Governor 1921
judicial 1921
owning 1920
refer@@ 1920
Animation 1920
ands 1920
ABLE 1920
hostile 1919
mortgages 1919
orts 1919
timeline 1918
Jan@@ 1918
Conflict 1918
bra 1918
expose 1918
65@@ 1918
obsessed 1917
0s 1917
spr@@ 1917
faucet 1916
Awards 1916
genital 1916
shield 1915
manipulate 1915
Waste 1915
19.@@ 1915
Tun@@ 1915
tang@@ 1915
High@@ 1915
Ang@@ 1915
seizures 1915
sinks 1915
Flu@@ 1914
compass 1914
ho 1914
Plasma 1914
enjoyable 1914
Mol@@ 1913
Theorem 1913
fer 1912
3,000 1912
aving 1911
sapiens 1911
/u 1911
Hopefully 1910
undergo 1910
00:@@ 1910
suggestion 1909
sav@@ 1909
Zo@@ 1909
alised 1909
gathering 1909
financing 1909
->@@ 1909
Nick 1908
inherent 1908
plastics 1908
aya 1908
Twin 1907
classification 1907
Principle 1906
biased 1906
journalists 1906
airports 1906
fax 1906
dishwasher 1906
Storm 1905
mented 1905
mars 1905
disc@@ 1905
LG 1905
4.5 1904
UM@@ 1904
physicist 1904
firearms 1904
swag 1904
masters 1903
believing 1903
fries 1903
dim 1903
publishing 1903
s(@@ 1903
Zip 1903
promotion 1903
laboratory 1903
bark 1903
Honda 1902
right@@ 1902
Clar@@ 1902
xes 1901
bert 1901
Presentation 1901
awarded 1901
Urban 1901
fence 1901
alls 1901
Bottom 1900
Ali 1900
tica 1900
1)@@ 1900
pigeons 1900
fills 1899
Cab@@ 1899
capita 1899
gal@@ 1899
bed@@ 1899
Resume 1899
farming 1899
Canadians 1899
RGB 1899
vel 1898
rains 1898
elect 1898
infect 1898
publish 1897
petition 1897
vit@@ 1897
traveled 1897
past@@ 1897
Launch 1897
yards 1896
prohibited 1896
nightmare 1896
iss 1896
Seat 1895
visits 1895
acceptance 1895
Pepper 1895
ss@@ 1894
revolutionary 1894
splitting 1894
Dragon 1894
auction 1894
Spi@@ 1894
infants 1893
newsletter 1893
Sydney 1893
Swedish 1893
meth 1893
monster 1892
explosions 1892
Holes 1891
Hard@@ 1890
potent 1890
kicked 1889
twelve 1889
philosophical 1889
pale 1889
lun@@ 1889
induce 1889
overdose 1889
gifts 1888
blows 1888
MHz 1888
killers 1888
nipples 1888
highlights 1887
-3 1887
blogs 1886
php 1886
oids 1886
enhanced 1886
uss 1885
vy 1885
indian 1885
kernel 1885
differs 1884
HTML5 1884
Housing 1884
rounded 1884
orchestra 1884
Weekly 1883
Choosing 1883
decreasing 1883
Wid@@ 1883
logged 1883
celestial 1883
Activ@@ 1882
insi@@ 1882
wil@@ 1882
75@@ 1882
Tube 1882
organ@@ 1882
ounding 1882
peel 1881
dilation 1881
Fourth 1881
Boost 1881
Insects 1881
Canon 1880
supp@@ 1880
Spon@@ 1880
pressures 1880
body@@ 1880
submarine 1880
strips 1880
Teen 1880
Cigarettes 1880
saves 1879
speculation 1879
Except 1879
Pay@@ 1879
satisfying 1879
IES 1878
newest 1878
Copy 1878
wasted 1877
var 1877
Longer 1877
wit@@ 1877
Bone 1877
whistle 1876
responsibilities 1876
Pho@@ 1876
diff@@ 1876
Warren 1875
apping 1875
Show@@ 1875
cellphone 1875
ania 1875
magazines 1874
christian 1874
dynamics 1874
scare 1874
ator@@ 1874
descent 1873
economists 1873
8) 1873
misleading 1873
straightforward 1873
Wide 1873
Shia 1873
assignment 1872
acute 1872
Kind 1872
Surely 1872
pops 1872
PhD 1872
grapes 1871
Talking 1871
fuse 1871
angular 1871
Pic@@ 1871
bikes 1871
cluster 1870
swe@@ 1870
Dou@@ 1870
publication 1869
flavour 1869
Gasoline 1869
rotor 1869
republicans 1868
inform 1868
Hockey 1868
Hon@@ 1868
gran@@ 1868
Pen 1868
macro@@ 1867
LOVE 1867
consciously 1867
veto 1866
converts 1866
Deb@@ 1866
stat@@ 1866
climbing 1866
infringement 1866
Teaching 1865
highways 1865
jpg 1864
р@@ 1864
traditions 1864
asting 1864
upright 1864
liberals 1863
households 1863
tre 1863
ira 1863
5000 1863
Pee 1863
SW@@ 1862
ren 1862
tism 1862
kan 1861
fts 1861
ounces 1861
่@@ 1861
recessive 1861
negotiate 1860
rag@@ 1860
menstrual 1860
rendered 1860
some@@ 1859
hardest 1859
Plug 1859
Minutes 1859
Kelly 1859
Survive 1859
disable 1859
developments 1858
Bay@@ 1858
definite 1858
migraine 1858
Cs 1857
probable 1857
districts 1857
sci@@ 1857
Format 1857
SHO@@ 1856
pools 1856
parasites 1856
ο@@ 1856
τ@@ 1856
casinos 1855
Guys 1855
240 1855
hired 1855
warranty 1855
ela 1854
complaint 1853
Codes 1853
Signal 1853
sexuality 1853
russia 1852
Ted 1852
ens@@ 1852
mushrooms 1852
hedge 1851
ented 1851
coloured 1851
Rob 1851
Homes 1851
satisfy 1850
accessed 1850
Hip 1850
sessions 1849
Jr. 1849
midnight 1849
buzz 1849
thers 1848
PT 1848
prisons 1848
melts 1848
Boys 1848
ACA 1847
thirty 1847
scars 1847
occasions 1846
Vitamins 1846
asser@@ 1845
scripts 1845
notable 1845
inci@@ 1845
refined 1845
Roo@@ 1844
But@@ 1844
amazon 1844
vo 1844
whatsoever 1844
abundant 1844
bypass 1844
verbal 1844
1/4 1844
Hil@@ 1843
defence 1843
bucks 1843
nutrient 1843
Survival 1843
nbsp 1843
unclear 1842
martial 1842
Everyday 1841
newspapers 1841
featuring 1841
authorized 1841
lau@@ 1841
sucked 1841
125 1840
appointed 1840
ective 1840
ark 1840
्@@ 1840
night@@ 1840
quar@@ 1839
Law@@ 1839
Oven 1839
mileage 1839
occasion 1838
tomato 1838
rever@@ 1838
eks 1838
Likewise 1838
tun@@ 1838
yo@@ 1838
Keyboard 1838
Co. 1838
peppers 1838
Hack 1837
dwarf 1837
ence@@ 1836
penalties 1836
spaced 1836
acknowledge 1836
stand@@ 1836
lover 1836
Damage 1836
peers 1835
fate 1835
Task 1835
Kentucky 1835
expertise 1835
norm@@ 1835
shipped 1834
Allen 1834
ello 1834
Ner@@ 1834
integrity 1834
PIN 1834
coc@@ 1834
AND@@ 1834
cel@@ 1834
engagement 1834
trails 1834
pond 1833
LOT 1833
fers 1833
potassium 1832
suspension 1832
conducting 1832
OS@@ 1831
adventure 1831
BI@@ 1831
Tam@@ 1831
winners 1831
blindness 1830
Hay@@ 1829
sou@@ 1829
sta 1829
vanilla 1829
evaluation 1828
Cruise 1828
Toys 1828
External 1827
Mouse 1827
sound@@ 1827
inability 1827
maxim@@ 1826
stale 1826
coun@@ 1826
Idea 1826
liable 1826
Treaty 1826
malicious 1826
boots 1826
Cube 1826
Suc@@ 1825
Jun@@ 1825
Adults 1825
aligned 1824
eyelids 1824
Seeing 1823
pes@@ 1823
Fla@@ 1823
HS 1823
px 1823
Stalin 1822
themes 1822
Router 1822
suicidal 1822
ometric 1821
Mic@@ 1821
arr@@ 1821
False 1821
quiz 1821
Him 1821
rods 1821
rides 1820
emerged 1820
cage 1820
Spiders 1820
atten@@ 1820
Throat 1820
Ronald 1819
SQL 1819
dium 1819
richer 1818
Nic@@ 1818
popped 1818
86@@ 1818
ankle 1818
Breakfast 1818
metabolic 1818
ffy 1817
reflecting 1817
Lady 1817
Cast 1817
Balls 1817
Solved 1816
Denmark 1816
Organ@@ 1816
proceed 1816
volcano 1816
crush 1816
observing 1815
hear@@ 1815
Electro@@ 1814
Alabama 1814
council 1814
tian 1814
butterflies 1814
esti@@ 1814
EL 1814
cargo 1814
ann 1813
opponents 1813
Pap@@ 1813
Sig@@ 1813
Virgin 1813
genocide 1812
peri@@ 1812
dging 1812
lian 1812
Discuss 1811
forex 1811
gol@@ 1811
dancing 1811
borrowing 1810
Admin 1810
Assuming 1810
instruc@@ 1809
blacks 1809
Millions 1809
18.@@ 1809
Thanksgiving 1809
zers 1809
ales 1809
Bis@@ 1809
methane 1809
maximize 1808
graphs 1808
hn 1808
t.@@ 1808
pling 1808
Ban 1808
Ad 1808
Tool 1807
Called 1807
Shoes 1807
Cul@@ 1807
Pun@@ 1806
Reform 1806
2.1 1806
cartridge 1806
soldier 1806
puppy 1806
vu 1806
thor@@ 1805
dog@@ 1805
lum@@ 1805
clogged 1805
prolonged 1805
sandwich 1805
Adap@@ 1805
Coin 1804
tioned 1804
nity 1804
Rent 1804
Scandal 1804
exotic 1804
Throughout 1804
ь@@ 1803
PTSD 1803
dosage 1803
lap 1803
podcast 1802
ARY 1802
capitalist 1802
orn 1802
Son@@ 1802
seizure 1802
financially 1801
Assembly 1801
atch 1801
projection 1801
literary 1801
Un 1801
highlight 1801
Worst 1801
DRM 1800
screaming 1800
webs 1800
inputs 1799
Associated 1799
laundering 1799
SMS 1799
soluble 1799
inbreeding 1799
thirst 1799
stuffed 1799
other@@ 1798
spreads 1798
Shell 1798
Prescription 1798
eyebrows 1798
fetus 1798
Optim@@ 1797
sia 1797
anus 1797
alling 1796
vibrating 1796
secured 1796
Giving 1796
secre@@ 1796
Tobacco 1796
SK@@ 1795
ा@@ 1795
wick 1795
Finland 1795
green@@ 1795
Independence 1795
oul@@ 1795
Portuguese 1794
collar 1794
anic 1794
Nam@@ 1793
chi 1793
chlorine 1793
accordingly 1793
iest 1793
vague 1793
cour@@ 1793
ician 1793
genius 1793
Mona 1793
lending 1792
locally 1792
consult 1792
tuning 1791
eline 1791
Reference 1791
pollen 1791
nuclei 1791
thy 1790
focal 1790
Ped@@ 1790
ession 1789
Monster 1789
semen 1789
Atlanta 1789
delivering 1788
Iceland 1788
Success 1788
distinctive 1788
incidents 1787
requested 1787
Firstly 1787
mythology 1787
thing@@ 1786
apo@@ 1786
complaints 1786
Sat@@ 1785
vietnam 1785
blurred 1785
Secrets 1785
sadness 1785
australia 1784
Tickets 1784
tunnels 1784
specially 1783
shifted 1783
accommodate 1783
Nearly 1783
Sab@@ 1783
colon 1783
stock@@ 1782
cheapest 1782
365 1782
Austin 1782
anesthesia 1782
selecting 1781
extraordinary 1781
00:00 1781
Jon 1781
ENTS 1781
hosted 1781
Calculus 1781
17.@@ 1781
Clearly 1780
screws 1780
Miss 1780
Rot@@ 1780
dizziness 1780
commerce 1780
discipline 1779
meetings 1779
reacts 1779
imports 1779
arthritis 1779
distorted 1779
java 1778
Wifi 1778
legacy 1778
inappropriate 1778
african 1778
Ds 1778
BI 1777
Cruz 1777
leagues 1777
parks 1777
Captain 1777
cavities 1777
recovered 1776
optional 1776
wasting 1776
Everybody 1775
Inv@@ 1775
swi@@ 1775
mankind 1775
thickness 1775
german 1774
folk 1774
combining 1774
misconception 1773
attributed 1773
110@@ 1773
OUT 1772
Person@@ 1772
flavored 1772
Cru@@ 1772
Ric@@ 1771
Length 1771
unconstitutional 1770
suc@@ 1770
liberty 1770
Nixon 1770
enting 1770
magical 1770
sometime 1770
Survey 1770
Asp@@ 1770
mit 1769
wiped 1769
resort 1769
posing 1769
P.@@ 1768
ough 1768
Population 1768
filming 1768
warned 1768
sni@@ 1768
democrats 1767
ING@@ 1767
projected 1767
icking 1767
list@@ 1766
inge 1766
Updates 1766
Ton@@ 1766
pp 1765
employ 1765
URL_9 1765
bull 1765
barriers 1765
Bonds 1765
Pandora 1765
confuse 1765
TL@@ 1765
C.@@ 1765
Gran@@ 1765
warmth 1765
copied 1764
withstand 1764
dividing 1764
Mechanical 1764
DAY 1764
1.3 1763
custom@@ 1763
Lie 1763
vertically 1763
WORK 1762
fal@@ 1762
Racing 1762
Deaf 1762
sided 1761
nam@@ 1761
ug@@ 1761
NEWS 1761
E.@@ 1760
Kal@@ 1760
Stem 1760
cousins 1760
Periodic 1760
soy 1760
strangers 1760
Turning 1759
poli@@ 1759
medieval 1759
abo@@ 1759
Forget 1759
onion 1759
nursing 1759
Liberty 1758
FT 1757
Planck 1757
replied 1757
march 1757
inertia 1757
imaging 1756
ared 1756
GIFs 1756
directory 1755
ailing 1755
Paid 1755
pher@@ 1755
break@@ 1755
Importance 1755
diaphragm 1755
battles 1754
ails 1754
participation 1754
Speakers 1754
pus 1754
Clothes 1754
Jimmy 1753
Delivery 1753
fitting 1753
Additional 1752
remembered 1752
N. 1752
,000,000 1752
assisted 1752
grading 1752
stems 1751
understands 1751
illustration 1751
SC 1751
gathered 1751
aser 1751
tomatoes 1751
restrict 1750
devastating 1750
tionary 1749
Dur@@ 1749
dian 1749
Crystal 1749
ico 1748
Frequently 1748
ration@@ 1748
bold 1748
scientifically 1748
symmetry 1748
ecosystem 1748
pel 1748
Trucks 1748
tattoos 1748
eliminating 1747
advocates 1747
scar@@ 1746
ided 1746
lan 1746
tolerate 1746
peroxide 1746
й 1745
irs 1745
backward 1745
cheating 1745
aer@@ 1745
Vari@@ 1745
ia@@ 1745
Fort 1744
я 1743
Worse 1743
encountered 1743
bag@@ 1743
standpoint 1743
Alice 1742
consisting 1742
dash 1742
Putting 1742
invade 1742
shy 1742
affiliate 1742
Concept 1742
Rocket 1742
arc 1742
downs 1741
AMA 1741
feminism 1741
gig@@ 1741
aggression 1741
sonic 1741
Kindle 1740
kings 1740
basket 1740
Thai 1740
Alarm 1740
pig 1740
Vinyl 1739
Materials 1739
geo@@ 1739
advised 1739
iter@@ 1739
mm@@ 1738
dealt 1738
Watching 1738
ignition 1738
Restaurants 1738
Funds 1737
COMP@@ 1737
tackle 1737
compiled 1737
Mississippi 1737
influential 1737
exhibit 1737
Brow@@ 1737
goosebumps 1737
ordering 1736
eled 1736
encyclopedia 1736
Sciencing 1736
Dol@@ 1735
severity 1735
spirits 1735
Films 1735
ibuprofen 1735
deliberately 1734
11th 1734
liber@@ 1734
600@@ 1734
insulation 1734
Album 1733
ghts 1733
95% 1733
Employment 1733
heroes 1733
correction 1732
tiles 1732
astronomy 1732
Guides 1732
Hear 1732
SSL 1732
emic 1732
intersection 1732
intercourse 1732
EDT 1731
nes 1731
casting 1731
violet 1731
hazard 1731
Operation 1730
MENT 1730
Ig@@ 1730
Julian 1730
Anthony 1729
Flint 1729
LL@@ 1729
delivers 1729
antivirus 1729
cinema 1729
collide 1729
Excel 1728
kn@@ 1728
overly 1728
Life@@ 1728
essed 1728
ABOUT 1728
ense 1728
masculine 1727
cus 1727
Louisiana 1727
Comedy 1727
bets 1727
,000@@ 1727
schizophrenia 1727
knives 1727
sums 1726
ي@@ 1726
helicopters 1726
ado@@ 1725
COMM@@ 1725
rotates 1725
oured 1725
Lab@@ 1724
Forward 1724
dressing 1724
ignoring 1724
wa 1724
onions 1724
ary@@ 1723
Resource 1722
lasted 1722
dietary 1722
scra@@ 1722
Flies 1722
Fill 1721
Charger 1721
Ferguson 1721
Alphabet 1721
scissors 1721
Draw 1720
substantially 1720
prosecution 1720
skinny 1720
Above 1720
inflammatory 1720
whoever 1719
var@@ 1719
3.1 1719
dye 1719
Workers 1719
Monsanto 1719
Bir@@ 1719
rey 1718
exchanges 1718
structured 1718
Phoenix 1718
</@@ 1718
Set@@ 1718
Hub 1718
advertisers 1718
thi@@ 1718
filtered 1718
organize 1717
TP 1717
Clouds 1717
Sym@@ 1716
NEVER 1716
Attacks 1716
Critical 1716
outbreak 1716
shootings 1716
Tran@@ 1715
Conservatives 1715
Beijing 1715
Static 1715
Various 1714
creators 1714
offline 1714
sporting 1714
slept 1714
flicker 1714
obligation 1714
IPO 1714
Madison 1713
serv@@ 1713
IV@@ 1713
vaccinated 1713
Goes 1712
balances 1712
quarters 1712
ouse 1712
iles 1712
Thought 1712
receptor 1712
clap 1712
iced 1712
jacket 1712
Converter 1711
minorities 1711
factories 1711
imm@@ 1711
primates 1711
daytime 1711
Vehicles 1711
presidency 1710
chase 1710
psycho@@ 1710
Simon 1709
Victoria 1709
Baking 1709
vegetarian 1709
disturbing 1708
Bos@@ 1708
angs 1708
elbow 1708
ы@@ 1707
Secondly 1707
Considering 1707
targeting 1707
dip 1707
headlights 1707
fireworks 1707
punished 1706
85@@ 1706
hottest 1706
beds 1706
Adderall 1706
Thir@@ 1705
Rs 1705
archive 1705
wi 1705
Fibonacci 1705
lock@@ 1705
Pump 1705
rack 1705
fart 1705
curl 1705
0,@@ 1704
Brothers 1703
fundamentally 1703
ladies 1703
Rare 1702
aver@@ 1702
Eli@@ 1702
retired 1702
Root 1702
ม@@ 1702
muscular 1702
lamps 1702
singularity 1701
75% 1701
1986 1701
transmissions 1701
mortality 1701
seasonal 1701
Recipe 1701
impose 1700
eding 1700
ggle 1700
lacking 1700
Stations 1700
candles 1700
asphalt 1700
designing 1699
pas@@ 1699
transp@@ 1699
thermostat 1699
Sources 1698
Suppose 1698
occurrence 1698
prohibition 1698
Ve@@ 1698
palms 1698
fitted 1698
eas@@ 1697
adaptation 1697
cravings 1697
evaporation 1697
SOPA 1697
Dance 1696
Bull 1696
Atom 1696
dvd 1696
Jerry 1696
WhatsApp 1696
Bike 1696
amer 1695
ACT 1695
performs 1695
slope 1695
salad 1695
adjustment 1694
elephant 1694
problematic 1694
ech 1693
vet@@ 1693
melanin 1693
absorbing 1693
Affairs 1692
ANS 1692
fathers 1692
coupons 1692
advertised 1692
Producer 1692
antidepressants 1692
lier 1691
resolved 1691
bir@@ 1691
fork 1691
Cultural 1691
libraries 1691
delicate 1691
determination 1690
argues 1690
grease 1690
sunscreen 1690
gy@@ 1689
cab@@ 1689
negotiations 1689
conductors 1689
calculating 1689
ities 1689
Neck 1689
Functions 1688
Transportation 1688
prediction 1688
Laden 1687
Shirt 1687
flash@@ 1687
premiums 1687
YES 1687
hz 1687
inbox 1686
p.@@ 1686
programmers 1686
emerge 1686
orph@@ 1686
inserted 1686
wishes 1686
ophobia 1686
specify 1685
Cour@@ 1685
attended 1685
rick 1685
я@@ 1685
su 1685
//@@ 1684
packaged 1684
FIN@@ 1684
Purchase 1684
neighbor 1684
cup@@ 1684
Fighting 1684
dale 1684
replicate 1684
Nom@@ 1684
vodka 1684
COR@@ 1683
nonsense 1683
frustrated 1683
Bol@@ 1683
Ku@@ 1683
headlines 1683
drums 1683
pimple 1683
inventory 1682
erg@@ 1682
otic 1682
D.C. 1682
lism 1682
pirate 1681
challenged 1681
mans 1681
hall 1681
Delta 1681
dominate 1680
Cambridge 1680
ool 1680
Tweet 1680
Ukrainian 1680
liter 1680
comple@@ 1680
poured 1680
premise 1679
LGBT 1679
EP@@ 1679
approve 1679
recognise 1679
NT 1679
rechargeable 1679
there@@ 1678
bizarre 1678
NES 1678
Watts 1678
curves 1678
giants 1678
NHS 1678
excitement 1678
colonial 1678
ว@@ 1678
reflux 1678
anda 1677
participating 1677
Bla@@ 1677
Nation@@ 1677
Turns 1677
bli@@ 1677
Twitch 1677
Marxism 1676
receipt 1676
par 1676
Jane 1676
Cali@@ 1676
Poker 1675
Att@@ 1675
2)@@ 1675
Buddhism 1675
coaches 1675
bos 1675
tap@@ 1675
israel 1675
noon 1675
conclusions 1674
ह@@ 1674
ems 1674
turing 1674
Ms 1674
Activity 1674
class@@ 1673
Ow@@ 1673
Prot@@ 1673
surround 1673
Ey@@ 1673
practicing 1673
Iraqi 1672
TC 1672
Cry 1672
Generator 1671
Ethics 1671
sponsored 1671
Cont@@ 1671
Mun@@ 1671
profession 1671
matched 1671
flooding 1671
Ry@@ 1671
pap@@ 1671
Bitcoins 1670
Taliban 1670
Constitutional 1670
aker 1670
donated 1670
tici@@ 1670
Tape 1669
volumes 1669
tem@@ 1669
hr@@ 1669
10-@@ 1669
toss 1669
Flow 1669
outward 1669
tasty 1669
ere@@ 1669
ape 1669
broader 1668
Groups 1668
lawsuits 1668
evident 1668
ister 1668
hp 1668
drank 1668
perfume 1668
tains 1667
Cin@@ 1667
sighted 1667
distortion 1667
cell@@ 1667
slots 1667
behavioral 1667
Rest@@ 1667
indicating 1667
Ages 1667
M.@@ 1666
ousness 1666
bler 1666
Upon 1666
politician 1666
linux 1665
nurses 1665
Baptist 1665
Yoga 1665
AST 1665
ax 1665
road@@ 1665
Built 1664
Denver 1664
Sir 1664
Ink 1664
wolf 1664
advocate 1663
equi@@ 1663
coalition 1663
duck 1663
herpes 1663
altitudes 1663
Voltage 1662
visibility 1662
wat@@ 1662
Aside 1662
jumped 1662
Portugal 1662
autom@@ 1662
kies 1662
ility 1662
hatred 1662
att 1662
20.@@ 1662
Tilt 1661
і@@ 1661
Bron@@ 1661
1979 1661
ML@@ 1661
licenses 1661
Washing 1661
mb 1660
incorporate 1660
intend 1660
Accounts 1660
Abstract 1660
sig@@ 1660
Minor 1660
retro@@ 1660
triple 1659
Blog@@ 1659
aky 1659
lovers 1659
tle@@ 1658
1969 1658
Vintage 1658
migration 1658
esses 1658
nationwide 1658
HT@@ 1658
EPA 1658
Belt 1658
Arms 1658
Bran@@ 1657
ACT@@ 1657
ism@@ 1657
feeds 1657
tapes 1656
Rol@@ 1656
horizontally 1656
Manhattan 1656
Bus 1656
presumably 1655
Happened 1655
TT@@ 1654
Console 1654
Yemen 1654
teaches 1653
Measure 1653
user@@ 1653
Thr@@ 1653
resolutions 1653
Forest 1653
Ltd. 1653
H.@@ 1652
lecture 1652
stereotypes 1652
Counter 1652
pharmacy 1652
Dick 1651
lef@@ 1651
p. 1651
ال@@ 1651
1200 1651
forehead 1651
Shooting 1651
gent@@ 1650
alignment 1650
Electromagnetic 1650
Beginner 1648
Guardian 1648
doc 1648
Silk 1648
throttle 1648
Saint 1648
Sodium 1648
astronaut 1648
aired 1647
shutdown 1647
Casino 1647
continental 1647
reli@@ 1647
Philadelphia 1647
Starbucks 1647
fiers 1647
compatibility 1647
Lessons 1646
balancing 1646
fortune 1646
Career 1646
Scal@@ 1646
ress@@ 1646
LD 1646
Accounting 1645
poorer 1645
comply 1645
1950s 1645
Corn 1645
persistent 1645
provisions 1645
broker 1644
borne 1644
Roger 1644
unrelated 1644
responds 1644
Disorders 1644
nukes 1644
Frequency 1643
glance 1643
character@@ 1643
Protocol 1643
Cer@@ 1643
Matrix 1643
acies 1643
Outdoor 1642
caring 1642
IB@@ 1642
ful@@ 1641
quoted 1641
singles 1641
wo@@ 1641
Curiosity 1641
°@@ 1641
swap 1640
piss 1640
shire 1640
zen 1640
arch 1640
Edited 1640
chairs 1640
0.5 1640
ticism 1640
arrival 1640
Joint 1640
senate 1639
explicitly 1639
B.@@ 1639
ted@@ 1639
chunk 1639
Profile 1639
transformation 1639
Ale@@ 1639
Gum 1639
spying 1639
portfolio 1638
embarrassed 1638
owing 1638
fol@@ 1638
Factors 1638
Baltimore 1638
Haz@@ 1638
Ann@@ 1638
osphere 1638
timer 1638
tum@@ 1638
eing 1638
ย@@ 1638
arguably 1637
fing 1637
audiences 1637
Unique 1637
mono@@ 1637
0000@@ 1637
Setting 1637
ather@@ 1637
crushed 1636
Losing 1636
UP@@ 1636
Con 1635
ghost 1635
Distance 1635
braking 1635
Chip 1634
overtime 1634
intensive 1634
organisation 1634
.- 1634
abdominal 1634
Celebrity 1634
involuntary 1634
Teacher 1633
retailer 1633
mir@@ 1633
brain@@ 1633
pension 1633
Jennifer 1633
empathy 1633
richest 1632
WHO 1632
rations 1631
licensing 1631
Jeremy 1631
Ubuntu 1631
Load 1631
dick 1631
cleared 1631
deviation 1631
Copper 1631
inating 1631
Cho@@ 1630
bal 1630
clause 1630
tery 1630
irregular 1630
Optical 1630
Colleges 1629
1.0 1629
TED 1629
jam 1629
Worksheet 1629
HR 1629
lick 1629
compelling 1629
Raspberry 1629
Mart 1628
stir 1628
copying 1628
logically 1628
Nagasaki 1628
Calorie 1628
astic 1627
mut@@ 1627
type@@ 1626
Friend 1626
predator 1626
raining 1626
shooter 1626
Rear 1626
shelves 1626
KB 1624
annually 1624
inclined 1624
Dic@@ 1624
fertility 1624
ean 1623
heritage 1623
wood@@ 1623
Illuminati 1623
creepy 1623
Apart 1622
neat 1622
realm 1622
enterprise 1622
bloody 1622
homosexual 1622
coordinate 1622
slit 1622
attorneys 1622
â@@ 1622
Popcorn 1622
ture@@ 1621
fifty 1621
chem@@ 1621
smo@@ 1621
icky 1621
lev@@ 1621
Geneva 1621
venture 1620
aur@@ 1620
на@@ 1620
Trailer 1620
communicating 1620
Bad@@ 1620
carb 1620
Dan@@ 1620
Anime 1620
refreshing 1620
inexpensive 1619
Analy@@ 1619
encies 1619
Translation 1619
GP 1619
asers 1619
sail 1619
Drunk 1619
worrying 1618
Podcast 1618
mation 1618
PU@@ 1618
Cute 1618
MAT@@ 1618
Enough 1618
mandate 1618
Rain@@ 1618
Knight 1618
softer 1618
braces 1617
assistant 1617
cent@@ 1617
shutting 1616
bie 1616
trafficking 1616
gag 1616
cola 1616
shing 1616
DSL 1616
inferior 1615
defensive 1615
Jen@@ 1615
dialects 1615
Means 1615
s-@@ 1615
64@@ 1614
THEY 1614
favorable 1614
Silent 1614
habitat 1614
whis@@ 1614
[edit 1613
Beatles 1613
conviction 1613
Sof@@ 1613
heights 1613
Conf@@ 1612
progression 1612
umps 1612
round@@ 1612
homemade 1612
Silicon 1612
author@@ 1611
Standing 1611
asylum 1611
exploded 1611
therapist 1611
Wat@@ 1611
Cen@@ 1611
governor 1610
Pull 1610
Lives 1610
colorful 1610
denial 1610
LOW 1609
regulatory 1609
Greeks 1609
Lighting 1609
bending 1609
amplifier 1609
twe@@ 1609
insist 1609
naming 1609
Motors 1608
alternating 1608
confirmation 1608
ago@@ 1608
york 1608
attributes 1608
holocaust 1608
amateur 1608
generators 1608
Settings 1608
Roc@@ 1608
steer 1608
WW@@ 1607
manipulation 1607
Grand@@ 1607
appliance 1607
Calendar 1607
taxpayers 1606
disasters 1606
photosynthesis 1606
Li 1606
Unions 1606
Ther@@ 1606
bush 1606
lifted 1606
OFF 1606
Plan@@ 1606
chloride 1606
Allergy 1606
Bags 1606
es.@@ 1605
fa 1605
threw 1605
ANCE 1605
awhile 1605
":@@ 1605
Cooling 1605
Valve 1605
defl@@ 1604
respon@@ 1604
divisions 1604
©@@ 1604
Status 1604
Hidden 1604
Dial@@ 1604
ASE 1604
insomnia 1604
instincts 1604
attitudes 1603
acle 1603
compromised 1603
woods 1603
Gluten 1603
Low@@ 1603
doctrine 1603
preserved 1603
Behavior 1603
predictable 1602
wer 1602
fast@@ 1602
Goo@@ 1602
erection 1602
induction 1601
intact 1601
abused 1601
agricultural 1601
MI 1601
eper 1601
Susan 1600
curse 1600
Maintenance 1600
Phase 1600
occupation 1600
vari@@ 1600
Belgium 1600
Sweat 1600
Headache 1600
MMA 1600
NT@@ 1599
extends 1599
Calls 1599
Domestic 1599
centered 1599
ب@@ 1599
Harris 1598
polarized 1598
idle 1598
nets 1598
breach 1598
jo 1598
folded 1598
phobia 1598
Colour 1598
Annual 1597
Light@@ 1597
Evil 1596
Charging 1596
reporters 1596
wholesale 1595
1960 1595
Hacking 1595
nicely 1595
beams 1595
Clinic 1595
aning 1595
clean@@ 1594
sustained 1594
dude 1594
Jon@@ 1594
LinkedIn 1594
e_@@ 1594
call@@ 1594
Cellular 1594
Agent 1593
Jonathan 1593
Austria 1593
Bat@@ 1593
universally 1592
43@@ 1592
Ghost 1592
itted 1592
metres 1592
juices 1592
ican 1591
adjusting 1591
2.2 1591
radios 1591
nas@@ 1590
xy@@ 1590
drew 1590
helmet 1590
batch 1589
Penny 1589
hollow 1589
Favorite 1589
Sharing 1589
WOR@@ 1589
GL@@ 1589
Pit@@ 1588
Pin 1588
explored 1588
Scheme 1588
tened 1588
WHEN 1588
Nat@@ 1588
Confederate 1588
R.@@ 1588
oping 1587
initi@@ 1587
rat 1587
Ratio 1587
byte 1587
arises 1587
Ps 1587
cia 1587
Liber@@ 1587
Lawyers 1587
ignorant 1586
igh 1586
starving 1586
FC 1586
ل@@ 1586
Landing 1586
Deals 1586
ushing 1586
Bottles 1586
stake 1585
Roth 1585
Logic 1585
median 1584
tou@@ 1584
Limit 1584
gameplay 1584
acquisition 1584
Replace 1584
surgeon 1584
Award 1583
ONS 1583
coaster 1583
Refer@@ 1583
infectious 1583
plaque 1583
elephants 1583
Eff@@ 1582
TSA 1582
Falls 1582
Mach@@ 1582
Jean 1582
artificially 1582
Pot@@ 1582
cc 1582
throws 1581
copyrighted 1581
forests 1581
Inc@@ 1580
Conspiracy 1580
Nowadays 1580
ules 1580
imported 1580
humid 1580
curiosity 1580
singular 1579
programmer 1579
ame@@ 1579
bies 1579
Ori@@ 1579
ن@@ 1579
Antibiotics 1579
loo@@ 1579
Bag 1579
Dust 1579
lasers 1579
snacks 1579
regi@@ 1578
Parties 1578
**. 1578
aying 1578
suppliers 1578
comfortably 1577
Blo@@ 1577
dou@@ 1577
inter 1577
C-@@ 1577
lowers 1576
aves 1576
xbox 1576
alis 1576
Providers 1575
Nevertheless 1575
Butter 1575
pit@@ 1575
cruel 1575
gia 1575
habitable 1575
tist 1574
desperate 1574
imag@@ 1574
nodes 1574
imbalance 1574
fra@@ 1573
aked 1573
Karma 1573
Sor@@ 1573
crack@@ 1573
mimic 1573
discoveries 1572
Push 1572
hop@@ 1572
autonomous 1572
Rub@@ 1572
sequ@@ 1571
ectors 1571
Strange 1571
Technically 1571
Artists 1571
ล@@ 1571
Personality 1571
traders 1570
Gaza 1570
displaying 1570
oa 1570
surviving 1570
launching 1570
warn 1570
Wo@@ 1570
jum@@ 1570
Patients 1570
Glow 1570
robust 1569
graphy 1569
Default 1569
microsoft 1569
athy 1569
that@@ 1569
Tit@@ 1569
taboo 1569
Imgur 1569
xed 1568
examined 1568
usb 1568
jan 1568
Planes 1568
stamp 1567
offshore 1567
intr@@ 1567
high@@ 1567
enforced 1567
elaborate 1567
Repeat 1567
Big@@ 1567
Neptune 1567
rectangular 1567
4chan 1566
Gol@@ 1566
Cameron 1566
Dope 1566
wel 1566
lightly 1566
Congressional 1565
proving 1565
arrange 1565
Fel@@ 1565
aled 1565
amplitude 1565
pine 1564
favour 1564
ign@@ 1564
Mitt 1564
part@@ 1564
quo@@ 1564
multiplication 1564
horn 1564
forwards 1564
stereotype 1564
asters 1563
invaded 1563
Strike 1563
username 1563
Fore@@ 1563
Mob@@ 1563
submarines 1563
Lottery 1563
Contribu@@ 1562
writ@@ 1562
coll@@ 1562
warnings 1562
Theme 1562
dra 1562
Holiday 1562
stiff 1562
meta 1562
naps 1562
how@@ 1561
Mechanics 1561
ade@@ 1561
authentic 1561
governing 1560
\(@@ 1560
intestine 1560
Graham 1559
clearer 1559
READ 1559
Hypo@@ 1559
herbs 1559
Horror 1559
OLED 1559
sinuses 1559
र@@ 1558
123 1558
formally 1558
thru 1558
Philip 1558
ishes 1558
7-@@ 1558
Atoms 1558
i7 1558
failures 1557
Replacement 1557
y’ 1557
playback 1557
deductible 1557
ง@@ 1557
CDC 1557
Bed@@ 1557
vending 1557
pray 1556
Absolute 1556
Gun@@ 1556
chrome 1556
accountable 1555
Concer@@ 1555
pel@@ 1555
agu@@ 1555
line@@ 1555
Sci 1555
LEDs 1555
runway 1555
Main@@ 1555
scoring 1554
ologically 1554
dim@@ 1554
ety 1554
edible 1554
Businesses 1553
Option 1553
Bin 1553
screening 1553
repairs 1553
tization 1553
figuring 1553
discounts 1553
anded 1553
scattered 1553
epidemic 1553
WA@@ 1553
hung 1553
Satan 1553
rub@@ 1553
Raising 1552
Bath 1552
omes 1552
SY@@ 1552
pinterest 1552
curvature 1552
align 1551
Marx 1551
Tablet 1551
routers 1551
Hoo@@ 1551
exams 1550
blankets 1550
swell 1550
Responses 1549
sufficiently 1549
dn@@ 1549
Gor@@ 1549
Processor 1549
spill 1549
wid@@ 1549
newborn 1549
Hunt 1549
rot 1549
Brands 1549
Phillips 1548
cha 1548
osing 1548
Ponzi 1548
~~@@ 1548
ART 1548
basement 1548
Mir@@ 1547
starter 1547
province 1547
Theft 1547
ด@@ 1547
disks 1547
N.@@ 1546
Sub 1546
ancer 1546
ignorance 1546
rim 1546
seeks 1545
immigrant 1545
birth@@ 1545
publisher 1545
Swimming 1545
sunrise 1545
dless 1544
distress 1544
notation 1544
geographic 1544
Wolf 1544
× 1544
.C. 1544
emission 1544
utilized 1543
Youth 1543
Submit 1543
assi@@ 1543
Beat 1543
testimony 1543
programme 1543
Killer 1543
absurd 1542
contributes 1542
exploit 1542
cla@@ 1542
----@@ 1542
specs 1542
F1 1542
pitches 1542
Healing 1542
harvest 1542
jews 1541
nouns 1541
Jack@@ 1541
bothered 1541
Likes 1540
anks 1540
complaining 1540
rigid 1540
prop@@ 1540
Gordon 1540
itors 1539
Historical 1539
perf@@ 1539
IVE 1539
ags 1539
DM@@ 1539
indi@@ 1539
Scar@@ 1538
view@@ 1538
formulas 1537
ku@@ 1537
plat@@ 1537
Ple@@ 1537
BEST 1537
photographer 1537
rebels 1537
markers 1536
cher@@ 1536
rig@@ 1536
encourages 1536
stranger 1536
Browser 1536
sheer 1536
penetrate 1536
Interestingly 1536
Pour 1536
kel@@ 1536
Boxes 1535
expire 1534
considers 1534
investigating 1534
anniversary 1534
bullshit 1534
Leader 1534
cartridges 1534
NASCAR 1534
citation 1533
Moon@@ 1533
visually 1533
awards 1533
ext@@ 1533
wool 1533
e’ 1533
Guantanamo 1533
TX 1532
ж@@ 1532
audi@@ 1532
eth 1532
graph@@ 1532
Concrete 1532
comics 1532
publishers 1532
fare 1532
Clean@@ 1531
trim 1531
Shock 1531
addressing 1531
phy@@ 1531
Jurassic 1531
gem@@ 1531
ding@@ 1530
े 1530
Markets 1530
irony 1530
Tax@@ 1530
Don 1530
Coloring 1530
Wisdom 1530
jazz 1529
compliance 1529
Mandarin 1529
orted 1529
masks 1529
thermometer 1529
aly 1528
Newsletter 1528
bench 1528
trillions 1528
best@@ 1528
Chronic 1528
wakes 1528
homeopathic 1528
spanish 1527
Describe 1527
750 1527
cues 1527
entrance 1527
Teach 1527
disadvantage 1527
hooked 1526
ITS 1526
↑ 1526
DER 1526
TP@@ 1526
isolation 1526
farts 1526
bait 1526
cooperation 1525
russian 1525
accumulate 1525
stan@@ 1525
CI 1525
hydrate 1525
statute 1524
marketplace 1524
Allow 1524
automobile 1524
atable 1524
akin 1523
gue 1523
Trends 1523
disposable 1523
commentary 1523
Spectrum 1523
oxide 1523
s/@@ 1522
explicit 1522
x86 1522
Peanut 1522
Individual 1522
Publishing 1522
posi@@ 1521
PHP 1520
plea 1520
Catholics 1520
fis@@ 1520
PI 1520
Terrorism 1520
erase 1520
meds 1520
Aw@@ 1519
Born 1519
oranges 1519
boson 1519
ectomy 1519
disappointed 1519
refrigerated 1519
fallacy 1518
Javascript 1518
embarrassing 1518
Quite 1518
59@@ 1518
drove 1518
achieving 1518
haha 1518
tipping 1518
spir@@ 1517
dominance 1517
Pocket 1517
gence 1516
censored 1516
Platform 1516
iss@@ 1516
ky@@ 1516
counties 1516
feces 1516
Bail 1516
fix@@ 1515
poem 1515
zi 1515
Hindi 1515
BP 1515
Dollars 1515
flashlight 1515
bind 1515
armor 1515
webpage 1514
cubic 1514
Particle 1514
Heads 1514
runner 1514
Ay@@ 1514
dism@@ 1514
firearm 1514
D.@@ 1514
Stainless 1514
affir@@ 1514
1929 1513
Amy 1513
leaking 1513
hes@@ 1513
Luckily 1513
Collider 1513
Restaurant 1513
’S 1513
Rest 1513
स@@ 1513
deprivation 1512
Alert 1512
Monthly 1512
chooses 1512
strokes 1512
Franklin 1512
Aluminum 1512
ural 1512
cliff 1512
Offer 1511
cycling 1511
scri@@ 1511
bonding 1511
CBD 1511
в 1510
Eng@@ 1510
announce 1509
repel 1509
ре@@ 1509
stering 1509
Fisher 1509
Request 1509
grinding 1509
Loading 1509
buzzing 1509
sacrifice 1509
firmly 1509
violations 1508
Com 1508
itary 1508
scanner 1508
e(@@ 1508
<@@ 1508
lesbian 1508
borrowed 1507
tation 1507
Accident 1507
provision 1507
omet@@ 1507
feathers 1507
vas@@ 1507
Pregnant 1507
vis 1507
toothbrush 1507
facilitate 1506
ripe 1506
>. 1506
ireland 1506
gi 1506
eters 1506
Absolutely 1506
graphical 1506
collapsed 1505
FT@@ 1505
Direc@@ 1505
Dil@@ 1505
nig@@ 1505
oner 1505
Known 1504
CAR@@ 1504
Andy 1504
initiative 1504
stall 1504
ome@@ 1504
09:@@ 1504
Bus@@ 1503
Fuck 1503
profound 1503
Operations 1503
neuron 1503
introducing 1502
Columbus 1502
stamps 1502
Tongue 1502
Dal@@ 1502
Wol@@ 1502
butterfly 1501
coupled 1501
HA 1501
FF@@ 1501
Cyber 1501
vents 1501
fications 1501
Hunter 1501
Supplements 1501
oxy@@ 1501
vowel 1501
marriages 1501
intolerance 1501
Ship 1500
energetic 1500
Serial 1500
1920 1500
noting 1500
ota 1500
vectors 1500
counterfeit 1500
Closed 1500
Wells 1500
tec 1500
Frame 1500
atively 1499
Keywords 1499
vastly 1499
ATED 1499
Material 1499
chemically 1499
door@@ 1498
volt 1498
solo 1498
SR@@ 1498
flames 1498
odors 1498
propeller 1498
spices 1497
rival 1497
toast 1497
molten 1497
keyboards 1497
sequences 1496
invent 1496
Kat@@ 1496
gues 1496
vul@@ 1496
thyroid 1496
Plate 1496
ó@@ 1496
museum 1496
sweeteners 1496
ul 1495
bel 1495
stunning 1495
Chess 1495
Bot@@ 1495
ub 1495
MacBook 1495
Relations 1494
Linear 1494
BS@@ 1494
tification 1494
Opening 1494
Cigarette 1494
Suddenly 1493
demonstrates 1493
1972 1493
ribs 1493
Blogs 1493
shortest 1493
Lenses 1493
Patient 1492
illustrate 1492
INGS 1492
Loud 1492
revenues 1491
vintage 1491
polish 1491
acet@@ 1491
Goldman 1490
ov 1490
Fair@@ 1490
openly 1490
ROM 1490
yan 1490
anatomy 1490
inject 1490
machinery 1489
smith 1489
Grass 1489
artistic 1489
Sharp 1489
drilling 1489
favorites 1489
fresh@@ 1489
sounded 1489
Comple@@ 1489
elevation 1489
Database 1488
transferring 1488
plac@@ 1488
essing 1488
encouraging 1488
Statement 1488
Federation 1488
cum@@ 1488
fluorescent 1487
poetry 1487
Tennis 1487
ya@@ 1487
goat 1487
Le 1487
Ingredients 1487
GPUs 1487
hallucinations 1487
Correct 1486
constitutes 1486
who@@ 1486
mines 1486
Shor@@ 1486
aux 1486
elastic 1486
nostrils 1486
persuasive 1485
aga 1485
outright 1485
Bru@@ 1485
itating 1485
Howard 1484
fet@@ 1484
Indic@@ 1484
careers 1484
Tan@@ 1484
aver 1484
Leaf 1484
nomination 1483
kicks 1483
Luc@@ 1483
Sci@@ 1483
gland 1483
sci 1483
smoker 1483
genders 1483
Scratch 1483
feasible 1482
1900 1482
Ultimately 1482
Postby 1482
thirds 1482
Shape 1482
nia 1482
runners 1482
1s 1482
terminology 1482
sine 1482
activation 1482
britain 1481
Identify 1481
assign 1481
ASS@@ 1481
orth@@ 1481
offenders 1481
ADD 1481
Arthur 1480
volatile 1480
fuzzy 1480
tragedy 1480
sucking 1480
kl@@ 1480
J.@@ 1480
fat@@ 1480
comprised 1480
Workout 1480
Rab@@ 1480
crashed 1479
Architecture 1479
24/7 1479
lac@@ 1479
freshwater 1479
onom@@ 1478
fool 1478
hunter 1478
Bom@@ 1478
IST@@ 1478
Speak 1478
Hire 1478
Crimes 1478
primitive 1478
translates 1478
Screen@@ 1478
bian 1478
artwork 1478
Teachers 1478
eta 1477
credited 1477
researcher 1477
79@@ 1477
Quiz 1477
Disc 1477
ORY 1476
1988 1476
donors 1476
reporter 1476
Potter 1476
defeated 1476
anyways 1476
|| 1476
burgers 1476
Sink 1476
Sticker 1476
OD 1475
thermodynamics 1475
rust 1475
hyp@@ 1475
congressional 1474
tex 1474
connector 1474
Gene 1474
feat 1474
antibacterial 1473
updating 1473
combines 1473
Unlimited 1473
pointer 1473
Viol@@ 1473
Rainbow 1473
sies 1473
Standards 1472
paycheck 1472
plausible 1472
maintains 1472
Desert 1472
lah 1472
ginger 1472
Encryption 1471
Arti@@ 1471
korea 1471
Faith 1471
MC 1471
Art@@ 1471
sampling 1471
onia 1471
marker 1471
Dy@@ 1470
nel 1470
c. 1470
Catch 1470
scanning 1470
b.@@ 1470
eter@@ 1470
exterior 1470
Hop 1470
reminder 1470
cement 1470
Pos@@ 1469
ango 1469
assumes 1469
bats 1469
Emer@@ 1469
overlap 1469
crashing 1469
Ele@@ 1469
heart@@ 1468
ett 1468
Anderson 1468
ection@@ 1468
promising 1468
Lon@@ 1468
routinely 1468
cardiac 1468
stigma 1468
transformed 1467
obligations 1467
gin 1467
CM@@ 1467
microscopic 1467
frustration 1467
brackets 1466
contra@@ 1466
Hadron 1466
felony 1466
respected 1466
circumference 1465
documentation 1465
arrives 1465
extracted 1465
Bonus 1465
elevated 1465
tornadoes 1465
transparency 1465
Torque 1465
rest@@ 1464
ancestry 1464
verbs 1464
stom@@ 1464
squares 1464
witnesses 1464
opia 1463
shitty 1463
Gen 1463
lex 1463
Sep@@ 1462
Huge 1462
scholars 1462
appeals 1462
fracking 1462
genitals 1462
Tennessee 1461
embrace 1461
dependence 1461
acoustic 1461
Psycho@@ 1461
lex@@ 1461
KE 1461
prote@@ 1461
Models 1461
Pills 1461
Lack 1461
marrow 1461
pores 1460
USE 1460
Legends 1460
flashes 1460
Oral 1460
Revenue 1459
uting 1459
jumps 1459
Region 1459
Resistance 1459
clicks 1459
transmitter 1459
Kra@@ 1458
cardio 1458
enders 1457
Inc 1457
Registered 1457
ght 1457
ik@@ 1457
Houses 1457
cing 1457
broadcasting 1457
Kid 1457
Breathing 1457
niche 1456
master@@ 1456
mug 1456
subatomic 1456
coupon 1456
dam 1456
ight 1455
2018@@ 1455
ARS 1455
fructose 1455
Conditioner 1454
Colon@@ 1454
ents@@ 1454
neo 1454
01:@@ 1454
Shadow 1454
ni 1454
Palestinians 1454
pra@@ 1454
)(@@ 1454
Biggest 1454
colds 1454
launches 1454
Cuts 1453
genuinely 1453
Odds 1453
remotely 1453
mistaken 1453
supermarket 1453
enamel 1453
Testament 1453
cite 1452
Purple 1452
agged 1452
england 1452
detergent 1452
30,000 1452
ε@@ 1452
nickel 1452
hypothetical 1451
Wonder 1451
wonders 1451
TI 1451
dB 1451
mid-@@ 1450
1950 1450
puppies 1450
Engineer 1450
Pain@@ 1450
.#@@ 1450
microscope 1450
packing 1449
Cases 1449
cease 1449
220 1449
NY@@ 1449
Fruits 1449
profiles 1448
ials 1448
exam@@ 1448
drip 1448
dd 1448
ection 1447
Son 1447
Arkansas 1447
BMW 1447
izers 1447
abundance 1447
hurricanes 1447
nucle@@ 1447
screwed 1446
mass@@ 1446
accordance 1446
Mig@@ 1446
tions@@ 1446
Cape 1446
Duck 1446
NS@@ 1446
flammable 1446
jer@@ 1445
california 1445
breeze 1445
ez@@ 1445
Pel@@ 1445
tuna 1445
Torrents 1444
т 1444
Perry 1444
HDTV 1444
von 1444
Heidi 1444
respiration 1444
primaries 1443
Divi@@ 1443
Border 1443
Mid 1443
Chewing 1443
predic@@ 1442
taxation 1442
Paying 1442
sco@@ 1442
Adapter 1442
leaning 1442
quarks 1442
mist@@ 1442
precipitation 1442
brew 1442
Beta 1441
optimization 1441
angled 1441
canadian 1441
Latino 1441
merchant 1441
cover@@ 1441
Fever 1441
sciences 1440
defending 1440
organisations 1440
Sean 1440
shuts 1440
gasses 1440
watermelon 1440
journalist 1439
reportedly 1439
psychologist 1439
dge@@ 1439
fluctuate 1439
illi@@ 1439
Cracking 1439
Tokyo 1438
Aaron 1438
HS@@ 1438
Maker 1438
ald 1438
sper@@ 1438
Miles 1438
craving 1438
Prior 1438
latitude 1438
dna 1438
64-bit 1437
gal 1437
spice 1437
starch 1437
onset 1437
fictional 1437
bouncing 1437
Long@@ 1437
Alien 1437
rifles 1437
Sand 1437
Properties 1436
worthless 1436
Jam@@ 1436
cros@@ 1436
Whereas 1436
pupil 1436
itch@@ 1435
researching 1435
King@@ 1435
parliamentary 1435
Mystery 1435
Bun@@ 1435
trajectory 1435
Opera 1435
lever 1435
Scam 1435
08:@@ 1435
unfortunate 1435
1.4 1434
Brief 1434
registry 1434
Africans 1434
mach@@ 1434
tize 1434
conception 1434
Wind@@ 1434
beaches 1434
moths 1434
homeopathy 1434
inevitably 1433
Expect 1433
alled 1433
Bass 1433
Bec@@ 1433
VER 1433
hats 1433
rubs 1432
coordinates 1432
ан@@ 1432
soaps 1432
ZIP 1432
2.4 1432
105 1431
Furniture 1431
cricket 1431
microbes 1431
incest 1431
MATTER 1431
Collins 1430
nes@@ 1430
Ble@@ 1430
Amps 1430
Chase 1430
ebay 1430
pubic 1430
springs 1430
hydraulic 1430
ANT 1430
Khan 1429
kh@@ 1429
thorough 1429
ACE 1429
Dimension 1429
Shuttle 1429
contractors 1429
inmates 1429
masturbation 1429
terrain 1429
probes 1429
cast@@ 1429
Facial 1429
Investig@@ 1428
Jan. 1428
nationalism 1428
Thunder 1428
76@@ 1428
REAL 1428
inging 1428
imagery 1428
celebrated 1428
Rh@@ 1428
Costs 1427
comment@@ 1427
grounded 1427
Lucid 1427
spaceship 1427
Retail 1426
Sher@@ 1426
pitcher 1426
Bee 1426
poo 1426
Jury 1426
sideways 1426
greens 1426
ค@@ 1426
evaporates 1426
Sprint 1426
Fighter 1426
legalize 1425
Ppt 1425
cir@@ 1425
Clinical 1425
sugary 1425
contamination 1425
Ants 1425
ook 1424
MIT 1424
partisan 1424
controllers 1424
yields 1424
Exposure 1424
ories 1424
wears 1424
Xautoman 1424
corrected 1423
aint 1423
flaws 1423
cortex 1423
worksheet 1423
integer 1423
Exercises 1423
impacted 1423
Braille 1423
Ze@@ 1422
folding 1422
flew 1422
CERN 1422
Scientist 1422
ece 1422
pleased 1421
Gel 1421
Skills 1421
Bil@@ 1421
Flickr 1421
reliability 1421
Rape 1421
shiver 1421
physi@@ 1421
chlor@@ 1421
Authority 1420
Maine 1420
Hero 1420
vap@@ 1420
ALI@@ 1420
unaware 1420
blood@@ 1419
Levels 1419
Wright 1419
1987 1419
uniforms 1419
protocols 1418
Processing 1418
teenager 1418
Counting 1418
snoring 1418
Wealth 1417
Potential 1417
mur@@ 1417
reck@@ 1417
epic 1417
Esc@@ 1417
Voter 1417
eu 1417
NSFW 1417
additives 1416
sixth 1416
ital@@ 1416
futures 1416
grave 1416
kicking 1416
oses 1416
Princess 1416
lized 1416
box@@ 1416
Lum@@ 1416
Cables 1416
ght@@ 1415
Adams 1415
mes 1415
iPhones 1415
advertisement 1415
Buffalo 1415
supplier 1415
melody 1415
25th 1415
inten@@ 1414
repeal 1414
plic@@ 1414
fleet 1414
salmon 1414
§ 1414
minded 1413
mentions 1413
feder@@ 1413
rev@@ 1413
direc@@ 1413
Robin 1413
factor@@ 1413
breaker 1413
coated 1413
outdated 1413
second@@ 1413
recommends 1413
synthesis 1413
volunteer 1413
cosmetic 1413
messaging 1413
fibre 1413
entries 1412
CSS 1412
gas@@ 1412
alia 1412
shining 1412
OH 1412
custody 1412
Projects 1411
open@@ 1411
Intermediate 1411
BMI 1411
ा 1410
sovereignty 1410
Deep@@ 1410
Var@@ 1410
Universities 1410
Quad@@ 1410
alty 1410
Zimbabwe 1410
ux 1410
pennies 1410
chil@@ 1409
isotopes 1409
Recommended 1409
screen@@ 1409
leman 1409
concentrations 1409
block@@ 1409
paper@@ 1409
meteor 1409
cow@@ 1409
ille 1409
exceptional 1409
maths 1408
trump 1408
knob 1408
Pentagon 1408
ambi@@ 1408
Messages 1408
realism 1408
relaxation 1408
alise 1408
ao 1408
rover 1408
lord 1407
preview 1407
excel 1407
cancelled 1407
desires 1407
squint 1407
aping 1406
1985 1406
pos 1406
Failure 1406
Kate 1406
Vancouver 1406
operational 1406
Tiger 1406
mail@@ 1406
barrels 1406
soak 1405
word@@ 1405
unsafe 1405
hil@@ 1405
Avengers 1405
literal 1404
fertile 1404
cheeks 1404
USPS 1404
hates 1404
icy 1404
ρ@@ 1404
bundle 1403
clay 1403
editors 1403
demographic 1403
declined 1403
GRO@@ 1403
Vegetables 1403
lowing 1403
sliding 1403
29.@@ 1403
insult 1403
denominations 1403
alisation 1402
▼ 1402
Documents 1402
anity 1402
Bin@@ 1402
foul 1402
Boy@@ 1402
entertaining 1401
recommendation 1401
IGHT 1401
><@@ 1401
Smo@@ 1401
treadmill 1401
beginners 1400
Flash@@ 1400
article@@ 1400
Festival 1400
admission 1400
WA 1400
neighborhoods 1400
cranes 1400
leverage 1399
establishing 1399
messed 1399
ied 1399
dest 1399
Cav@@ 1399
ñ@@ 1399
heartbeat 1399
oes 1399
Factory 1399
12-@@ 1399
1/3 1398
Hampshire 1398
commented 1398
formations 1398
marking 1398
shar@@ 1398
450 1398
360@@ 1398
crowded 1397
impulses 1397
NI@@ 1397
deflation 1396
entation 1396
ffer@@ 1396
Determine 1396
Fixed 1396
rh@@ 1396
unity 1396
ler@@ 1396
Curious 1396
detecting 1396
Camp 1396
uns 1396
Occupy 1396
damp 1396
Alliance 1396
FAQs 1395
logs 1395
Algebra 1395
God@@ 1395
interacting 1395
VIS@@ 1395
Genesis 1395
Shut 1395
faulty 1395
asi 1394
1.6 1394
Astro@@ 1394
Veterans 1394
knot 1394
Yesterday 1394
Enterprise 1394
Certainly 1394
Francis 1394
epi@@ 1393
moles 1393
Manchester 1393
Charter 1393
practiced 1392
ls@@ 1392
beginner 1392
gation 1392
Literature 1392
Sus@@ 1392
reas@@ 1392
GTA 1392
Heating 1391
duplicate 1391
320 1391
theirs 1391
colon@@ 1391
Hem@@ 1391
atin 1390
Hat@@ 1390
segments 1390
comb@@ 1390
Galaxies 1390
dialect 1390
Fraud 1389
passionate 1389
invited 1389
cyber@@ 1389
noisy 1389
hrs 1389
Stack 1388
Socialist 1388
acles 1388
deserves 1388
URL_10 1388
bub@@ 1388
Exclusive 1388
00s 1388
merger 1388
suppress 1388
BT 1388
Avenue 1388
listened 1387
Lemon 1387
vable 1387
adap@@ 1387
kits 1387
parti@@ 1387
goats 1387
Celebrities 1387
Brush 1387
je 1387
Semi 1386
plumbing 1386
Rid@@ 1386
fist 1386
Diff@@ 1386
administered 1386
charcoal 1386
hydration 1386
Ever@@ 1385
omy 1385
actu@@ 1385
Spar@@ 1385
activists 1385
Ltd 1385
comet 1385
){@@ 1385
Chairman 1384
U. 1384
Lithium 1384
Draft 1384
monkey 1384
Quebec 1384
Singing 1384
Night@@ 1384
booking 1384
eves 1383
ints 1383
intentional 1383
89@@ 1383
convey 1383
valves 1383
ution 1383
produc@@ 1383
textures 1383
Retirement 1382
ь 1382
musician 1382
orb@@ 1382
disabilities 1382
pass@@ 1382
transistor 1382
coded 1382
lor@@ 1382
Bud@@ 1381
magnetism 1381
Ah 1381
shocking 1381
Abraham 1381
Mayweather 1381
1800 1380
grants 1380
Breathe 1380
Falcon 1380
Sho@@ 1379
w/ 1379
ejaculation 1379
bud@@ 1379
Cocaine 1379
cardboard 1379
Hybrid 1378
adjustments 1378
LIKE 1378
query 1378
OL 1378
fungi 1378
Characters 1378
zo 1378
Cart 1378
Canc@@ 1378
impaired 1378
ambulance 1378
cringe 1377
mand@@ 1377
BB 1377
stal@@ 1377
whit@@ 1377
executives 1377
automation 1376
Entry 1376
Mad 1376
educate 1376
spatial 1376
Tonight 1376
chunks 1376
Deposit 1376
Nokia 1376
reci@@ 1375
personalities 1375
Tw@@ 1375
Rising 1375
trailers 1375
kil@@ 1375
Bright 1375
cockroaches 1375
HOME 1374
flawed 1374
hail 1374
Listening 1374
guided 1374
Pil@@ 1374
seas 1374
Fir@@ 1373
Coo@@ 1373
commodities 1373
cryptocurrency 1373
AI@@ 1373
tain@@ 1373
anta 1373
slippery 1373
Massage 1373
Buzz@@ 1373
devil 1373
Finger 1373
mouthwash 1372
cin@@ 1372
allegedly 1372
==@@ 1372
slices 1372
blinking 1372
deployed 1372
dial@@ 1372
als@@ 1372
pric@@ 1372
uterus 1372
intern@@ 1371
Share@@ 1371
moistur@@ 1371
meaningless 1371
−@@ 1371
Sou@@ 1371
Martial 1371
Keystone 1371
maj@@ 1371
,’ 1371
Chips 1371
Nelson 1370
Color@@ 1370
harassment 1370
Wal 1370
Fifth 1370
subway 1370
Sea@@ 1370
weekends 1370
hipster 1370
IO@@ 1369
lacks 1369
izz@@ 1369
prompt 1369
mun@@ 1369
prisoner 1369
permits 1368
2017@@ 1368
ucks 1368
wers 1368
One@@ 1368
Vatican 1368
bean 1368
MPH 1368
Superman 1368
inverse 1367
ELL 1367
investigations 1367
separ@@ 1367
prostate 1367
16:@@ 1367
dear 1367
LAN 1367
Required 1367
stream@@ 1367
harmony 1366
recur@@ 1366
mas 1366
crum@@ 1366
Studios 1366
XX@@ 1366
extensions 1366
ISM 1366
Jokes 1366
foster 1365
Recycling 1365
Degrees 1365
Upper 1365
symmetrical 1365
swipe 1364
unsure 1364
insured 1364
attachment 1364
nick@@ 1364
encoded 1364
Carter 1364
Compression 1364
Chain 1363
Messenger 1363
world@@ 1363
Lot 1363
hype 1363
maturity 1363
erie 1363
Lau@@ 1363
turbo 1363
wines 1363
snot 1363
obtaining 1362
bos@@ 1362
lime 1362
bn 1362
discrete 1362
Sing 1362
mesh 1362
oath 1362
vert 1362
fucked 1361
hyper 1361
idation 1361
Conservation 1361
MO 1361
Itch 1361
tweet 1360
fasting 1360
seized 1360
underwear 1360
bruise 1360
Dank 1360
steep 1359
icked 1359
Fat@@ 1359
Uploaded 1359
occup@@ 1359
customs 1359
arti@@ 1359
Distribution 1358
Hosting 1358
nish 1358
adjacent 1358
ALLY 1358
Pot 1358
Quick@@ 1358
transported 1358
ballistic 1358
agon 1358
waist 1358
artery 1358
mobility 1358
curriculum 1357
Treatments 1357
chan@@ 1357
SEE 1357
safest 1357
Armstrong 1357
tongues 1357
tiger 1357
1983 1356
linking 1356
slim 1356
unemployed 1356
Cotton 1356
verdict 1356
crawl 1355
CPR 1355
GM@@ 1354
objectives 1354
endings 1354
theatre 1354
Volkswagen 1354
Units 1353
Eight 1353
clearing 1353
ja@@ 1353
Neo 1353
enabling 1353
catholic 1353
reminds 1353
gated 1353
vaginal 1353
protesters 1352
here@@ 1352
NCAA 1352
scents 1352
Raise 1352
erc@@ 1352
lint 1352
ope 1351
[/@@ 1351
OT@@ 1351
cartels 1351
Video@@ 1351
smen 1351
sne@@ 1351
Aug. 1351
child@@ 1351
positioned 1351
Tracking 1351
Myths 1350
Cock@@ 1350
Grammar 1350
simulate 1350
Chem@@ 1350
incorrectly 1350
dressed 1350
administrative 1349
trades 1349
Survi@@ 1349
justification 1349
athletic 1349
asted 1349
Ticket 1349
Mega 1349
integrate 1348
Haw@@ 1348
suffers 1348
assassination 1348
conjunction 1348
Item 1348
sinking 1348
cattle 1348
oily 1348
turbulence 1348
crane 1348
hunters 1348
suing 1347
downside 1347
IMF 1347
Greatest 1347
forc@@ 1347
Hide 1347
Luke 1347
Comics 1347
scams 1347
ggy 1347
tinnitus 1347
Mine 1346
rum 1346
shakes 1346
Serv@@ 1346
Pill 1346
Lex@@ 1346
clues 1346
ult 1346
Aut@@ 1346
42@@ 1346
Voices 1346
COUN@@ 1346
beside 1345
morally 1345
unified 1345
Karl 1345
loyal 1345
Cricket 1345
Sco@@ 1345
quad@@ 1345
Mani@@ 1345
talented 1345
Equity 1344
isms 1344
&apos;t 1344
dark@@ 1344
Already 1344
Command 1344
yrs 1344
ida 1344
achievement 1344
exe 1344
petroleum 1344
Lag@@ 1344
magnesium 1344
Greenland 1344
0.00@@ 1343
dings 1343
ddle 1343
devoted 1343
globally 1343
oon 1343
RIGHT 1343
privately 1343
alliance 1343
Friendly 1343
tivism 1343
Airplanes 1343
Ross 1342
ree@@ 1342
spite 1342
wan 1342
Psych@@ 1342
Gmail 1342
descriptions 1342
shorts 1342
Duke 1342
AU 1342
tele@@ 1341
Awareness 1341
patience 1341
separates 1341
GRE@@ 1341
dissertation 1341
Conver@@ 1341
brutal 1340
multiplied 1340
deepest 1340
Fan@@ 1340
torn 1340
arians 1340
BIOS 1340
Cleveland 1339
Ran@@ 1339
lee 1339
Honestly 1339
Const@@ 1339
textbooks 1339
jelly 1339
PI@@ 1339
fluctuations 1339
Pilot 1339
smoother 1339
tual 1338
lec@@ 1338
Assange 1338
Equations 1338
Lion 1338
alkaline 1338
hazardous 1338
sober 1338
NJ 1337
invasive 1337
Equi@@ 1337
vely 1337
-4 1337
rig 1337
listeners 1337
Hamilton 1337
endurance 1337
Poop 1337
Invest 1336
SP 1336
O. 1336
easing 1336
Evol@@ 1336
lightweight 1336
implants 1336
Prof@@ 1335
hassle 1335
Lens 1335
allegations 1335
subsequently 1335
Missing 1335
PowerPoint 1335
Lastly 1335
comprehend 1335
arily 1335
Generic 1335
ISH 1335
aspirin 1334
ive 1334
Tiny 1334
caution 1334
coff@@ 1334
Rou@@ 1334
manned 1334
esophagus 1334
chang@@ 1334
dged 1334
axes 1334
stretches 1334
wore 1334
neurotransmitters 1334
VC 1333
CLO@@ 1333
blur@@ 1333
QR 1333
999 1333
Diamonds 1333
itis 1333
scratched 1333
yms 1332
lawmakers 1332
Cir@@ 1332
traps 1332
perpendicular 1332
demonstration 1332
Lawrence 1332
Geographic 1332
gifs 1332
Polar 1332
bipolar 1332
complic@@ 1331
xx 1331
Pitch 1331
SER@@ 1331
69@@ 1331
filtering 1331
Armed 1331
house@@ 1331
Contrac@@ 1331
frost 1331
Lecture 1330
realizing 1330
appreciation 1330
bans 1330
Ken 1330
Proper 1330
Soul 1330
folds 1330
binge 1330
stag@@ 1329
dep@@ 1329
Equal 1329
hl 1329
6,000 1329
Tires 1329
Tattoos 1329
echo@@ 1328
Appro@@ 1328
promoted 1328
rists 1328
ysis 1328
internationally 1328
texting 1328
Toy 1328
saltwater 1328
geography 1327
grace 1327
occupy 1327
addicts 1327
professors 1327
cheek 1327
zen@@ 1327
02:@@ 1326
pec@@ 1326
Networking 1326
journalism 1326
aa 1326
Plu@@ 1326
moon@@ 1326
ت@@ 1326
convincing 1326
affair 1326
Suff@@ 1326
tabs 1325
Larry 1325
Emotional 1325
eck 1325
Titan 1325
cad@@ 1325
Assault 1325
WATCH 1325
ual 1324
UI 1324
Creation 1324
cum 1324
uts 1323
icker 1323
discriminate 1323
modeling 1323
Hunger 1323
attending 1323
Thermal 1323
Rad@@ 1323
questioning 1323
opathy 1323
Genocide 1323
Infinite 1323
cakes 1323
Oliver 1322
Matters 1322
yearly 1322
Doc@@ 1322
Anne 1322
CK@@ 1322
liking 1322
c.@@ 1322
Cap 1322
Hebrew 1322
denying 1322
folders 1322
arities 1321
Leg 1321
blisters 1321
Unix 1320
ESS@@ 1320
loops 1320
rocky 1320
Gross 1320
Mirrors 1320
Specific 1320
obama 1319
donating 1319
halfway 1319
Athletes 1319
Lakes 1319
engineered 1319
60fps 1319
Kel@@ 1318
recognizes 1318
bid@@ 1318
Ec@@ 1318
Mes@@ 1318
Check@@ 1318
DP 1318
gon@@ 1318
Andromeda 1318
dex 1318
Radar 1318
proximity 1318
een 1317
4000 1317
Ratings 1317
4,000 1317
raid 1317
polling 1317
ND@@ 1317
\"@@ 1317
Interior 1317
coincidence 1317
i5 1317
suspicious 1316
teenage 1316
Dynamic 1316
decom@@ 1316
bursts 1316
prayer 1316
Animated 1316
Takes 1315
incentives 1315
Quit 1315
worries 1315
Vel@@ 1315
completing 1315
dol 1315
scroll 1315
Bigger 1315
tribe 1314
Bones 1314
antennas 1314
Wallpaper 1314
Sul@@ 1314
fountain 1314
Shake 1313
thermo@@ 1313
specifications 1313
nazi 1313
Comparing 1313
Piece 1313
Underwater 1313
Vladimir 1313
Potato 1313
Imperial 1312
TCP 1312
eries 1312
Cyber@@ 1312
kettle 1312
McDonalds 1311
sional 1311
د@@ 1311
à 1311
crisp 1311
shoots 1311
clinic 1311
turtles 1311
heaters 1311
assured 1310
aiming 1310
orized 1310
assing 1310
Wing 1310
osa 1310
Snow@@ 1309
definitive 1309
rants 1309
efully 1309
Gig@@ 1309
take@@ 1309
violated 1309
promotes 1309
prescribe 1309
Wise 1309
By@@ 1308
TF@@ 1308
eded 1308
prejudice 1308
duction 1308
15:@@ 1308
Swift 1308
Pound 1308
ITE 1308
mixes 1308
painkillers 1308
indicators 1307
Split 1307
har 1307
Centers 1307
Tumblr 1307
mos 1307
rail@@ 1307
surveys 1306
Done 1306
Fiscal 1306
whe@@ 1306
HDR 1306
Piano 1306
multiplayer 1306
xing 1306
toddler 1306
toaster 1306
Of@@ 1305
homeowners 1305
hes 1305
aki 1305
textbook 1305
hierarchy 1305
0/@@ 1305
Econom@@ 1305
mies 1304
Russell 1304
С@@ 1304
Ah@@ 1304
bust 1304
^(@@ 1304
explores 1304
Burger 1304
scre@@ 1304
depths 1304
noodles 1304
circum@@ 1303
WWI 1303
ancing 1303
assure 1303
elli 1303
numbered 1303
headset 1303
ackers 1302
Gil@@ 1302
scans 1302
adv@@ 1302
vor@@ 1302
Phil 1302
compressor 1302
Explanation 1301
MON@@ 1301
devi@@ 1301
Lan@@ 1301
ship@@ 1301
catastrophic 1301
Kon@@ 1301
visualize 1301
eving 1301
Py@@ 1301
doubled 1300
osity 1300
GA@@ 1300
sat@@ 1300
altering 1300
mornings 1300
Commerce 1299
Crown 1299
simplify 1299
Match 1299
Gall@@ 1299
95@@ 1299
Any@@ 1299
ส@@ 1299
Headaches 1299
Mosquito 1299
Minute 1298
happier 1298
biography 1298
tended 1298
af 1298
legislature 1298
opera 1298
extraction 1298
Relationships 1298
sightedness 1298
construc@@ 1297
DRE@@ 1297
Earlier 1297
Flip 1297
bullying 1297
ema 1297
indigenous 1297
existent 1296
Junk 1296
po 1296
04:@@ 1296
sal 1296
digging 1296
fting 1296
Ministry 1296
navy 1296
Program@@ 1295
ames 1295
Macs 1295
PG 1295
rics 1295
sel 1295
Musical 1295
Anim@@ 1295
crawling 1295
Infrared 1295
78@@ 1294
Kim@@ 1294
WAY 1294
expectation 1294
0.1 1294
Craft 1294
burner 1294
Thousands 1294
terrestrial 1294
ingo 1294
clusters 1294
Pav@@ 1294
uploading 1293
omni@@ 1293
courage 1293
shakespeare 1293
ament 1293
OT 1292
intentions 1292
lenders 1292
stimulated 1292
Stanford 1292
Bou@@ 1292
illed 1292
Dro@@ 1292
hiroshima 1292
emen 1291
mapping 1291
locker 1291
Dreaming 1291
retention 1290
gur@@ 1290
reforms 1290
Dat@@ 1290
stepped 1290
CAD 1290
س@@ 1290
Pearl 1290
MAC 1289
accustomed 1289
intermediate 1289
accessing 1289
Jeffrey 1289
Employee 1289
fixes 1289
Selection 1289
Lob@@ 1289
Wiki@@ 1289
Powerful 1289
diagnose 1289
nudity 1289
albeit 1288
amm@@ 1288
INTER@@ 1288
tening 1288
finances 1288
Assistant 1288
Position 1288
Character 1288
gravit@@ 1288
aj@@ 1288
anny 1288
Permanent 1288
this@@ 1287
divisible 1287
Maj@@ 1287
Doors 1287
bedtime 1287
sorted 1286
deodorant 1286
Volts 1286
BA@@ 1286
imperative 1286
TRE@@ 1286
cling 1286
tha 1286
hormonal 1286
Break@@ 1286
irrit@@ 1286
yr 1286
manages 1285
dividends 1285
contracting 1285
Dawn 1285
notably 1285
fractions 1285
breaths 1285
adulthood 1285
Genetically 1285
flare 1285
Get@@ 1284
Renewable 1284
utilities 1284
Tut@@ 1284
connectivity 1284
sanitizer 1284
LIVES 1284
influenza 1284
mud 1283
è@@ 1283
performances 1283
ebook 1283
inaccurate 1283
appropriately 1283
Divorce 1283
bake 1283
Connecticut 1282
tural 1282
wrestling 1282
immense 1282
memor@@ 1282
iter 1282
rum@@ 1282
collisions 1282
Metro 1281
07:@@ 1281
parole 1281
uation 1281
hike 1281
delays 1281
itters 1281
Pir@@ 1281
wet@@ 1281
Employees 1280
Powers 1280
stadium 1280
Collapse 1280
`s 1280
Rac@@ 1280
interrupted 1280
integers 1280
eon 1280
Legs 1280
shrimp 1280
Allahu 1280
ud 1279
Cent@@ 1279
outlook 1279
Euro@@ 1279
short@@ 1279
UD 1279
idiot 1279
ogue 1279
troubles 1279
Tes@@ 1279
valley 1279
Urine 1279
hypno@@ 1279
databases 1278
residence 1278
lender 1278
20/@@ 1278
dictator 1278
lubric@@ 1278
batter 1278
bac@@ 1278
Josh 1278
Attracted 1278
Powder 1278
touch@@ 1277
informative 1277
Stanley 1277
pick@@ 1277
vapor@@ 1277
Missile 1277
Smartphone 1277
sockets 1277
gangs 1277
stum@@ 1277
UT 1277
eci@@ 1277
violating 1277
symbolic 1276
1982 1276
prob@@ 1276
chemotherapy 1276
ramp 1276
internally 1276
Highest 1276
Shark 1275
able@@ 1275
understandable 1275
scrip@@ 1275
AA@@ 1275
Oracle 1275
founding 1275
ig 1275
migrate 1275
20s 1275
Path@@ 1275
Rescue 1275
VI 1275
gly@@ 1275
crimin@@ 1274
INT@@ 1274
que@@ 1274
murdered 1274
Johnny 1274
imagined 1274
recharge 1274
grow@@ 1274
ning@@ 1274
deceased 1274
kid@@ 1274
ont 1273
List@@ 1273
obstacles 1273
Stewart 1273
Meal 1273
Birthday 1273
Serious 1273
Row 1273
Sandy 1273
sewage 1272
Walker 1272
pumped 1272
armies 1272
Mediterranean 1272
sterile 1272
Bite 1272
keywords 1271
NA 1271
Laboratory 1271
turbo@@ 1271
Sonic 1271
HELP 1270
inefficient 1270
SF 1270
inspection 1270
phy 1270
plugging 1270
Adventure 1269
Present 1269
drawings 1269
tapping 1269
Downloads 1269
Estab@@ 1269
LL 1269
vocals 1269
Jerusalem 1268
budgets 1268
uous 1268
formerly 1268
was@@ 1268
Dream@@ 1267
debated 1267
Editing 1267
RAID 1267
distilled 1267
extending 1266
rabbit 1266
Greg 1266
termin@@ 1266
modification 1266
public@@ 1266
dragon 1266
tourism 1265
farmer 1265
tactic 1265
SAT 1265
traces 1265
Depends 1264
retrieve 1264
wives 1264
associations 1264
Fab@@ 1264
Gur@@ 1264
sewer 1264
advancement 1264
Parallel 1264
ubs 1264
investigated 1264
hint 1264
Throw 1264
Triangle 1264
verification 1264
Cake 1264
inhi@@ 1264
Technologies 1263
formatting 1263
routing 1263
analysts 1263
ORS 1263
efs 1263
competitor 1263
perceptions 1263
omer@@ 1263
aster@@ 1263
Nick@@ 1263
camouflage 1263
insider 1262
paired 1262
Contents 1262
01/@@ 1261
reminded 1261
uri@@ 1261
medically 1261
pathways 1261
Analog 1261
apper 1261
Rush 1261
tumors 1261
Freezing 1261
न@@ 1260
incomplete 1260
Massive 1260
Installation 1260
104 1260
inking 1260
Marathon 1260
Lift 1260
oot 1260
Dress 1260
mindset 1260
π@@ 1260
tracked 1259
Medieval 1259
ario 1259
iters 1259
Darwin 1259
blin@@ 1259
Laugh 1259
Kom@@ 1258
Transport 1258
crappy 1258
Wr@@ 1258
slang 1258
curly 1258
cpu 1258
Mit@@ 1258
Cognitive 1258
pinch 1258
VP 1258
trunk 1258
hills 1258
03:@@ 1257
deadline 1257
compares 1257
dementia 1257
fragrance 1256
Forms 1256
MAN 1256
BIG 1256
vi 1256
icles 1256
eping 1256
Ski@@ 1256
viagra 1256
Customers 1256
25.@@ 1256
aperture 1256
cardiovascular 1256
terribly 1255
[...]
