, 23053950
the 22968342
. 22362693
to 13643134
of 12301781
and 12080780
a 11192550
<D> 9227784
is 8511995
in 7989464
? 6420883
that 5535604
- 5522846
it 4921790
I 4815338
you 4775517
for 4374665
are 4262558
on 3932120
<B> 3660467
: 3445660
The 3346115
) 3058314
( 2994133
with 2961868
or 2906062
be 2780131
have 2770311
do 2674438
as 2640264
not 2500473
can 2370801
your 2310896
" 2139087
this 2084142
at 2023028
from 1998732
by 1972118
they 1860496
's 1842421
an 1797024
What 1630429
we 1616248
but 1614324
How 1493245
’s 1474445
was 1459349
will 1447889
more 1420038
when 1384762
Why 1381755
all 1339284
my 1323410
what 1314130
about 1274316
n't 1270706
if 1260437
so 1224749
does 1201365
one 1192715
like 1189022
has 1161447
their 1135714
how 1127969
It 1127302
up 1068542
people 1064484
there 1048094
/ 1002788
would 996939
than 992324
A 989539
get 984213
out 973461
<startQuestion> 948280
! 942679
other 942664
time 928686
which 915510
just 897897
| 883061
This 865915
why 849440
some 844617
If 843517
--T-- 830301
In 828698
“ 825187
You 793626
them 792445
our 787647
n’t 769065
... 735173
1 701948
also 700884
know 691296
use 691061
no 688703
only 688601
make 684319
who 673269
” 672284
– 655205
into 650856
most 634209
i 632831
because 632055
been 622117
me 619371
any 616511
2 612085
many 589026
' 587068
much 582555
Is 577990
between 574803
were 572512
Do 567630
its 567256
water 556423
way 548426
may 548142
should 545750
then 544435
And 543941
these 537633
even 537197
work 535238
need 527815
see 524175
We 508730
When 505925
same 503875
over 498516
So 494394
very 489832
could 486341
different 482619
But 478469
; 476243
two 474555
& 474383
us 473893
3 470687
did 463238
he 463117
To 460401
had 459703
used 457052
after 457019
first 456323
new 455702
think 450062
years 439939
For 439879
good 433839
go 428573
want 423025
being 410560
There 404501
where 403998
really 400279
am 399416
such 398551
take 398455
back 397544
right 391267
4 387534
still 386304
now 385182
down 381191
through 377580
light 374102
body 373977
world 371808
his 369547
well 366720
5 364827
$ 364091
# 357976
day 355881
They 353264
10 350103
off 349504
] 349365
system 347213
help 344526
_ 342875
… 342203
before 338958
while 336431
something 335703
those 335293
long 334912
life 330512
feel 326293
[ 325460
around 322146
That 319524
going 318005
things 317833
> 311216
find 307969
Does 306270
Your 306022
best 305137
2018 305060
ca 304845
made 304127
say 303264
too 303026
money 302936
look 301208
here 298311
able 297979
using 293463
— 292525
better 291099
* 289430
'm 287735
Are 286726
high 284030
always 282433
each 280597
As 278163
difference 274540
every 274539
without 274382
food 273927
said 271785
year 271222
My 270273
less 266982
number 265881
free 265701
S@@ 265210
come 263813
actually 260776
Can 258576
both 258190
own 256794
lot 256785
person 253256
6 251788
2017 243863
few 242260
part 241637
game 241173
thing 238901
someone 237109
<lm_qda> 237070
<s2s_q_da> 237070
<s2s_qd_a> 237070
<s2s_d_qa> 237070
<s2s_q_a> 237070
<s2s_d_a> 237070
<s2s_q_d> 237070
<lm_qd> 237070
<lm_qa> 237070
<lm_a> 237070
<lm_q> 237070
<lm_d> 237070
never 235291
during 234878
energy 233936
often 233843
point 233381
're 232908
power 232877
might 231302
un@@ 231264
7 231237
important 229559
URL_0 229342
makes 226722
another 226587
New 225690
T@@ 223310
her 222662
P@@ 221732
air 221593
8 221147
mean 220448
change 220441
All 220188
Dr. 219121
re@@ 215933
car 214738
= 214047
’re 213778
s 212083
US 211863
keep 211726
question 211598
With 211069
B@@ 210973
On 210295
little 210151
example 208260
bad 207664
information 207616
No 206190
M@@ 206090
great 206059
called 204880
D@@ 203793
understand 203427
Of 202913
times 202718
s@@ 202474
end 202122
Home 201966
space 201311
video 201203
speed 200684
C@@ 199031
've 198936
R@@ 198783
away 198571
cause 198351
K@@ 198332
means 197353
last 196979
problem 196781
G@@ 196206
under 196054
found 195377
state 195206
must 194871
k@@ 194787
home 194296
sound 194166
One 194067
put 193986
o 193691
2016 191955
start 191428
place 190765
possible 190302
sleep 190031
-@@ 189432
human 189288
A@@ 188862
old 188031
Earth 187883
side 187791
F@@ 187029
case 186390
By 186279
since 185961
small 185607
sure 185358
Some 184819
Posted 183829
d@@ 183465
E@@ 182872
become 182448
in@@ 182003
she 181387
government 181361
hard 181312
big 181273
American 181074
enough 180543
12 179744
20 179603
computer 179017
give 178780
L@@ 178470
common 177717
United 177401
» 177342
three 176481
fact 175742
real 174769
against 174260
data 174219
.@@ 173909
H@@ 173716
left 173636
days 173449
cold 173294
ever 173116
set 171163
9 171129
2015 170952
These 170780
ago 170449
per 170379
based 170245
Not 170200
reason 169768
N@@ 169393
man 168765
e@@ 167371
love 167145
15 167005
health 166968
t@@ 166931
country 166571
However 165641
having 165525
getting 165011
essay 164189
pay 163289
process 163225
making 162973
‘ 162743
eyes 162413
y@@ 161251
countries 160804
music 160125
read 160056
others 159070
top 158815
age 158757
30 158716
women 158592
eat 158436
though 158296
TV 157764
brain 157687
pm 157615
show 157422
Here 157395
+ 157115
again 156737
order 156649
form 156271
States 156156
online 155895
today 155792
black 155407
try 155376
amount 155280
phone 154699
let 154664
known 153498
Now 153427
live 153324
W@@ 153235
happens 153058
2014 152409
usually 152384
11 152347
V@@ 152343
comes 151722
type 151028
blood 150687
matter 150492
large 150455
night 150221
skin 150204
got 150008
far 149287
law 149219
2012 148283
May 147873
play 147678
full 147372
words 147084
low 146960
next 146850
p@@ 146698
.. 145631
second 145529
Most 145112
0 144815
g@@ 144704
m 144482
2013 144323
n@@ 144199
weight 144088
anything 143949
Get 143597
doing 143511
name 143443
e 143175
etc 143031
stop 142880
More 142324
a@@ 142258
company 141694
head 141565
white 141461
states 141327
experience 141163
4@@ 140461
3@@ 139969
5@@ 139942
business 139756
al@@ 139673
animals 139653
hand 139021
He 138398
level 138286
ed 138281
control 138066
certain 137503
rate 137332
him 137243
least 137194
hours 136972
believe 136846
men 136745
post 136612
looking 136554
x 136196
seems 136102
red 135914
turn 135863
er 135674
says 135134
temperature 134967
World 134949
From 134945
answer 134329
i@@ 133876
line 133679
run 133604
humans 133527
pain 133457
b@@ 133234
language 132788
until 132297
children 132114
An 131780
happen 131648
already 131510
idea 131505
tell 131347
causes 130913
After 130879
O@@ 130609
games 130132
works 130081
exactly 129920
nt 129899
available 129661
t 129656
care 129389
open 129343
gas 129232
-- 129226
within 128968
buy 128836
U.S. 128801
hot 128273
16 127845
C 127809
ate 127762
non 127762
higher 127745
Best 127560
c@@ 127194
6@@ 127106
once 126998
market 126832
m@@ 126823
thought 126795
done 126516
At 126323
history 126231
including 126207
public 125959
move 125817
learn 125339
18 125133
size 124952
2@@ 124737
term 124593
either 124374
People 124329
course 124150
7@@ 123832
o@@ 123589
seem 123525
News 123486
war 123451
companies 122521
13 122456
bit 122434
f@@ 122351
America 121991
likely 121970
14 121836
types 121786
heat 121113
sometimes 120616
kind 120308
whether 120106
I@@ 120067
’ve 120050
ways 120040
due 119945
easy 119820
seen 119441
es 119430
While 119251
card 119102
Difference 119082
Have 119002
create 118883
Free 118284
• 117957
2011 117883
price 117576
area 117229
al 116953
working 116745
v@@ 116572
almost 116232
true 116225
research 116081
cost 116056
paper 116042
color 115910
everything 115773
natural 115635
article 115554
simple 115466
effect 115466
service 115283
support 114879
hair 114848
J@@ 114815
ers 114711
credit 114528
25 114485
nothing 114451
above 114449
list 114377
August 114353
_@@ 114281
English 114112
simply 113943
probably 113774
single 113593
trying 113355
longer 113041
school 112941
h@@ 112549
call 112281
whole 112247
Many 112122
hear 112088
value 111851
news 111601
current 111546
en@@ 111532
es@@ 111463
y 111139
mind 110769
PM 110539
shows 110530
er@@ 110516
word 110496
effects 110271
Just 110260
About 110222
site 110133
9@@ 110000
several 109975
yet 109786
24 109630
8@@ 109614
main 109266
Where 109251
g 109225
questions 109197
problems 109130
Internet 109110
together 108781
Google 108633
sense 108427
inside 108365
explain 107826
fall 107771
child 107563
million 107387
ing 107361
else 107286
on@@ 107205
oil 107186
universe 106710
page 106693
’m 106417
l@@ 106384
17 106190
house 106185
Our 105896
z@@ 105877
instead 105874
lower 105807
THE 105453
quality 105365
week 105301
major 105135
c 105132
faster 104716
similar 104705
fast 104700
increase 104557
below 104408
tax 104352
theory 104337
book 104327
an@@ 104266
family 104060
eye 103746
needs 103664
sex 103511
July 103324
minutes 103261
u@@ 103257
pressure 103171
past 102930
100 102921
close 102863
2010 102761
everyone 102649
ation 102561
internet 102509
ice 102506
short 102457
Make 102342
goes 102207
wo 102126
following 102113
50 102090
en 102060
result 101866
w@@ 101835
’ 101757
products 101724
March 101705
21 101693
drive 101512
months 101510
Between 101453
earth 101381
Work 101338
gets 101217
AM 101121
given 101014
rather 100942
provide 100839
taking 100712
force 100683
k 100604
especially 100467
wrong 100462
nuclear 100112
face 100071
June 100052
'll 99833
In@@ 99821
Who 99795
10@@ 99738
heart 99636
n 99478
First 99382
takes 99276
key 98832
numbers 98763
X 98729
April 98660
China 98532
u 98463
normal 98369
started 98193
(@@ 98090
drink 98070
technology 97965
social 97924
room 97870
b 97855
Or 97831
taste 97816
test 97758
sun 97713
ch@@ 97552
Windows 97517
reasons 97493
issue 96840
d 96635
p 96585
Water 96496
Also 96378
ask 96252
Like 96027
source 95769
quite 95738
considered 95452
study 95268
anyone 95236
half 95071
Read 95061
B 95046
E 94793
behind 94722
j@@ 94689
group 94682
URL_1 94551
four 94504
--T--<B> 94428
Should 94337
clear 94310
January 94172
dog 94008
feeling 93669
North 93556
’ll 93532
mass 93489
alcohol 93379
r@@ 92804
Even 92739
Y@@ 92606
movie 92506
download 91980
remember 91733
include 91578
early 91368
website 91360
1@@ 91262
vs 91158
outside 91087
yourself 91036
itself 90937
image 90722
account 90671
cells 90600
general 90299
popular 90236
22 90230
however 90187
lose 89976
view 89972
check 89841
ar@@ 89694
T 89533
Well 89357
19 89316
content 89306
ones 89157
living 89115
front 89090
pretty 88963
ability 88885
February 88629
screen 88538
X@@ 88444
death 88439
ated 88370
Health 88353
moving 88221
/@@ 88124
Z@@ 88085
job 88061
political 88018
future 88007
dogs 87971
product 87943
G 87608
D 87204
fat 87127
x@@ 86932
created 86922
smell 86864
UK 86534
deal 86474
eating 86382
science 86358
movies 86197
species 86196
surface 86058
cars 86041
uses 85961
talk 85873
across 85691
land 85688
average 85528
ating 85522
add 85509
de 85370
Use 85366
file 84968
search 84885
le@@ 84732
Re@@ 84654
Time 84602
themselves 84426
share 84255
related 84211
field 84187
watch 83848
program 83550
rest 83537
November 83406
completely 83400
U@@ 83312
difficult 83301
Because 83189
st@@ 83163
at@@ 83098
battery 82971
access 82955
specific 82927
systems 82916
October 82883
September 82773
Yes 82679
blue 82641
terms 82634
travel 82389
changes 82377
foods 82281
23 82034
along 82012
running 81928
cell 81867
software 81830
stay 81560
physical 81543
legal 81488
Science 81295
parts 81279
2009 81211
· 81193
media 81034
asked 81005
el@@ 80936
December 80830
allow 80803
wake 80674
Let 80587
Black 80422
God 80406
loss 80327
object 80282
cancer 80180
de@@ 80179
teeth 80166
results 79842
reading 79653
prices 79640
risk 79612
came 79508
self 79255
it@@ 78957
28 78957
charge 78866
debt 78825
later 78814
heard 78767
produce 78757
story 78713
Will 78667
interest 78649
Un@@ 78245
affect 78238
taken 78122
safe 77846
percent 77790
students 77681
26 77655
War 77607
cut 77480
services 77472
hold 77442
hands 77372
drug 77338
range 77229
five 77219
li@@ 77153
insurance 77064
Then 76915
cases 76723
month 76628
ts 76587
grow 76549
as@@ 76400
am@@ 76368
Video 76352
2008 76298
bed 76167
issues 75999
r 75942
easily 75824
coming 75805
27 75620
laws 75332
strong 75315
party 75285
sounds 75283
quickly 75223
period 75182
stock 74912
or@@ 74819
store 74808
dark 74802
South 74784
thinking 74773
choose 74707
planet 74637
local 74522
is@@ 74229
State 74207
Be 74123
drugs 74010
baby 73912
morning 73912
@@@ 73888
mouth 73882
fire 73826
engine 73776
ting 73665
ground 73593
leave 73562
green 73265
medical 73259
ted 73067
K 73025
went 72949
police 72869
18@@ 72777
saying 72711
write 72508
President 72434
Did 72226
lead 72206
device 72178
Life 72119
billion 72071
please 71979
Please 71963
moon 71914
over@@ 71757
economy 71742
writing 71628
Americans 71605
healthy 71554
Post 71548
position 71547
points 71475
offer 71473
differences 71425
date 71411
di@@ 71397
Facebook 71362
rights 71312
modern 71216
film 71141
29 71121
near 71021
Other 71016
ly 71010
ab@@ 70767
standard 70661
glass 70457
th@@ 70363
S 70351
University 70350
plan 70342
vote 70284
told 70167
M 69970
z 69949
code 69935
l 69918
worth 69837
radio 69793
solar 69657
caused 69522
special 69423
prevent 69396
various 69359
areas 69295
nose 69137
talking 69131
personal 69073
illegal 69071
feet 69052
hit 69004
die 68991
security 68838
action 68655
12@@ 68586
kids 68571
required 68515
needed 68504
F 68273
ti@@ 68268
basic 68192
See 68093
Top 68064
benefits 67958
series 67921
dating 67847
looks 67807
military 67764
build 67754
exist 67733
Online 67710
White 67696
ates 67605
class 67570
ic@@ 67557
drinking 67543
Food 67431
Answer 67383
dis@@ 67361
videos 67303
re 67236
Since 67235
ing@@ 67224
individual 67105
son 67069
L 66997
memory 66988
Re 66882
rates 66866
voice 66768
friends 66766
evidence 66743
happened 66663
network 66598
function 66557
city 66528
version 66521
ri@@ 66243
particular 66156
appear 66105
System 66098
levels 66073
camera 66005
Comments 65689
Which 65643
avoid 65592
treatment 65556
clean 65536
ant 65521
ro@@ 65513
users 65445
dry 65444
web 65440
total 65430
according 65427
hour 65356
middle 65145
Day 65106
PC 65024
stars 65008
warm 64952
original 64941
college 64867
ac@@ 64857
team 64852
design 64820
among 64810
took 64582
easier 64570
consider 64552
National 64491
disease 64456
continue 64455
Russia 64438
.... 64314
negative 64166
contact 64047
gravity 63951
break 63932
picture 63792
fuel 63785
box 63754
R 63752
Service 63633
model 63628
co@@ 63608
act 63565
Apple 63543
ine 63528
objects 63527
entire 63505
present 63484
economic 63480
huge 63454
Sun 63408
11@@ 63401
comment 63395
bank 63367
High 63302
asleep 63301
Obama 63294
lines 63233
stomach 63194
compared 63164
images 62886
generally 62883
damage 62875
Great 62804
population 62689
symptoms 62686
Download 62671
paid 62648
im@@ 62613
art 62530
40 62472
O 62466
animal 62416
global 62401
further 62399
60 62372
via 62338
step 62262
v 62213
'd 62189
helps 62184
Big 62130
stuff 62129
regular 62127
young 62016
House 61949
sell 61949
industry 61913
hurt 61858
Car 61826
federal 61818
Canada 61774
colors 61774
sh@@ 61764
Europe 61726
anti 61705
directly 61699
income 61540
h 61498
Space 61435
lo@@ 61337
em@@ 61307
Up 61301
tried 61285
lost 61243
conditions 61237
Find 61207
Good 61199
save 61161
expensive 61131
files 61127
fish 61125
development 61115
third 61061
situation 61060
analysis 60944
email 60938
Al@@ 60889
comments 60850
designed 60816
playing 60731
allows 60654
currency 60543
impact 60534
maybe 60458
building 60437
Learn 60304
kill 60266
link 60247
planets 60153
interesting 60152
P 60045
recent 60032
slow 60020
York 59983
milk 59937
wear 59774
smaller 59680
song 59677
tend 59622
multiple 59580
gives 59465
Tags 59454
lives 59390
report 59374
Business 59341
follow 59334
distance 59327
wind 59262
text 59180
myself 59175
ag@@ 59093
degrees 59068
focus 59065
Blog 58923
N 58908
driving 58847
meat 58778
V 58718
fully 58688
nature 58664
members 58626
diet 58594
larger 58587
fine 58570
written 58560
private 58503
sign 58474
Full 58458
app 58383
Today 58354
require 58308
machine 58172
electric 58170
sugar 58170
growth 58154
allowed 58149
user 58143
purpose 58140
role 58132
necessary 58131
weeks 58104
bring 58063
British 58007
et@@ 57955
deep 57949
% 57936
le 57795
USA 57722
History 57718
meaning 57698
bacteria 57678
led 57613
devices 57586
star 57585
complete 57478
places 57471
con@@ 57411
recently 57368
environment 57305
el 57299
direction 57292
board 57288
Music 57260
mobile 57215
effective 57090
perfect 57080
community 56956
ad@@ 56893
woman 56785
happening 56780
calories 56746
Con@@ 56742
salt 56675
als 56651
be@@ 56649
cards 56648
Chinese 56592
national 56532
ic 56530
lights 56451
cool 56441
digital 56439
electricity 56427
weather 56410
material 56396
ap@@ 56249
0@@ 56244
Would 56204
choice 56196
extra 56177
ha@@ 56166
policy 55894
Help 55829
European 55734
soon 55690
potential 55674
ec@@ 55602
method 55589
waves 55481
wanted 55467
liquid 55431
sites 55426
Trump 55418
remove 55394
financial 55352
table 55351
ton 55278
hate 55274
built 55266
parents 55225
vision 55188
address 55168
born 55167
John 55151
fun 55126
Law 55126
Last 55103
rules 55012
doctor 55006
pictures 54997
languages 54888
added 54830
couple 54811
performance 54775
society 54758
Q 54751
muscle 54692
YouTube 54661
correct 54561
road 54548
burn 54527
understanding 54437
groups 54285
ar 54235
names 54194
Credit 54189
record 54057
According 54037
reach 54022
Leave 53992
determine 53954
plants 53919
She 53916
cover 53893
sky 53836
actual 53774
piece 53705
upon 53670
option 53600
reduce 53586
An@@ 53578
Although 53517
noise 53515
costs 53434
older 53424
agree 53418
et 53411
education 53354
release 53288
event 53246
learning 53238
Once 53193
oxygen 53166
os 53130
Essay 53095
attack 53076
currently 53052
worse 52950
protect 52941
options 52932
receive 52916
India 52789
chance 52785
developed 52779
ball 52738
California 52731
positive 52714
to@@ 52612
se@@ 52591
bottom 52534
der 52512
AND 52492
relationship 52484
Sh@@ 52478
shot 52414
united 52382
features 52319
Go 52306
plane 52293
Money 52286
scientists 52263
dead 52237
sick 52156
hole 52149
seconds 52119
president 52023
ia 51998
dream 51992
sp@@ 51978
bodies 51949
review 51932
traffic 51895
solution 51890
Y 51863
En@@ 51648
ra@@ 51632
forms 51611
ma@@ 51574
Light 51566
1.@@ 51501
Air 51491
ings 51434
St@@ 51419
Thanks 51405
practice 51307
reality 51264
sea 51259
culture 51252
tired 51210
response 51179
blog 51174
pre@@ 51143
ul@@ 51140
send 51115
coffee 51082
marijuana 51072
ator 51060
button 51022
vehicle 51020
Take 51019
begin 51018
spend 50941
sports 50914
daily 50905
f 50824
IS 50810
involved 50806
books 50799
stand 50792
watching 50783
taxes 50757
radiation 50722
becomes 50714
2007 50697
court 50694
gold 50676
movement 50661
17@@ 50609
serious 50517
Ch@@ 50478
straight 50430
Red 50404
gun 50398
enjoy 50397
majority 50394
subject 50361
Know 50303
factors 50169
DNA 50150
fight 50089
production 49988
per@@ 49969
concept 49894
return 49880
il@@ 49873
RE@@ 49871
definition 49827
motion 49800
Moon 49797
extremely 49738
pass 49702
scale 49676
male 49676
ons 49645
Out 49610
31 49607
yes 49590
19@@ 49588
note 49493
click 49486
measure 49469
develop 49452
moment 49449
City 49426
Korea 49415
Co@@ 49413
tips 49397
dangerous 49367
friend 49353
?<B> 49345
center 49337
door 49327
Their 49316
< 49288
crime 49272
towards 49212
Power 49191
posted 49126
us@@ 49122
changed 49121
trade 49117
cable 49095
although 49089
ear 49084
ed@@ 49013
king 48988
players 48879
office 48832
Act 48822
connection 48819
race 48816
,@@ 48780
ans 48744
late 48720
Two 48606
attention 48601
os@@ 48583
qu@@ 48566
Japan 48555
15@@ 48542
female 48520
3D 48494
muscles 48448
growing 48436
programs 48390
knowledge 48369
throughout 48356
topic 48293
)@@ 48285
events 48196
activity 48182
released 48180
occur 48176
poor 48167
property 48166
Before 48134
cat 48124
Women 48117
op@@ 48073
supply 48069
minimum 48038
NOT 48015
hope 48000
mental 47980
} 47948
dollars 47940
fly 47929
degree 47913
Next 47912
chemical 47848
cats 47820
birth 47802
Pro@@ 47799
0.@@ 47738
Mars 47723
answers 47646
Australia 47625
claim 47621
sort 47607
bill 47596
metal 47593
Dis@@ 47587
no@@ 47586
Tips 47538
unique 47523
foreign 47502
Every 47443
significant 47435
exercise 47395
powerful 47390
giving 47387
international 47373
U 47328
saw 47327
Ar@@ 47306
alone 47272
Sometimes 47223
figure 47206
flow 47201
speak 47194
International 47122
rise 47093
Africa 47090
therefore 47085
General 47083
iPhone 47077
miles 47011
Another 46995
win 46989
happy 46983
walk 46953
touch 46923
feels 46915
sexual 46860
um 46824
Dogs 46782
volume 46747
IN@@ 46668
16@@ 46550
addition 46536
um@@ 46438
Need 46393
Energy 46225
w 46203
zero 46198
improve 46130
computers 46121
hearing 46077
complex 46027
core 45954
Page 45903
Game 45873
provides 45804
primary 45801
wants 45773
winter 45697
Right 45676
ds 45666
om@@ 45635
apply 45613
base 45571
TO 45525
shape 45498
ad 45494
breath 45485
location 45467
Android 45466
Mar@@ 45447
vs. 45438
Click 45437
ING 45429
Could 45361
safety 45356
th 45330
ter 45279
contains 45265
W 45252
plastic 45250
wide 45229
net 45220
sub@@ 45217
ideas 45191
Using 45157
project 45108
rich 45092
forward 45089
limit 45048
20@@ 45037
East 45006
wall 44969
plant 44954
Car@@ 44918
items 44903
Part 44899
virus 44853
Security 44816
gain 44803
jobs 44772
message 44721
si@@ 44709
Di@@ 44677
professional 44629
training 44580
Computer 44558
During 44505
IN 44487
ears 44437
OF 44436
six 44436
Research 44412
signal 44385
Any 44379
typically 44378
contain 44262
equal 44217
associated 44148
fit 44102
greater 44095
flight 44087
particles 44043
ist 44003
Japanese 43993
est 43959
section 43933
phones 43799
thousands 43756
commercial 43743
College 43688
00@@ 43678
decision 43676
student 43676
favorite 43648
dollar 43638
election 43578
nearly 43554
atmosphere 43529
ready 43520
ur@@ 43513
limited 43508
produced 43471
Court 43445
thoughts 43439
style 43435
season 43402
Us 43396
ol@@ 43379
turned 43370
seeing 43362
View 43308
drop 43300
Over 43277
{ 43267
rule 43262
double 43259
URL_2 43239
brand 43239
buying 43234
weapons 43207
heavy 43202
direct 43155
lack 43148
latest 43122
ations 43118
active 43110
nation 43090
Back 43042
mostly 43039
Social 43008
player 42999
carbon 42952
nice 42945
ent 42944
HD 42932
ads 42884
lots 42878
condition 42843
fear 42791
enter 42705
benefit 42696
became 42681
?@@ 42626
largest 42598
Q@@ 42556
track 42554
do@@ 42482
dreams 42464
id@@ 42463
includes 42443
Only 42439
ve 42437
Watch 42432
ex@@ 42407
H 42403
carry 42394
window 42349
cash 42347
individuals 42309
Reddit 42272
ten 42255
notice 42246
batteries 42190
forces 42186
ter@@ 42165
yellow 42153
Check 42141
starting 42103
Human 42099
ker 42061
held 42047
guys 42022
rid 42020
aware 42002
bottle 41962
Review 41922
length 41916
Cold 41895
32 41880
opposite 41823
mo@@ 41814
posts 41797
De@@ 41781
Body 41734
wait 41707
structure 41688
Bad 41645
shown 41604
century 41545
customers 41535
whatever 41521
13@@ 41505
Web 41502
unless 41403
pick 41388
Reply 41352
Ex@@ 41348
expect 41301
photos 41252
ship 41247
smoking 41162
French 41138
500 41096
balance 41089
variety 41084
millions 41075
increased 41060
examples 41039
Germany 41035
smoke 41034
truth 41012
ous 40872
summer 40872
te 40860
USB 40830
fresh 40826
unit 40824
Its 40766
stress 40763
ST@@ 40755
highly 40748
School 40646
scientific 40617
ps 40615
reaction 40607
press 40607
immediately 40589
guide 40583
american 40581
ding 40549
purchase 40514
© 40479
14@@ 40456
paying 40454
Guide 40443
stick 40424
flat 40388
Buy 40370
Much 40349
Causes 40347
legs 40344
ling 40323
climate 40297
orbit 40255
switch 40246
songs 40241
gone 40216
decide 40213
2.@@ 40205
bigger 40200
inter@@ 40157
Long 40140
requires 40090
wave 40036
useful 39983
Games 39921
banks 39909
tic 39874
application 39838
NASA 39821
certainly 39796
wood 39703
decided 39697
beginning 39690
guess 39686
photo 39662
starts 39624
argument 39613
ies 39588
views 39573
ment 39540
Federal 39532
ir@@ 39430
facts 39366
IT 39340
tions 39303
3.@@ 39294
sing 39275
fan 39229
guy 39199
demand 39127
Netflix 39124
’d 39080
West 39069
elements 39036
causing 39029
Russian 39029
essays 39003
Way 38973
pro@@ 38958
offers 38956
websites 38949
spread 38900
felt 38869
thus 38828
Men 38815
audio 38815
vi@@ 38806
background 38806
the@@ 38754
changing 38737
Twitter 38729
Things 38723
GB 38719
random 38668
station 38646
falling 38634
he@@ 38631
drinks 38630
ensure 38627
constant 38602
2006 38564
wonder 38550
parties 38517
der@@ 38487
ocean 38483
car@@ 38459
ne@@ 38458
solid 38392
physics 38390
impossible 38356
arms 38337
pe@@ 38312
football 38251
pages 38242
Friday 38231
Search 38219
bo@@ 38202
connected 38130
se 38108
Care 38080
religion 38072
pop 38060
ors 38043
details 38030
properly 38027
definitely 38019
Amazon 38010
Israel 37994
biggest 37926
quick 37907
survive 37905
display 37875
pull 37874
windows 37864
remain 37861
rain 37822
200 37812
bar 37711
knows 37687
separate 37665
Congress 37634
throat 37620
Sleep 37617
ent@@ 37616
Mo@@ 37595
Was 37585
Sign 37566
tr@@ 37526
ants 37499
Star 37487
programming 37477
ring 37446
slightly 37435
beer 37412
exchange 37381
ph@@ 37375
charged 37361
sources 37343
waste 37339
Solar 37339
Love 37313
characters 37312
appears 37296
beyond 37265
sent 37238
sleeping 37230
resources 37220
Blue 37199
depends 37168
mis@@ 37147
Real 37147
foot 37133
70 37118
treat 37109
visit 37103
fake 37091
interested 37085
out@@ 37076
Keep 37062
wondering 36962
sales 36938
particularly 36929
birds 36914
additional 36910
stores 36896
television 36868
creating 36845
amazing 36823
provided 36822
workers 36817
Microsoft 36794
90 36762
noticed 36761
crisis 36742
eggs 36740
wage 36722
ley 36715
ance 36702
basis 36681
Card 36657
mirror 36632
II 36608
Man 36603
ism 36592
schools 36585
Question 36577
te@@ 36574
materials 36541
traditional 36529
bi@@ 36521
frequency 36498
soft 36463
80 36455
storage 36430
ins 36412
block 36410
explanation 36387
Universe 36347
occurs 36347
Green 36343
perhaps 36287
evolution 36277
Off 36274
Digital 36235
studies 36202
depending 36196
minute 36171
began 36164
meet 36155
letter 36147
round 36145
girls 36127
Each 36116
Aug 36105
opinion 36089
sw@@ 36083
fix 36034
feature 36030
cycle 36027
previous 35978
oc@@ 35974
clearly 35968
ks 35941
Th@@ 35937
'@@ 35916
AN@@ 35906
selling 35889
keeping 35887
super 35880
behavior 35847
Weight 35843
turns 35838
worked 35813
Me 35767
played 35756
Dog 35743
Live 35738
Photo 35720
published 35708
mm 35641
eventually 35629
Government 35623
statement 35609
supposed 35590
learned 35562
signs 35542
Par@@ 35537
ON 35533
asking 35533
advantage 35529
responsible 35524
load 35513
notes 35489
debate 35454
steps 35447
s’ 35444
stage 35429
Center 35416
Ad@@ 35379
25@@ 35360
quantum 35347
loud 35335
relative 35320
speaking 35311
Washington 35304
Iran 35279
Middle 35278
acid 35271
profit 35247
patients 35243
depression 35227
methods 35224
closer 35199
Party 35163
Words 35155
sale 35138
Both 35122
Data 35098
clock 35075
ters 35057
ES 35050
pee 35047
fruit 35037
Look 35028
shower 35009
na 34941
doctors 34939
ut@@ 34925
me@@ 34895
mother 34887
stations 34876
Stop 34850
influence 34841
sold 34815
basically 34808
Be@@ 34778
forget 34776
push 34774
region 34773
onto 34769
Tagged 34747
map 34734
broken 34706
atoms 34702
stories 34688
removed 34671
under@@ 34642
protection 34638
cities 34637
girl 34619
pl@@ 34616
member 34587
Under 34585
character 34577
expected 34569
glasses 34563
plus 34539
David 34535
ta@@ 34530
par@@ 34488
discovered 34477
closed 34472
inflation 34471
po@@ 34450
electrical 34431
laptop 34426
Sp@@ 34415
Monday 34404
final 34339
burning 34328
ni@@ 34303
:@@ 34302
Different 34294
commonly 34284
naturally 34283
24@@ 34268
up@@ 34251
Forum 34243
Bank 34242
train 34223
spot 34205
driver 34189
looked 34184
transfer 34157
title 34141
passed 34124
tests 34120
engines 34119
adults 34086
floor 34077
protein 34053
mode 34051
ED 34039
mentioned 33997
approach 33987
massive 33977
co 33976
calls 33974
sc@@ 33963
Share 33961
essential 33935
Mc@@ 33920
German 33918
listen 33894
speeds 33893
connect 33871
tion 33846
speech 33804
increases 33803
formed 33783
id 33773
ver@@ 33772
ster 33704
Without 33703
arm 33665
2005 33658
operating 33642
Public 33620
Bar@@ 33614
earlier 33606
Union 33581
ty 33485
Information 33483
mon@@ 33358
Media 33351
defined 33348
articles 33348
IP 33343
tv 33329
beautiful 33321
01 33321
rock 33318
killed 33276
List 33233
Really 33230
Bill 33203
weird 33195
sit 33148
\@@ 33121
Maybe 33120
Times 33047
Z 33047
magnetic 33046
sitting 33044
kinds 33034
gender 33016
la@@ 33014
ID 33011
citizens 33009
da 32966
proper 32914
located 32887
il 32886
Comment 32878
wrote 32873
35 32866
Hot 32861
fl@@ 32850
highest 32849
prefer 32841
except 32810
spending 32793
cheap 32780
leading 32771
equipment 32753
brown 32747
plans 32732
overall 32720
temperatures 32712
official 32682
Jan 32665
adult 32665
2000 32659
becoming 32607
finger 32598
Add 32585
Le@@ 32517
ties 32460
Down 32454
babies 32442
twice 32435
successful 32426
ked 32367
ite 32361
increasing 32337
serve 32332
goal 32269
maintain 32263
ner 32254
Those 32249
instance 32205
Sound 32200
normally 32191
famous 32180
funny 32177
100% 32160
and@@ 32158
finally 32148
Policy 32143
remains 32130
frame 32117
hi@@ 32112
dy 32108
Ro@@ 32108
ge 32091
Phone 32080
LE@@ 32064
® 32050
bright 32048
"@@ 32015
cigarettes 32004
deleted 31998
Technology 31985
standing 31959
generation 31938
tools 31935
Instead 31923
criminal 31895
vehicles 31880
central 31869
server 31810
Global 31776
compare 31774
bar@@ 31756
cup 31756
budget 31729
tion@@ 31715
snow 31693
tive 31682
Stock 31670
tree 31669
electronic 31666
Michael 31657
Li@@ 31654
religious 31653
employees 31624
Open 31620
Syria 31618
ber@@ 31599
received 31594
print 31592
constantly 31588
Tuesday 31584
marriage 31577
raise 31572
His 31568
tiny 31559
ina 31556
visible 31554
ge@@ 31553
Nuclear 31551
Tax 31543
imagine 31540
handle 31537
brought 31525
browser 31504
,,,@@ 31501
former 31498
99 31488
putting 31480
ancient 31455
accept 31455
colour 31450
surgery 31448
Old 31444
wine 31438
activities 31433
soda 31415
infection 31411
included 31405
ke 31392
No@@ 31388
ER 31386
relatively 31379
letters 31378
knew 31359
genetic 31354
amounts 31353
breathing 31343
loan 31336
ep@@ 31307
toilet 31286
les 31280
bought 31269
affected 31267
meant 31266
realize 31259
holes 31251
testing 31246
stored 31241
Change 31220
OS 31218
LI@@ 31212
Theory 31207
wish 31197
obvious 31188
factor 31187
exact 31180
strength 31174
count 31169
Natural 31152
ch 31145
45 31142
truly 31139
leaves 31117
Image 31107
tool 31090
ators 31033
politics 31020
Se@@ 31018
models 30999
proof 30994
patient 30982
sides 30973
ages 30924
Bitcoin 30902
sets 30875
Note 30829
ant@@ 30822
reported 30821
wet 30820
Book 30817
specifically 30804
setting 30800
resolution 30791
alternative 30778
Being 30775
CO@@ 30760
DVD 30759
ard 30746
« 30744
medicine 30739
ded 30732
African 30723
drivers 30717
attacks 30716
bag 30710
ally 30702
fingers 30689
.<B> 30672
ey 30617
password 30602
describe 30586
–@@ 30563
Animals 30557
Sunday 30555
4.@@ 30554
experienced 30530
lie 30520
Radio 30515
diseases 30508
Than 30507
pre 30502
rare 30481
advice 30470
functions 30469
Start 30411
ak@@ 30408
discussion 30405
=@@ 30387
accurate 30383
mail 30373
chicken 30362
clothes 30359
Texas 30351
harder 30348
target 30328
Drive 30321
neck 30314
marketing 30308
Department 30303
reply 30294
Dark 30289
links 30241
ke@@ 30233
cross 30193
Mar 30191
Street 30185
Show 30158
slowly 30150
ze 30119
Questions 30089
trouble 30074
businesses 30071
microwave 30066
Second 30055
Price 30048
Medical 30045
Market 30044
values 30036
efficient 30036
capacity 30025
north 30016
finding 30009
bomb 30006
injury 29983
man@@ 29952
Non 29947
showing 29918
worry 29904
mix 29897
electrons 29895
soap 29892
Paul 29886
comparison 29870
immune 29860
Super 29858
Oil 29848
EU 29822
Movie 29818
fair 29814
applications 29809
success 29795
Hair 29763
maximum 29760
Press 29718
math 29706
gay 29701
ci@@ 29680
internal 29678
accounts 29662
30@@ 29651
Ca 29631
26@@ 29618
perform 29590
comfortable 29590
match 29584
combination 29556
Images 29550
Inter@@ 29533
Police 29532
hundreds 29529
i.e. 29526
spent 29523
ou@@ 29514
Common 29510
explains 29507
gave 29499
[@@ 29495
cream 29481
Mac 29477
Bo@@ 29471
anxiety 29467
Wednesday 29434
aircraft 29433
ence 29424
leg 29393
Better 29392
covered 29388
Wikipedia 29382
copy 29373
machines 29372
AR@@ 29370
management 29363
ie 29363
France 29360
Jul 29352
apps 29336
turning 29334
Control 29331
James 29323
els 29300
assume 29287
ness 29276
intelligence 29231
keeps 29227
ders 29215
Call 29209
› 29206
placed 29191
fans 29190
investment 29159
50@@ 29159
despite 29131
ta 29124
Lo@@ 29114
ste@@ 29106
Try 29105
1,@@ 29103
Po@@ 29096
ler 29059
conflict 29058
flu 29039
27@@ 29028
Cor@@ 29025
Software 29024
Feb 29022
path 29011
explained 28983
Anti 28942
ma 28941
AS@@ 28941
SE@@ 28935
trading 28914
prove 28887
atomic 28887
Per@@ 28881
identify 28869
seat 28857
stopped 28830
south 28824
fill 28779
claims 28775
Art 28757
hydrogen 28751
ho@@ 28747
Map 28745
Speed 28734
trees 28728
viruses 28702
helpful 28701
Canadian 28678
kept 28674
stuck 28663
otherwise 28658
ray 28637
AC@@ 28620
street 28619
Therefore 28600
wheel 28589
ana 28584
for@@ 28583
empty 28569
charges 28562
Think 28524
08 28513
possibly 28513
Baby 28501
5.@@ 28500
Travel 28480
bl@@ 28476
speakers 28468
Remember 28466
super@@ 28465
layer 28459
replace 28453
severe 28444
England 28418
actions 28395
skills 28390
cl@@ 28379
anywhere 28370
ingredients 28363
rec@@ 28361
native 28352
Sub@@ 28344
pieces 28332
absolutely 28330
shift 28317
ves 28299
leaving 28295
existing 28288
Published 28266
violence 28253
Republican 28213
Source 28211
Thursday 28205
Updated 28204
heads 28202
Network 28184
tu@@ 28182
porn 28181
signals 28177
trial 28171
determined 28170
existence 28167
London 28164
feed 28132
critical 28128
reports 28127
lies 28114
av@@ 28096
Still 28083
toward 28077
frequently 28069
AC 28067
Com@@ 28053
Pre@@ 28052
flying 28052
Date 28049
Insurance 28003
suddenly 27978
nor 27968
Gas 27959
|@@ 27933
Report 27891
walking 27887
experiment 27885
sensitive 27880
2004 27850
missing 27847
Movies 27842
charging 27833
install 27828
Services 27789
su@@ 27787
02 27787
whose 27784
civil 27774
ms 27768
status 27762
tics 27751
28@@ 27718
update 27700
CH@@ 27693
anyway 27681
Mobile 27661
cheese 27660
customer 27659
format 27625
holding 27621
64 27616
recommend 27615
ig@@ 27603
Forums 27596
nations 27591
,,@@ 27586
regarding 27575
totally 27573
extreme 27572
Jun 27565
Eat 27564
independent 27563
2003 27556
Play 27547
worst 27532
stronger 27532
apart 27531
grade 27501
IT@@ 27501
US@@ 27484
and/or 27482
opportunity 27476
Iraq 27474
throw 27470
tea 27465
Humans 27448
automatically 27445
catch 27443
freedom 27431
band 27428
wire 27421
emergency 27411
Related 27410
CD 27405
Year 27399
warming 27396
sweet 27387
cameras 27378
ISIS 27374
du@@ 27366
Plus 27336
communication 27328
wireless 27320
Ice 27318
cheaper 27314
Apr 27313
Ma@@ 27303
properties 27301
molecules 27288
&@@ 27285
square 27284
smart 27282
effort 27282
Has 27273
+@@ 27272
suggest 27259
AD@@ 27249
wash 27222
raw 27212
hungry 27208
abuse 27202
pattern 27202
breathe 27192
ore 27178
ends 27164
ill 27157
campaign 27157
Pages 27152
£ 27151
defense 27122
referred 27113
Sha@@ 27105
res@@ 27104
06 27082
wearing 27075
Physics 27068
40@@ 27064
attempt 27064
reference 27033
Contact 27019
Rights 27009
Pro 27005
fighting 26997
Dec 26992
described 26961
ish 26942
J 26930
60@@ 26926
LED 26908
lock 26894
Ask 26883
mar@@ 26877
fe@@ 26872
Wall 26840
scene 26838
mark 26836
Christmas 26825
Sports 26793
Type 26787
presidential 26786
Qu@@ 26779
Copyright 26775
error 26775
score 26775
sentence 26767
developing 26764
05 26764
disorder 26755
we@@ 26748
infinite 26744
exposure 26729
tongue 26694
fixed 26693
la 26675
Number 26674
cooking 26670
juice 26665
DC 26658
@ 26639
ratio 26607
so@@ 26605
Happens 26594
Gold 26574
losing 26555
go@@ 26541
DE@@ 26506
medium 26480
ches 26479
Brain 26473
chest 26469
resistance 26463
07 26457
died 26448
Man@@ 26437
gu@@ 26437
capital 26420
Office 26403
solve 26401
Archives 26371
300 26362
generate 26345
stream 26339
adding 26336
gi@@ 26333
Oh 26333
sts 26331
sk@@ 26327
Jesus 26324
Works 26321
crash 26312
sa@@ 26311
Nov 26305
04 26283
tip 26281
anymore 26281
Indian 26281
ahead 26275
voting 26262
Florida 26244
bone 26230
particle 26219
7.@@ 26218
Thank 26213
ak 26209
anti@@ 26155
prison 26155
03 26151
cloud 26145
ourselves 26130
For@@ 26124
ru@@ 26117
thanks 26100
owners 26100
treated 26089
discuss 26082
Color 26070
e.g. 26064
end@@ 26052
Christian 26039
com@@ 26038
00 26037
jump 26033
^ 26031
Su@@ 26004
Asia 25988
A. 25986
named 25964
advanced 25960
gs 25958
ob@@ 25950
Supreme 25946
Kids 25935
AN 25920
Cancer 25917
shut 25889
egg 25878
applied 25874
chemicals 25867
perfectly 25864
units 25841
ry 25832
decades 25827
San 25817
draw 25816
Design 25815
filled 25804
Want 25787
ines 25774
23@@ 25771
Spanish 25769
entry 25768
Getting 25739
Oct 25722
Western 25719
opening 25717
edge 25695
row 25663
cre@@ 25657
Cats 25656
differently 25645
q@@ 25642
exposed 25631
respect 25630
Hard 25622
plug 25604
papers 25604
moves 25584
King 25584
ev@@ 25571
author 25570
Email 25552
achieve 25546
Education 25543
aid 25532
atom 25509
Am@@ 25503
exists 25490
TR@@ 25485
angle 25470
AM@@ 25468
res 25459
votes 25455
Family 25446
Children 25440
UN@@ 25433
ality 25410
organization 25404
trust 25401
town 25389
6.@@ 25381
Fast 25373
enable 25362
collection 25359
wild 25339
listening 25320
affects 25314
fi@@ 25299
ka 25298
→ 25297
meal 25292
graphics 25290
Tri@@ 25276
films 25273
bu@@ 25262
union 25258
america 25256
sneeze 25255
ping 25246
vacuum 25241
AL@@ 25235
Name 25231
upper 25231
hardware 25200
Company 25195
monitor 25162
ize 25149
keys 25146
flash 25131
capable 25125
guns 25123
tank 25115
seven 25113
Mexico 25099
Privacy 25081
runs 25070
gaming 25049
orange 25026
secret 25021
ER@@ 25017
ten@@ 24995
galaxy 24991
crack 24986
Ab@@ 24975
ary 24968
sensation 24955
URL_3 24947
curious 24945
YOU 24941
Ne@@ 24928
owner 24916
healthcare 24909
Yet 24899
tells 24894
Test 24893
’@@ 24890
bugs 24888
percentage 24883
09 24882
secure 24881
families 24869
Types 24850
slower 24841
threat 24832
RO@@ 24792
reviews 24792
Blood 24786
emotional 24780
mine 24778
crazy 24759
entirely 24758
wondered 24743
somewhere 24735
Low 24654
tic@@ 24652
harmful 24649
measured 24647
Fl@@ 24646
ah 24628
vary 24605
manage 24601
Alcohol 24582
launch 24564
father 24556
sample 24551
Sex 24538
com 24534
ber 24524
Mon@@ 24523
pi@@ 24518
plenty 24513
lets 24499
ang@@ 24482
strategy 24474
theories 24468
host 24461
Everyone 24453
doubt 24449
AT@@ 24444
introduction 24416
ve@@ 24409
external 24406
Im@@ 24389
af@@ 24383
manual 24376
providing 24374
goods 24365
researchers 24360
cure 24348
st 24347
wing 24331
join 24330
Church 24329
payment 24314
pitch 24298
pool 24287
ise 24286
Talk 24275
contract 24262
Language 24260
creates 24250
info 24235
Cars 24227
murder 24221
tri@@ 24219
steel 24216
acts 24207
mission 24205
perspective 24203
transmission 24197
CPU 24191
cor@@ 24188
moved 24168
recommended 24160
experiences 24159
Me@@ 24147
au@@ 24117
element 24115
counter 24114
Super@@ 24106
Tesla 24103
Small 24096
drives 24092
domain 24090
Everything 24088
sl@@ 24083
Bi@@ 24074
Group 24069
obviously 24065
necessarily 24061
forced 24053
therapy 24044
item 24038
falls 24032
ay@@ 24025
consumers 24012
beat 24012
appropriate 23983
fluid 23975
pet 23973
leads 23964
challenge 23964
Sep 23958
streaming 23949
OR 23947
emotions 23935
installed 23929
County 23923
Britain 23918
organs 23914
George 23910
galaxies 23905
bathroom 23883
El@@ 23878
uc@@ 23869
Tr@@ 23861
allowing 23856
bread 23855
lightning 23855
Three 23851
Electric 23849
Size 23816
ically 23808
Senate 23799
eight 23791
minor 23785
He@@ 23784
Greek 23782
guilty 23782
Edit 23781
kers 23770
universal 23769
des 23763
ful 23761
Asian 23750
networks 23744
familiar 23739
inch 23730
mph 23718
ical 23710
substance 23708
dust 23698
29@@ 23697
Cr@@ 23691
ology 23667
listed 23662
everyday 23657
concerned 23655
sed 23654
false 23646
experts 23638
select 23638
accident 23635
string 23627
sweat 23611
TS 23607
DO 23606
GAME 23606
Terms 23603
Thus 23593
raised 23590
TH@@ 23557
spin 23536
itch 23534
importance 23534
ity 23530
construction 23504
iron 23482
NFL 23477
Board 23458
harm 23457
ens 23457
ear@@ 23445
non@@ 23431
boy 23430
voltage 23414
pair 23412
velocity 23406
freeze 23401
admin 23392
telling 23387
advantages 23376
knowing 23372
tor 23371
of@@ 23352
na@@ 23323
Age 23322
Hi 23320
bones 23319
Fire 23318
URL_@@ 23315
Facts 23308
refer 23307
pregnant 23306
ble 23302
Republicans 23290
components 23288
AP 23282
suffer 23263
illness 23258
artificial 23245
spectrum 23222
ics 23204
situations 23203
trip 23192
contrast 23188
channel 23184
loans 23169
8.@@ 23142
Again 23140
Her@@ 23139
lift 23138
ships 23136
Effects 23133
era 23128
Eye 23116
selection 23111
wife 23108
motor 23093
literally 23085
expanding 23079
ach@@ 23067
thin 23063
limits 23048
MB 23035
alive 23034
Daily 23020
church 23020
communism 23014
Sea 23000
tech 22996
breaking 22995
Saudi 22983
Or@@ 22980
ats 22967
Actually 22962
Tech 22933
ne 22907
represent 22881
height 22876
weak 22868
Never 22861
continues 22839
tissue 22833
400 22823
teach 22823
english 22813
followed 22811
headphones 22809
ass 22799
Diet 22795
waiting 22791
Gu@@ 22786
Pain 22785
blind 22784
confused 22770
teams 22766
ized 22766
200@@ 22766
Death 22760
ky 22757
funds 22744
awake 22736
recognize 22733
80@@ 22718
ative 22713
]@@ 22706
controlled 22703
Series 22690
Saturday 22688
coverage 22679
AL 22678
75 22675
output 22670
Dec@@ 22669
caught 22661
approximately 22659
Skin 22652
physically 22649
Code 22626
Islam 22624
skip 22620
platform 22618
Politics 22617
alarm 22613
EN@@ 22602
Ver@@ 22601
typical 22599
Videos 22533
Benefits 22517
Author 22511
patterns 22507
ching 22492
fail 22492
suicide 22482
medication 22479
bs 22467
ments 22465
Ac@@ 22459
So@@ 22455
Ever 22448
genes 22443
homes 22439
Central 22427
MO@@ 22426
complicated 22420
zone 22418
significantly 22416
consumption 22398
flavor 22397
har@@ 22393
gasoline 22384
ay 22371
satellite 22368
crimes 22361
gear 22359
unable 22351
Linux 22334
license 22324
lens 22294
Whether 22289
pa@@ 22289
mer@@ 22287
depth 22282
oven 22278
Self 22274
stone 22269
strange 22258
Vi@@ 22249
processes 22241
killing 22226
hell 22226
min@@ 22206
identity 22197
Mark 22196
settings 22190
rays 22185
reddit 22184
bills 22184
facing 22173
Scientists 22167
cu@@ 22159
eb@@ 22158
feelings 22148
lungs 22147
Night 22139
cry 22119
excellent 22114
den@@ 22108
Latin 22105
ger 22104
widely 22095
Paper 22084
sore 22081
pack 22078
Set 22077
sm@@ 22074
actors 22070
artists 22070
Mean 22067
markets 22065
memories 22044
purposes 22041
begins 22035
pump 22032
cutting 22022
everywhere 22020
prescription 22016
laugh 22013
Bur@@ 21993
ren@@ 21989
none 21987
sport 21967
ideal 21951
Cell 21946
context 21939
pregnancy 21938
Reviews 21933
Har@@ 21916
ses 21911
candidate 21910
cleaning 21898
ES@@ 21878
urine 21873
competition 21846
requirements 21841
IS@@ 21831
forum 21830
advertising 21810
bite 21806
gr@@ 21804
shooting 21803
messages 21787
plays 21784
shop 21762
Having 21759
sad 21755
j 21750
speaker 21750
task 21734
insects 21708
distribution 21702
fever 21699
Mor@@ 21697
Join 21691
1/@@ 21691
policies 21681
root 21679
lived 21675
channels 21665
established 21660
Bible 21643
brains 21625
1000 21624
az@@ 21610
Glass 21608
Made 21602
ering 21587
que 21568
Writing 21567
sharing 21566
Step 21557
ALL 21548
processing 21546
refers 21535
cultural 21532
Park 21527
instructions 21514
sharp 21504
prior 21503
doors 21501
Australian 21499
ir 21496
split 21493
95 21486
repair 21478
clouds 21471
circle 21467
pro 21461
ft 21445
google 21443
ok 21437
visual 21420
port 21412
essentially 21407
roll 21404
Bay 21400
Reasons 21399
planes 21391
attracted 21389
Samsung 21389
65 21388
calling 21386
Fat 21380
cooked 21370
convert 21369
sizes 21364
Drug 21358
index 21357
judge 21350
Community 21347
wh@@ 21342
cuts 21332
dec@@ 21332
consumer 21329
fundamental 21317
mixed 21288
Categories 21279
Ways 21278
inner 21274
giant 21273
won 21271
Over@@ 21259
techniques 21258
mainly 21257
category 21254
forever 21250
FOR 21248
nervous 21245
Net 21238
ride 21228
handed 21225
sha@@ 21211
45@@ 21210
shall 21210
bottles 21210
jet 21199
ME@@ 21192
Program 21186
Support 21185
drunk 21181
regardless 21175
Left 21162
AR 21158
mention 21155
Vs 21142
48 21135
chocolate 21130
helped 21126
failure 21120
standards 21110
ff@@ 21107
Very 21094
un 21090
ving 21088
traveling 21083
ming 21078
records 21076
vegetables 21060
helping 21058
documents 21043
ched 21040
episode 21037
shares 21034
earn 21022
recording 21019
Products 21015
Making 21010
fairly 21009
himself 21000
ban 21000
est@@ 20991
afraid 20989
Answers 20987
western 20975
initial 20965
staff 20959
Title 20945
cook 20945
possibility 20937
ill@@ 20937
2001 20936
roads 20933
OR@@ 20932
ya 20929
AP@@ 20921
36 20916
dies 20913
intended 20904
her@@ 20902
1st 20898
stated 20897
automatic 20895
2,@@ 20895
Wars 20879
loved 20876
organic 20874
Do@@ 20866
Marijuana 20865
periods 20846
east 20839
frozen 20836
circuit 20834
laser 20833
smells 20833
Greece 20830
brush 20808
fields 20802
Xbox 20800
communicate 20799
stops 20788
rocket 20787
ars 20784
2nd 20779
athletes 20729
operation 20719
ink 20716
allergies 20709
candidates 20707
Robert 20707
announced 20705
thread 20698
aging 20695
believed 20689
ale 20689
all@@ 20689
Chapter 20687
Cat 20686
9.@@ 20678
powered 20677
freezing 20649
pure 20644
ine@@ 20637
shoot 20622
Project 20618
master 20605
str@@ 20596
airplane 20596
spring 20586
detail 20585
33 20584
mi@@ 20582
Force 20579
replaced 20578
effectively 20575
Previous 20561
accepted 20553
Unfortunately 20545
Posts 20532
ning 20508
ur 20507
evolved 20505
regularly 20501
attractive 20498
presence 20491
,000 20490
cookies 20488
default 20487
back@@ 20487
Donald 20475
lay 20473
blow 20471
whenever 20464
leader 20464
rating 20460
Learning 20448
fied 20447
decisions 20445
Bl@@ 20444
university 20432
willing 20432
governments 20431
friendly 20424
Filed 20421
solutions 20419
flies 20415
proven 20415
ys 20415
Br@@ 20414
landing 20411
tors 20386
plate 20377
suggests 20366
consequences 20362
buildings 20347
agreement 20346
OK 20340
cigarette 20335
Too 20325
Debt 20320
prime 20311
Road 20310
leaders 20309
sur@@ 20309
air@@ 20309
PDF 20304
Brown 20301
fees 20298
linked 20295
Football 20291
considering 20288
war@@ 20279
partner 20275
ef@@ 20273
tor@@ 20262
phase 20257
Pacific 20239
File 20235
density 20227
IC@@ 20224
Tra@@ 20212
wealth 20206
cast 20204
faces 20202
reverse 20199
stupid 20173
chain 20171
filter 20164
Cards 20159
principle 20156
biological 20155
usage 20155
Student 20152
houses 20146
360 20138
bus 20134
correctly 20133
AT 20128
ents 20126
organisms 20121
operate 20117
absolute 20114
Inc. 20110
gh@@ 20109
auto 20108
Deep 20108
alism 20098
nutrients 20076
router 20071
stocks 20060
tube 20043
ade 20043
surrounding 20042
Model 20030
permanent 20028
Though 20022
EL@@ 20022
updated 20018
Foods 20016
izing 20009
multi 20008
tone 20007
outer 20007
vo@@ 20004
Eating 20002
produces 19996
expert 19979
measures 19979
failed 19975
Ukraine 19974
labor 19969
35@@ 19968
reduced 19967
west 19964
officer 19960
afford 19954
stable 19948
detect 19939
ser@@ 19935
Ge@@ 19931
officials 19922
alized 19918
formula 19908
Roman 19904
ended 19901
log 19888
Welcome 19886
cons 19885
greatest 19884
protected 19883
Category 19876
label 19875
é@@ 19872
CA 19869
tested 19867
SP@@ 19864
Someone 19863
disk 19856
taught 19847
ending 19844
syndrome 19843
colder 19837
kitchen 19834
55 19831
Ri@@ 19817
relationships 19816
technical 19815
opposed 19815
painful 19812
Cl@@ 19805
parent 19801
ARE 19794
characteristics 19783
planning 19782
.[@@ 19781
tap 19769
ver 19765
Books 19764
calculate 19756
versions 19755
gra@@ 19752
respond 19750
belief 19749
ls 19748
Side 19725
;@@ 19723
decrease 19723
ee 19719
Military 19716
To@@ 19714
recorded 19711
sunlight 19711
aw@@ 19711
fiber 19700
officers 19697
DS 19695
ex 19695
km 19681
equivalent 19680
ai 19675
logic 19660
Modern 19654
Special 19645
indeed 19637
Army 19633
elections 19631
paint 19618
ire 19609
bags 19591
advance 19581
Civil 19580
VPN 19573
updates 19567
don@@ 19567
Used 19564
JavaScript 19563
ell@@ 19552
topics 19551
Standard 19543
okay 19542
pounds 19535
projects 19532
audience 19527
grown 19511
younger 19511
combined 19506
met 19506
iz@@ 19497
potentially 19491
Always 19487
peace 19485
Anonymous 19481
Living 19476
consume 19472
Kingdom 19471
ery 19470
Subscribe 19459
ane 19424
LO@@ 19419
RAM 19412
MS 19403
shoes 19402
Bu@@ 19399
divided 19383
hospital 19378
phenomenon 19374
request 19372
Prime 19362
heating 19361
Loss 19353
ON@@ 19351
34 19340
Flash 19338
antibiotics 19333
charger 19327
voices 19321
kid 19319
е@@ 19308
bits 19306
offered 19301
Child 19299
shared 19298
portion 19292
spinning 19263
walls 19255
Northern 19246
DI@@ 19245
Mr. 19238
marks 19234
tastes 19233
origin 19225
colours 19225
Current 19215
gl@@ 19201
economics 19192
Articles 19192
static 19182
cough 19179
Put 19177
versus 19172
technique 19171
gene 19166
relevant 19156
NO@@ 19156
concern 19150
Systems 19145
Fi 19143
App 19133
Table 19133
conversation 19130
remote 19127
strike 19123
Constitution 19117
dropped 19116
Ste@@ 19115
mer 19102
define 19099
stands 19099
Team 19098
fee 19096
vitamin 19089
owned 19087
description 19087
rising 19086
Follow 19080
input 19066
100@@ 19065
Turn 19063
bird 19060
36@@ 19060
storm 19053
cord 19048
WHAT 19045
revenue 19040
brands 19036
TI@@ 19034
HIV 19032
ned 19026
Institute 19024
Main 19023
classic 19012
pot 19006
tobacco 19005
introduced 19001
comp@@ 18985
husband 18977
Save 18976
Audio 18972
powers 18970
DO@@ 18970
allergic 18956
Heart 18955
engineering 18951
fruits 18948
Democrats 18948
pills 18947
shock 18939
appearance 18938
chances 18938
suffering 18923
vast 18920
onic 18903
Legal 18893
creation 18880
38@@ 18879
tickets 18875
sudden 18871
seriously 18870
ns 18870
gen@@ 18865
keyboard 18859
reached 18856
rent 18853
Min@@ 18850
acting 18847
producing 18846
UN 18842
washing 18836
album 18834
Bang 18814
logical 18793
Korean 18792
explore 18785
package 18784
Gr@@ 18782
Treatment 18773
3rd 18770
boiling 18758
cr@@ 18757
ups 18754
Key 18751
IC 18751
dinosaurs 18749
aspects 18743
Introduction 18741
boys 18737
­@@ 18726
37 18715
attached 18710
bike 18710
ate@@ 18707
classes 18695
delivery 18694
whereas 18690
god 18685
br@@ 18685
iOS 18678
Cre@@ 18676
generated 18669
bet 18668
Pay 18668
Large 18668
artist 18666
ass@@ 18660
diesel 18657
pen@@ 18654
legally 18654
democracy 18652
37@@ 18645
horse 18645
mortgage 18635
Quantum 18633
inches 18632
career 18631
positions 18618
understood 18617
cur@@ 18595
escape 18594
Trade 18594
can@@ 18593
Article 18586
domestic 18571
Management 18565
Clinton 18564
rear 18552
Cost 18549
reactions 18544
sion 18540
Home@@ 18537
Healthy 18536
ell 18530
Du@@ 18497
medications 18492
Democratic 18485
arguments 18484
Association 18484
Muslim 18466
ali@@ 18464
Col@@ 18460
spots 18450
tires 18447
battle 18446
dominant 18443
privacy 18437
Einstein 18431
800 18415
Amendment 18415
gravitational 18406
Feel 18404
youtube 18403
accent 18398
thesis 18395
micro@@ 18395
fy 18377
excess 18377
aspect 18375
Ireland 18374
pp@@ 18363
ticket 18360
breaks 18352
waking 18343
lighter 18336
ites 18334
Sal@@ 18333
hurts 18333
chip 18329
somehow 18321
winning 18317
ra 18315
League 18311
q 18311
Short 18302
previously 18300
Auto 18290
10.@@ 18290
End 18288
44 18287
des@@ 18287
Store 18286
sions 18276
post@@ 18275
sub 18273
bullet 18273
lenses 18268
ian 18267
Head 18266
clothing 18260
ty@@ 18259
The@@ 18258
LE 18257
discover 18252
neither 18244
10:@@ 18243
sight 18238
HOW 18237
injuries 18236
GPS 18234
pets 18225
Machine 18216
involves 18215
Political 18215
Comcast 18214
Plan 18213
balls 18210
binary 18205
operations 18201
bubble 18200
argue 18200
numerous 18191
AB@@ 18188
Core 18184
apple 18183
cent 18181
11:@@ 18180
breast 18172
Same 18168
procedure 18160
ther@@ 18160
ot@@ 18158
identical 18148
Heat 18145
creative 18139
sted 18135
Cap@@ 18134
Mag@@ 18131
funding 18127
historical 18124
guitar 18112
den 18111
socialism 18103
headache 18100
Galaxy 18075
Pr@@ 18074
mid 18070
mu@@ 18067
1:@@ 18059
Looking 18048
38 18047
ation@@ 18043
Arabia 18038
seek 18033
scratch 18028
Coffee 18027
Photos 18014
Engine 18012
warning 18007
bonds 18006
screens 18006
Def@@ 18005
drops 18001
housing 18000
TO@@ 17986
Jewish 17982
saving 17981
Go@@ 17980
passing 17980
organizations 17971
tooth 17967
Can@@ 17957
AS 17945
Come 17919
nails 17919
showed 17912
Effect 17900
capitalism 17896
Study 17893
smooth 17890
ved 17887
1% 17886
Dating 17884
Reserve 17883
Development 17881
Definition 17878
Remove 17874
savings 17863
suit 17862
12:@@ 17859
matters 17857
Islamic 17856
Perhaps 17853
awesome 17846
meeting 17835
alization 17832
sting 17830
document 17823
Des@@ 17823
flag 17818
bowl 17811
lips 17805
billions 17804
2002 17802
border 17797
signed 17792
Pe@@ 17788
Mal@@ 17788
Despite 17786
providers 17785
risks 17785
ub@@ 17783
ong 17782
wheels 17776
valuable 17772
ast@@ 17762
Week 17760
males 17754
ess 17746
Sch@@ 17734
08@@ 17732
perception 17732
del@@ 17731
ying 17726
justice 17720
manufacturers 17718
tracks 17713
Drink 17712
progress 17708
Society 17708
personality 17705
bur@@ 17701
Explain 17700
evil 17694
Makes 17690
1080p 17676
my@@ 17671
!@@ 17669
Simple 17669
Sk@@ 17664
Order 17656
follows 17650
sand 17648
somewhat 17646
reasonable 17637
holds 17626
Easy 17616
ran 17608
Battery 17603
covers 17600
ERS 17600
hundred 17597
bug 17594
extent 17590
Intel 17588
recovery 17588
Turkey 17579
Ocean 17569
work@@ 17564
Give 17564
corporate 17563
Am 17559
Single 17559
container 17559
ol 17558
sters 17548
profile 17547
weapon 17546
Continue 17545
committed 17540
Choose 17536
originally 17535
somebody 17512
shopping 17501
boat 17501
register 17487
di 17478
Word 17477
fusion 17474
terrible 17470
Box 17459
oo@@ 17454
Pl@@ 17454
organ 17449
usual 17447
sink 17446
pr@@ 17444
Create 17426
resulting 17425
phrase 17420
Hi@@ 17410
lin@@ 17409
sum 17406
AG@@ 17404
beings 17402
brings 17385
satellites 17385
formation 17374
lying 17365
watched 17363
Jews 17359
Chicago 17345
estimated 17345
Depression 17339
39 17326
citizen 17325
Understanding 17316
prepared 17313
rarely 17312
Out@@ 17305
survival 17305
philosophy 17297
shots 17294
Sony 17293
bunch 17290
NO 17278
interview 17274
custom 17271
spicy 17269
Case 17266
deals 17265
Medicine 17264
Little 17262
Flag 17252
shaped 17250
Chris 17247
odds 17230
opened 17228
serving 17226
Point 17221
aged 17210
tin 17208
J. 17202
cooling 17200
firm 17197
War@@ 17196
rape 17189
Journal 17179
oral 17178
NSA 17166
hand@@ 17163
client 17162
truck 17159
dr@@ 17154
married 17150
CR@@ 17141
shit 17140
liver 17139
Safe 17132
s.@@ 17130
tra@@ 17128
controls 17124
intelligent 17114
Drinking 17113
primarily 17106
Kim 17104
art@@ 17100
Winter 17075
ven@@ 17074
22@@ 17070
likes 17068
Through 17065
mom 17061
electromagnetic 17059
violent 17059
miss 17051
steam 17050
menu 17048
Lose 17047
ys@@ 17036
ion 17035
offering 17035
corporations 17032
Cal@@ 17031
hits 17031
addiction 17028
clients 17027
writer 17022
console 17020
employee 17017
EM@@ 17017
EN 17016
upload 17007
а@@ 17004
thousand 17000
conservative 16995
bitcoin 16989
zing 16984
We@@ 16972
Financial 16962
amp 16954
practical 16948
provider 16946
Future 16944
seemed 16937
ped 16924
ular 16921
Camera 16917
ff 16917
expansion 16916
и@@ 16914
48@@ 16914
wars 16913
Nature 16911
mechanism 16910
reliable 16902
banned 16902
GDP 16896
fashion 16894
Cable 16891
politicians 16880
passes 16880
copyright 16880
collapse 16874
continued 16873
ess@@ 16868
revolution 16866
efforts 16866
NE@@ 16865
dental 16865
manner 16862
supported 16861
Ob@@ 16858
Republic 16856
Ser@@ 16854
shipping 16853
Mu@@ 16852
desire 16850
electron 16850
Richard 16848
Native 16847
eg@@ 16845
dish 16843
choices 16831
cultures 16831
teacher 16828
regions 16826
a. 16825
ly@@ 16823
trillion 16817
mining 16812
Jo@@ 16804
Link 16802
Finally 16800
teachers 16798
vitamins 16797
ists 16794
weed 16772
PO@@ 16771
director 16771
substances 16769
grass 16764
WHY 16749
Council 16749
haven't 16748
environmental 16748
Jupiter 16745
heal 16735
42 16733
ISP 16725
Eyes 16723
Memory 16721
trigger 16717
nutrition 16715
(s 16710
ised 16708
processor 16705
ts@@ 16704
Zero 16694
ang 16692
fer@@ 16688
pulled 16687
#@@ 16677
focused 16671
printing 16668
tional 16667
axis 16666
Cause 16665
PS 16654
Clean 16650
Tell 16647
Mac@@ 16643
Dr@@ 16639
Rate 16638
gift 16630
UR@@ 16625
conscious 16619
liberal 16619
administration 16618
-year 16617
wi@@ 16615
differ 16615
/r 16609
shorter 16586
gum 16584
consciousness 16581
rapidly 16579
Ru@@ 16577
cables 16567
enforcement 16566
ari@@ 16561
mal@@ 16559
fewer 16557
ann@@ 16554
Personal 16552
Salt 16544
agency 16542
rated 16541
finish 16540
rotation 16539
pros 16538
Safety 16528
5% 16521
Ber@@ 16518
beliefs 16509
Fi@@ 16499
od@@ 16498
ase 16497
Wireless 16494
Muslims 16494
dimensions 16493
sheet 16491
destroyed 16489
150 16483
deliver 16482
soil 16480
50% 16476
betting 16465
Climate 16463
Place 16454
worldwide 16450
danger 16449
carried 16449
equation 16448
annual 16446
payments 16444
sending 16442
Problem 16441
ure 16431
99@@ 16428
edited 16422
roughly 16417
Avoid 16415
finished 16415
concepts 16409
Analysis 16406
angry 16401
Action 16400
penalty 16392
mg 16387
Tag 16384
intense 16379
caffeine 16379
Site 16366
relativity 16364
observed 16357
AI 16352
belly 16349
occurred 16345
movements 16343
CO2 16331
expand 16330
detailed 16329
ick@@ 16329
Say 16326
pri@@ 16325
vice 16315
Si@@ 16310
aff@@ 16309
thick 16308
2:@@ 16302
studying 16301
magic 16300
Cha@@ 16300
EX@@ 16294
ham 16286
odd 16286
Sw@@ 16285
WiFi 16284
ju@@ 16283
virtual 16282
07@@ 16274
circumstances 16273
ce 16272
HO@@ 16261
Based 16260
closely 16252
sequence 16248
concerns 16239
servers 16238
tw@@ 16233
efficiency 16230
investors 16229
dioxide 16229
darker 16228
Fall 16225
seeds 16220
china 16211
elected 16211
Red@@ 16211
brief 16206
spray 16199
Mer@@ 16198
SE 16197
Math 16196
Cup 16195
Weather 16190
struggle 16183
Justice 16181
Al 16181
Voice 16178
symbol 16177
structures 16174
men@@ 16168
Private 16163
ams 16156
proposed 16154
Basic 16151
jury 16145
bridge 16140
soccer 16139
~ 16136
bang 16135
park 16132
Class 16130
Commercial 16119
codes 16114
damaged 16113
4th 16112
rely 16110
squ@@ 16108
relief 16099
Smell 16098
indicate 16097
ization 16086
bubbles 16085
bas@@ 16083
hidden 16083
Story 16082
Years 16081
Ti@@ 16076
gre@@ 16072
FREE 16058
ET 16054
Film 16047
mammals 16028
TE@@ 16027
locations 16021
ths 16020
IM@@ 16020
FM 16017
ick 16014
ently 16012
profits 16010
responsibility 16009
Pictures 16001
hide 15999
boost 15990
red@@ 15989
mat@@ 15984
conventional 15980
parallel 15978
invest 15973
reflect 15971
Bush 15969
BO@@ 15968
Reading 15960
victims 15957
breakfast 15953
fund 15950
voters 15938
Dollar 15935
chips 15933
gap 15930
jo@@ 15925
Example 15925
► 15924
annoying 15921
females 15919
Tom 15916
destroy 15912
classical 15908
represents 15907
о@@ 15907
pixels 15907
nerve 15904
Los 15900
bees 15895
Sale 15886
Working 15881
dying 15881
AA 15880
ford 15879
Soviet 15866
goals 15865
desktop 15865
Wh@@ 15863
pping 15862
ha 15852
03@@ 15838
Training 15833
silver 15832
wonderful 15831
surprise 15827
SS@@ 15827
lawyer 15823
Bal@@ 15821
tons 15813
served 15812
daughter 15803
ID@@ 15797
immigrants 15788
ously 15787
selected 15783
Fox 15776
raising 15772
ach 15770
tis 15766
extended 15765
pu@@ 15764
Major 15751
backwards 15747
39@@ 15745
trick 15745
47@@ 15732
bars 15729
med 15725
disorders 15724
Such 15722
eng@@ 15721
Product 15720
mood 15715
butter 15715
seats 15713
D. 15710
beauty 15707
URL_4 15703
appeared 15702
creatures 15692
Essays 15690
Spain 15687
scared 15687
ware 15686
singing 15686
tape 15685
ino 15684
toxic 15680
valid 15674
Doctor 15669
Milky 15665
с@@ 15663
haven’t 15660
gar@@ 15655
teaching 15653
top@@ 15649
gate 15648
Pi@@ 15643
Fin@@ 15642
09@@ 15641
travels 15640
101 15633
bear 15633
unlike 15628
chart 15625
schedule 15624
authority 15617
Young 15617
obtain 15611
ws 15607
explosion 15599
ash 15592
lighting 15587
dates 15576
beef 15571
oz 15566
nine 15563
Something 15561
Important 15555
stretch 15544
maps 15542
panel 15530
’. 15522
corner 15519
fell 15519
victim 15517
immigration 15513
Er@@ 15511
Unlike 15509
shapes 15504
quote 15504
Jobs 15499
discussed 15499
shake 15499
shell 15498
launched 15488
fying 15487
iting 15486
Countries 15483
tight 15481
col@@ 15478
Universal 15477
20th 15473
absorb 15469
diabetes 15463
dedicated 15462
answered 15461
apparently 15460
calorie 15457
agencies 15449
managed 15448
min 15446
beneficial 15439
database 15438
presented 15435
collect 15432
hu@@ 15428
Figure 15428
adjust 15425
Italian 15425
Queen 15424
baseball 15416
Martin 15401
mor@@ 15398
developers 15398
ki@@ 15398
trained 15396
Dry 15391
Rec@@ 15390
scenes 15385
spoken 15379
Pres@@ 15368
sal@@ 15366
ash@@ 15365
vertical 15365
3:@@ 15362
Gl@@ 15357
statistics 15356
ton@@ 15352
aries 15352
49 15349
northern 15346
ble@@ 15345
S. 15337
Hand 15333
ville 15329
surprised 15317
incredibly 15313
2% 15312
Students 15312
Getty 15310
Stephen 15309
bra@@ 15309
Rock 15305
Symptoms 15304
successfully 15299
ceiling 15293
colored 15289
react 15287
tail 15287
processed 15284
gon 15284
Season 15283
stem 15275
tro@@ 15275
iness 15273
sized 15273
Marketing 15273
component 15266
receiving 15266
blocks 15261
Metal 15260
interests 15253
Station 15248
Discussion 15243
ah@@ 15243
ours 15236
Uncategorized 15234
monthly 15231
penis 15231
urge 15229
Fe@@ 15228
Res@@ 15228
remaining 15223
As@@ 15220
psychological 15219
personally 15218
inf@@ 15216
Five 15202
Sur@@ 15201
consent 15200
Ho@@ 15197
restaurants 15195
sorry 15192
mechanical 15189
Cur@@ 15184
tag 15181
cap 15180
Going 15171
performed 15170
Line 15169
trans@@ 15168
Dead 15164
torrent 15162
Run 15162
figures 15160
BE@@ 15157
Te@@ 15145
poop 15141
ered 15140
reducing 15139
debit 15138
CEO 15135
Building 15132
probability 15132
dealing 15131
relations 15131
Disney 15115
bond 15111
modified 15090
met@@ 15090
scheme 15088
deeper 15083
Log 15073
awareness 15069
distinct 15060
approved 15055
layers 15047
ey@@ 15046
47 15045
Met@@ 15043
Nothing 15040
contribute 15038
boxes 15036
honey 15033
inc@@ 15032
Chrome 15023
restaurant 15013
joint 15011
Pinterest 15010
ably 15007
Four 15004
vers 15001
kes 14997
infected 14995
unemployment 14992
FBI 14989
premium 14984
chosen 14979
ori@@ 14975
ances 14971
cher 14970
melt 14964
ath@@ 14963
Nintendo 14963
corn 14962
club 14957
infections 14955
bal@@ 14953
tough 14952
Win@@ 14945
Em@@ 14937
dance 14932
containing 14931
lowest 14930
concrete 14928
-1 14915
industrial 14912
2-@@ 14909
Often 14909
assets 14908
pushing 14904
evolutionary 14904
alize 14903
lesson 14902
supports 14898
instantly 14897
46 14895
orders 14894
Wind 14891
favor 14887
identified 14885
05@@ 14884
communities 14882
capture 14877
whom 14871
Screen 14870
Maps 14868
consists 14866
rice 14866
meals 14865
categories 14862
Views 14858
recipe 14857
3,@@ 14853
IR@@ 14848
rac@@ 14846
Economic 14844
sperm 14842
au 14838
vital 14833
executive 14831
helium 14823
Christianity 14819
201@@ 14818
burns 14816
experiencing 14809
neutral 14800
4:@@ 14794
06@@ 14783
musical 14783
Island 14777
5:@@ 14776
cy@@ 14763
04@@ 14759
fo@@ 14753
ement 14752
Don@@ 14751
osis 14750
Wi@@ 14745
anger 14742
cooler 14736
pound 14732
yesterday 14731
Popular 14727
Blu 14725
controversial 14725
pan@@ 14724
graphic 14722
pen 14721
Steam 14715
Gra@@ 14714
decade 14711
expression 14710
UTC 14706
Smith 14700
maintenance 14697
fre@@ 14695
mouse 14694
Thomas 14691
hyper@@ 14690
forth 14687
Colorado 14684
rooms 14676
enti@@ 14669
Usually 14668
CON@@ 14667
animation 14666
lu@@ 14663
kin 14660
Update 14658
Country 14653
ist@@ 14650
accents 14647
Drugs 14646
surfaces 14645
arrested 14644
Defense 14643
600 14638
commercials 14634
--T--@@ 14632
Select 14625
BBC 14619
Her 14615
Smart 14602
eliminate 14601
alist 14596
soldiers 14593
Sure 14585
prepare 14585
10% 14583
Examples 14580
journey 14580
instruments 14576
gases 14575
challenges 14570
USD 14570
Planet 14566
discovery 14562
carrying 14561
é 14556
Anyone 14552
fourth 14548
island 14547
Account 14546
bri@@ 14546
rings 14543
technologies 14541
radioactive 14541
legislation 14540
computing 14540
coin 14538
ney 14531
Animal 14531
predict 14527
ited 14520
ac 14519
Double 14518
worried 14516
pill 14513
Companies 14512
dinner 14511
Below 14502
weekend 14502
ny 14502
SA 14499
edit 14498
bombs 14497
SO@@ 14494
directions 14494
frequencies 14484
Access 14482
At@@ 14475
Mass 14475
suggested 14471
Club 14464
nap 14461
Instagram 14460
tim@@ 14456
Early 14450
department 14448
allergy 14436
Matter 14429
spiders 14429
clo@@ 14427
blocked 14423
ONE 14418
issued 14418
army 14418
lyrics 14413
43 14408
consistent 14404
swallow 14404
workout 14404
choosing 14401
uk 14398
Summer 14391
thinks 14388
va 14385
asks 14384
warmer 14382
largely 14381
Cri@@ 14380
estate 14380
Fish 14379
Coke 14379
dimension 14378
careful 14376
Latest 14373
sy 14371
Fix 14369
pole 14367
connections 14364
*@@ 14364
equally 14364
ache 14364
jail 14360
Wi 14355
ATION 14354
uncomfortable 14353
AD 14342
depend 14342
Snowden 14338
scope 14327
loose 14325
persons 14321
ko 14319
poverty 14310
Angeles 14310
promote 14301
Exchange 14300
invented 14298
gotten 14295
our@@ 14289
employment 14280
sun@@ 14279
Teeth 14278
41 14278
driven 14274
puts 14265
che@@ 14257
bound 14248
Mil@@ 14239
M. 14239
locked 14238
bro@@ 14236
suspect 14225
° 14224
greatly 14223
PR@@ 14221
healing 14216
Gar@@ 14215
fossil 14209
resistant 14206
terrorist 14198
faith 14196
quotes 14195
ica 14193
~@@ 14183
everybody 14181
Muscle 14178
measurement 14177
em 14177
Write 14172
55@@ 14171
Hollywood 14171
Beer 14167
Southern 14165
commit 14164
neutrality 14159
Hello 14158
encryption 14156
applies 14151
facial 14151
ot 14146
viewing 14138
purchased 14134
mechanics 14121
determines 14119
practices 14118
ut 14118
Differences 14117
Micro@@ 14117
quiet 14115
CC 14110
Italy 14108
outs 14106
Mis@@ 14105
William 14099
acceptable 14099
tasks 14090
shirt 14088
safely 14083
trend 14082
Fre@@ 14081
Ir@@ 14081
ran@@ 14081
pink 14078
spacecraft 14075
Magic 14066
Numbers 14066
Ford 14060
Ideas 14059
moral 14057
dreaming 14048
85 14044
improved 14041
thank 14037
ultimately 14034
registered 14029
are@@ 14025
Foreign 14025
dependent 14018
currencies 14017
wings 14015
True 14014
Culture 14012
sector 14011
pur@@ 14009
suitable 14004
nucleus 14004
intake 14004
comm@@ 14003
Room 13998
tically 13988
Labels 13986
blame 13986
UT@@ 13984
pipe 13981
deficit 13980
Pop 13980
Trading 13970
coins 13961
Against 13957
readers 13957
Air@@ 13946
writers 13940
voted 13939
pat@@ 13935
affordable 13932
nobody 13922
plain 13919
pal@@ 13918
arrest 13915
realized 13915
Star@@ 13910
episodes 13902
C. 13900
sion@@ 13896
unknown 13896
evening 13895
minds 13893
distant 13892
noted 13889
encourage 13888
hydro@@ 13887
disc 13884
headaches 13875
conclusion 13875
Bri@@ 13874
duty 13874
drain 13870
PRO@@ 13866
es’ 13864
lifestyle 13861
mixture 13861
Peter 13850
entertainment 13847
pe 13847
sodium 13840
Gravity 13838
drawn 13828
hire 13822
Comp@@ 13816
perceive 13811
boards 13810
Total 13808
Web@@ 13806
resource 13797
Ebola 13793
Similar 13791
bath 13789
tends 13788
pped 13786
habits 13785
My@@ 13782
Intelligence 13782
ca@@ 13774
banking 13772
Pri@@ 13771
swimming 13768
fa@@ 13760
printed 13758
patent 13754
\ 13753
psychology 13749
Che@@ 13749
SU@@ 13746
recover 13736
appreciate 13734
Up@@ 13734
float 13731
chapter 13730
principles 13729
LCD 13726
Pros 13725
comfort 13719
Joined 13716
Into 13714
Inside 13711
algorithm 13707
Problems 13705
ordinary 13705
wax 13698
marked 13696
fired 13695
om 13694
Files 13688
sol@@ 13685
plugged 13680
da@@ 13673
pour 13668
smartphone 13652
Yeah 13651
tension 13649
8:@@ 13646
Tea 13644
Were 13644
chemistry 13641
AV@@ 13640
metals 13637
Cloud 13636
honest 13636
Location 13633
literature 13630
SH@@ 13629
household 13627
horizon 13621
lists 13620
Evolution 13614
sch@@ 13612
relation 13611
frames 13606
Ni@@ 13604
51 13604
Orange 13601
lab 13600
opportunities 13592
Fer@@ 13592
Level 13591
Christians 13591
noises 13587
Original 13583
New@@ 13582
calculated 13580
returns 13577
9:@@ 13575
Trans@@ 13569
agent 13566
wallpaper 13560
pan 13559
Buying 13557
competitive 13557
recognized 13555
concentration 13554
ai@@ 13553
ba@@ 13552
™ 13549
manufacturing 13546
Obamacare 13545
ets 13542
Jack 13540
Gi@@ 13538
traits 13528
zz@@ 13527
SD 13521
St. 13518
Content 13513
checked 13508
confidence 13505
bringing 13503
session 13500
passengers 13499
express 13498
hor@@ 13498
ational 13497
Ur@@ 13490
graph 13488
rocks 13488
Shows 13487
ki 13487
command 13486
exception 13478
enc@@ 13471
sen@@ 13471
dad 13469
Economy 13467
Third 13467
46@@ 13466
Minister 13465
Topic 13463
120 13458
nail 13458
Programming 13457
electronics 13456
iPad 13453
ow@@ 13451
Laws 13447
Value 13445
// 13444
missile 13441
Ph@@ 13436
Taste 13431
Others 13430
Mi@@ 13429
Disease 13426
ratings 13424
Sun@@ 13424
Anti@@ 13414
Prices 13412
icon 13412
cute 13411
Ancient 13410
Deal 13407
hitting 13406
seeking 13405
ial 13404
Hor@@ 13398
evolve 13395
Become 13394
Sa@@ 13394
abortion 13393
habit 13392
Empire 13391
mistake 13384
quarter 13380
Index 13377
flights 13372
entering 13369
extension 13367
Funny 13365
racist 13365
Fr@@ 13365
Chicken 13360
Ben@@ 13354
pdf 13349
ges 13342
3% 13341
pilot 13335
routine 13332
tall 13332
ii 13332
Yellow 13327
retail 13326
route 13314
cha@@ 13314
zed 13313
On@@ 13313
reserved 13309
Boston 13309
nuts 13308
Local 13307
Vietnam 13307
Ref@@ 13297
instant 13297
Milk 13293
photography 13291
oh 13286
tes 13279
ment@@ 13278
IP@@ 13278
excited 13276
6:@@ 13274
folks 13273
Mike 13272
dimensional 13270
brother 13262
floating 13259
religions 13259
weigh 13256
Grow 13256
bots 13255
forming 13255
Channel 13250
Studies 13249
pocket 13244
claimed 13242
97@@ 13237
meter 13233
strikes 13230
Babies 13227
wages 13224
Sorry 13223
describes 13221
ises 13218
sec@@ 13215
fiction 13214
sive 13208
Rules 13204
powder 13203
reflection 13203
sufficient 13202
panels 13199
Master 13195
Sugar 13195
Pan@@ 13191
Income 13190
dy@@ 13189
Bas@@ 13187
{@@ 13186
Build 13185
Mat@@ 13179
difficulty 13176
ging 13176
meters 13175
pc 13174
Them 13170
downloading 13169
52 13164
Dictionary 13161
Basically 13158
investigation 13157
}@@ 13155
heated 13153
classified 13153
Stay 13153
baking 13151
Men@@ 13147
conducted 13146
Magazine 13145
holiday 13145
wound 13145
black@@ 13142
reader 13126
Computers 13125
delete 13122
estimate 13118
regulations 13116
Cam@@ 13115
grocery 13113
val@@ 13112
viewed 13112
Mel@@ 13111
Edward 13110
tune 13105
carefully 13099
Protection 13093
PS@@ 13090
Irish 13089
5th 13089
Vitamin 13089
Website 13086
tie 13083
treatments 13081
gallon 13081
Hey 13079
checking 13077
cents 13074
generic 13069
Pal@@ 13067
Steve 13063
sti@@ 13061
lifting 13055
rises 13051
basketball 13049
merely 13046
Engineering 13044
semi 13036
ined 13035
similarities 13034
oceans 13034
ME 13031
chronic 13028
Behind 13023
FAQ 13023
hom@@ 13020
log@@ 13019
itation 13019
Crisis 13018
yawn 13017
Repair 13016
sees 13015
loading 13002
makers 12999
aside 12996
Michigan 12996
ap 12995
grams 12994
loc@@ 12991
disaster 12989
injured 12989
dirty 12986
Jones 12985
La@@ 12980
Retrieved 12979
survey 12978
democratic 12969
delivered 12968
lion 12968
discrimination 12966
replacement 12963
ignore 12962
mathematics 12959
Player 12951
ack 12945
library 12945
down@@ 12943
enemy 12935
Black@@ 12935
circles 12931
Saturn 12930
conduct 12929
ric@@ 12929
Own 12928
theme 12927
fraud 12917
removing 12917
Java 12911
addresses 12910
900 12908
acceleration 12907
Quality 12905
printer 12904
BR@@ 12904
secondary 12904
unusual 12904
agreed 12904
Bre@@ 12903
underwater 12902
supporting 12901
busy 12901
skill 12899
poly@@ 12894
reaches 12893
Eastern 12890
FCC 12889
Driving 12889
saved 12887
pollution 12885
Vision 12882
magnet 12881
Stars 12878
1,000 12877
WE@@ 12875
terrorism 12873
Youtube 12871
HE@@ 12864
ries 12855
ita 12854
upset 12853
4,@@ 12843
deaths 12843
Male 12843
hi 12840
tolerance 12838
ose 12836
Affect 12831
freezer 12831
appeal 12822
drawing 12816
98 12813
hunger 12808
compression 12807
responses 12803
Truth 12786
fed 12784
kick 12783
B. 12776
coal 12772
fault 12770
photons 12767
ron 12767
blowing 12764
Lights 12760
IL@@ 12753
stages 12748
belt 12748
repeat 12748
ich 12745
unions 12745
childhood 12745
moments 12744
equ@@ 12744
Catholic 12738
Cut 12736
Ray 12733
Lord 12731
bulb 12728
knife 12728
Secret 12725
YOUR 12725
Syrian 12725
recall 12724
minerals 12723
broadcast 12722
star@@ 12720
Pi 12719
Rid 12714
roots 12713
altitude 12710
mathematical 12708
ain@@ 12707
Currency 12704
fridge 12702
cal@@ 12697
ger@@ 12697
mid@@ 12695
stri@@ 12694
Carbon 12694
Hu@@ 12687
quit 12684
1999 12679
scenario 12676
instrument 12673
Smoking 12673
protons 12672
Under@@ 12667
unlikely 12664
Female 12658
pronounced 12655
Den@@ 12653
residents 12649
Rel@@ 12645
tags 12645
wisdom 12644
maker 12644
Navy 12644
smile 12643
head@@ 12640
transport 12637
Calories 12637
burned 12635
teen 12634
Presidential 12634
infrastructure 12634
bands 12634
Flight 12633
wise 12628
carrier 12627
subreddit 12625
7:@@ 12613
decay 12610
Term 12604
division 12601
Cola 12598
revealed 12597
observe 12588
Mind 12586
generations 12586
tly 12582
stroke 12579
searching 12576
DR@@ 12576
ory 12575
ony 12568
horizontal 12563
lands 12561
wires 12556
wifi 12556
engage 12553
ely 12550
м@@ 12546
ket@@ 12546
horses 12545
Mental 12543
ro 12539
Gun 12539
seemingly 12535
roof 12534
manager 12526
Val@@ 12525
dose 12520
Au@@ 12517
mo 12516
southern 12515
250 12515
ov@@ 12515
multi@@ 12512
ink@@ 12508
dirt 12502
amendment 12498
ung 12496
americans 12495
copper 12492
trucks 12489
win@@ 12481
employer 12480
chi@@ 12478
counting 12478
alphabet 12474
chair 12472
á@@ 12466
confusing 12462
broke 12462
talked 12462
Egypt 12461
Okay 12454
в@@ 12454
plates 12454
lim@@ 12451
ination 12450
PA 12449
opinions 12445
decline 12440
Asset 12437
ier 12435
hip 12434
barely 12432
craft 12428
Christ 12424
checks 12423
cat@@ 12421
Dr 12417
increasingly 12415
pi 12415
aim 12410
hang 12409
ute 12409
proteins 12408
Election 12407
welcome 12404
removal 12403
covering 12402
—@@ 12401
feedback 12399
strongly 12399
$@@ 12396
myth 12395
moisture 12393
summary 12392
ba 12391
ELI5 12389
rub 12386
Ju@@ 12378
centre 12377
Around 12376
tur@@ 12373
Bra@@ 12373
ums 12372
sister 12371
Taking 12370
talks 12369
Pen@@ 12369
Running 12365
Hubble 12362
4% 12361
ease 12360
existed 12359
Scientology 12353
Verizon 12347
races 12347
purchasing 12345
disadvantages 12344
Edition 12343
mirrors 12343
Plastic 12339
passenger 12339
heavily 12336
ano 12336
hence 12335
safer 12333
ech@@ 12332
int@@ 12325
Ra@@ 12325
pulling 12324
twins 12324
Half 12323
MP@@ 12319
ese 12315
Johnson 12314
Nor@@ 12309
Freedom 12304
garden 12303
silent 12302
acne 12302
sa 12301
tire 12300
Ke@@ 12299
pleasure 12298
don 12297
Professional 12296
pointed 12291
accused 12290
Win 12290
ISPs 12287
realistic 12285
involve 12285
pizza 12276
diameter 12274
admit 12273
Slow 12268
Yahoo 12267
clocks 12267
ple@@ 12265
← 12264
..... 12264
л@@ 12255
urban 12250
sentences 12246
tre@@ 12239
institutions 12235
attract 12235
completed 12232
Electronic 12227
tracking 12226
cannabis 12224
panic 12221
sensor 12220
ama 12210
locks 12210
Jump 12209
Area 12209
rubber 12209
agents 12207
e.@@ 12205
MA 12204
horrible 12200
curve 12196
E. 12195
eaten 12194
combat 12189
67@@ 12188
parking 12187
joints 12185
rapid 12183
Scotland 12183
rats 12182
buttons 12178
form@@ 12176
attorney 12175
Ca@@ 12174
57@@ 12173
bass 12172
gen 12170
owns 12166
emails 12164
Hum@@ 12164
21@@ 12161
Faster 12160
Pakistan 12156
knee 12149
punishment 12148
ency 12147
mate 12138
dri@@ 12137
Economics 12135
Skip 12129
electoral 12128
Hitler 12125
cap@@ 12122
shadow 12122
Shop 12120
Joe 12117
ISS 12117
investing 12113
balanced 12113
max 12112
Picture 12112
mile 12112
ner@@ 12111
immediate 12108
guarantee 12106
dual 12105
Coca 12102
int 12098
joke 12094
za 12090
bre@@ 12090
breed 12089
Enter 12082
Compare 12080
finance 12080
converted 12079
Arab 12078
mess 12077
gg@@ 12076
dress 12076
crucial 12072
backs 12071
Results 12058
Obviously 12057
decent 12054
02@@ 12048
exercises 12048
Topics 12044
1/2 12042
picked 12038
QU@@ 12036
metric 12035
Custom 12034
bandwidth 12030
Direct 12028
till 12025
represented 12017
Atlantic 12016
20% 12009
Laser 12009
Answered 12007
cups 12007
reform 12005
overview 12004
outlet 12004
Electricity 12003
titles 12002
dense 11998
Nations 11995
stopping 11994
peak 11994
Pluto 11994
River 11991
scary 11988
airport 11985
mentally 11983
branch 11979
grew 11979
Mon 11972
assuming 11971
india 11969
ow 11968
you@@ 11968
cm 11967
territory 11966
Library 11964
LA 11961
permission 11960
interact 11959
navigation 11955
Ros@@ 11955
ue 11955
quantity 11949
FE@@ 11948
Hol@@ 11947
luck 11946
Print 11944
ingly 11941
lunch 11939
outcome 11938
Sta@@ 11926
crying 11924
Commission 11920
cam@@ 11917
Je@@ 11915
Got 11911
strategies 11910
streets 11909
transition 11907
beverages 11905
ect 11905
statements 11904
deadly 11904
genetically 11904
bin 11901
Lake 11898
ace 11897
pin 11891
plasma 11888
excessive 11887
armed 11886
oid 11884
Shi@@ 11883
compatible 11883
temporary 11871
Radiation 11868
LY 11862
Afghanistan 11851
racing 11850
independence 11848
Lee 11845
actor 11844
ile 11844
flip 11837
Golden 11835
universities 11831
Spring 11826
variable 11821
="@@ 11819
Porn 11815
clicking 11815
fastest 11813
ain 11813
delicious 11812
Sites 11810
Job 11810
AF@@ 11809
III 11807
vector 11804
fuels 11800
cake 11799
vaccine 11799
script 11796
Quick 11796
BY 11795
Grand 11795
Traffic 11795
Simply 11794
ultimate 11793
Zealand 11792
indicates 11786
manufacturer 11782
grey 11782
Shower 11781
beach 11774
Virginia 11772
anc@@ 11767
berg 11765
ports 11762
ards 11762
biology 11760
Scott 11755
Industry 11752
symbols 11750
Signs 11747
Carolina 11745
Section 11744
lung 11744
Face 11744
BC 11743
56 11742
sy@@ 11739
assault 11738
labels 11737
88@@ 11737
Sol@@ 11735
deaf 11735
ath 11734
divide 11731
ax@@ 11731
styles 11729
Pressure 11728
criminals 11713
Exactly 11710
Foundation 11709
ski 11708
R. 11708
frequent 11706
directed 11705
т@@ 11704
ners 11703
app@@ 11702
Lu@@ 11702
adds 11701
farm 11697
ا@@ 11694
Given 11691
mountain 11686
Rep@@ 11686
Lost 11685
Wal@@ 11683
innocent 11682
naked 11682
incredible 11679
organized 11678
Bowl 11677
ADHD 11677
centuries 11676
diagram 11669
Cancel 11667
scientist 11664
Post@@ 11664
professor 11664
ture 11661
][@@ 11661
ster@@ 11660
ella 11660
Girl 11659
confirmed 11655
hormones 11653
coast 11652
balloon 11650
Mexican 11648
Gre@@ 11646
signature 11646
crew 11644
Stomach 11642
ids 11641
UV 11636
fabric 11635
acc@@ 11632
reporting 11631
designs 11630
Due 11628
Almost 11626
loves 11625
compete 11613
digestive 11611
CT 11610
transactions 11606
12.@@ 11606
10,000 11606
LLC 11604
Happy 11603
Vegas 11596
Ter@@ 11594
bit@@ 11593
Temperature 11592
sel@@ 11590
melting 11589
hy@@ 11588
Cra@@ 11586
kg 11586
underground 11581
Jersey 11576
ola 11576
Resources 11575
д@@ 11570
circulation 11569
yn@@ 11568
wrap 11566
chat 11558
Jackson 11558
Rated 11555
senses 11553
Dep@@ 11552
posting 11550
surely 11545
scores 11542
ati@@ 11542
gam@@ 11540
NBA 11538
tears 11537
loop 11535
organism 11534
scan 11533
contained 11533
Fun 11529
MORE 11524
momentum 11522
stays 11520
lifetime 11518
Apps 11513
measuring 11509
hack 11502
processors 11501
Cat@@ 11500
seasons 11499
desired 11499
aches 11499
gy 11499
Land 11497
accurately 11496
Thread 11492
professionals 11492
constitutional 11490
liquids 11490
mus@@ 11488
tical 11487
friction 11486
Average 11485
Is@@ 11481
fin@@ 11480
Sam@@ 11480
adopted 11473
pitched 11472
alcoholic 11472
reduction 11470
ker@@ 11468
virtually 11464
superior 11461
Venus 11461
000 11459
Error 11458
Birds 11457
Motion 11454
gray 11454
Kar@@ 11453
letting 11453
blades 11451
river 11447
Ren@@ 11440
hal@@ 11440
relax 11439
scandal 11438
Bob 11437
explaining 11436
logo 11434
derived 11433
URL_5 11433
orgasm 11433
ils 11429
painting 11429
salary 11427
attempts 11421
pipes 11420
junk 11418
involving 11418
FDA 11418
CIA 11412
1998 11412
digits 11408
unlimited 11406
verse 11401
ken 11400
itchy 11391
gram 11387
﻿ 11386
upgrade 11383
legitimate 11381
reaching 11381
ward 11372
Fresh 11367
Hel@@ 11367
mild 11366
constitution 11366
fires 11365
unhealthy 11364
supplements 11363
aluminum 11360
exciting 11358
anime 11357
performing 11353
tagged 11353
hotter 11352
ml 11351
germs 11350
Episode 11343
rel@@ 11343
Illegal 11341
filling 11339
000@@ 11336
49@@ 11332
humanity 11331
lane 11330
experiments 11327
Charles 11325
purple 11323
soul 11322
absorbed 11318
Spotify 11317
plan@@ 11314
applying 11313
op 11312
Interest 11310
Ta@@ 11307
Royal 11306
hotel 11304
releases 11303
Sky 11298
Field 11295
Administration 11294
animated 11291
basics 11290
facebook 11289
Cheap 11289
magazine 11279
boil 11276
ata 11272
courts 11265
%@@ 11261
Nutrition 11260
cycles 11259
Girls 11256
lit@@ 11255
sem@@ 11253
Adam 11252
PL@@ 11249
leg@@ 11249
21st 11249
ide@@ 11246
poles 11245
dizzy 11245
66 11244
nu@@ 11244
caps 11242
shed 11242
expressed 11241
Random 11236
by@@ 11235
,,,,@@ 11235
rolling 11233
Cuba 11231
ette 11228
occurring 11227
throwing 11225
Older 11224
Fed 11221
upside 11217
zer 11216
believes 11214
19th 11213
VA 11213
finds 11207
calendar 11205
varies 11205
Finance 11203
ack@@ 11202
72 11201
calculator 11201
im 11190
Less 11190
cli@@ 11190
apparent 11187
11.@@ 11185
SS 11182
HP 11180
heavier 11180
formal 11178
flavors 11178
candle 11176
Bel@@ 11172
у@@ 11172
Generally 11169
sil@@ 11167
Andrew 11166
staying 11166
Kong 11163
Brazil 11154
SC@@ 11152
chief 11151
toe 11151
Diagram 11150
и 11148
conspiracy 11148
Fiber 11145
kills 11136
tan 11133
•@@ 11132
lucky 11129
01@@ 11127
Putin 11127
Ko@@ 11124
lic 11119
representation 11118
ref@@ 11116
Imagine 11113
grows 11110
book@@ 11107
IV 11105
Insider 11104
versa 11104
suppose 11102
assistance 11101
acy 11100
cocaine 11096
THIS 11095
Wil@@ 11093
cellular 11090
char@@ 11089
bing 11087
installation 11085
PE@@ 11083
texture 11082
Arizona 11081
Fly 11079
tablet 11079
chose 11074
tries 11074
calm 11073
employers 11072
bling 11068
diagnosed 11068
hypothesis 11068
referring 11068
cho@@ 11066
passwords 11065
tile 11063
candy 11061
Scientific 11061
cul@@ 11057
1.5 11051
hunting 11050
brake 11046
54 11037
Quotes 11037
consuming 11034
web@@ 11032
tied 11032
fps 11029
Pol@@ 11027
exclusive 11025
pol@@ 11021
closing 11019
troops 11012
tablets 11012
hum@@ 11004
ure@@ 11003
controversy 11002
wa@@ 11001
prey 10999
ou 10996
User 10994
afternoon 10994
iled 10993
emissions 10993
ity@@ 10991
2.0 10990
viewers 10989
THAT 10988
preferred 10988
telephone 10988
healthier 10986
shoulder 10983
MA@@ 10979
convenient 10978
yl@@ 10978
Ear@@ 10977
procedures 10976
Ohio 10975
v. 10969
Noise 10969
3-@@ 10966
behaviour 10965
п@@ 10964
Valley 10964
Pu@@ 10961
Silver 10960
Consider 10958
magnets 10957
informed 10956
new@@ 10955
dic@@ 10952
Dream 10943
rotate 10943
league 10940
consoles 10938
trains 10938
kit 10934
Microwave 10933
astronauts 10933
mixing 10932
odor 10932
Complete 10927
Exercise 10927
Philosophy 10924
IQ 10923
nearby 10922
ged 10921
popularity 10921
е 10920
generator 10920
Celsius 10914
partners 10913
planned 10913
corporation 10912
MD 10909
Description 10906
Ed@@ 10904
Bon@@ 10903
pays 10902
roles 10902
vessels 10900
sauce 10893
MS@@ 10890
Close 10888
toes 10885
grid 10882
nerves 10882
ordered 10881
Days 10880
bers 10878
2/@@ 10875
compounds 10874
scent 10870
Paris 10864
Cons 10863
FO@@ 10863
seed 10860
Cool 10858
alists 10854
ini 10852
composition 10846
Bro@@ 10842
swim 10842
obtained 10838
eless 10838
bul@@ 10836
Artificial 10827
ban@@ 10826
:) 10823
Str@@ 10822
Cream 10820
Perfect 10818
offensive 10817
Uber 10817
5/@@ 10814
cracking 10813
editing 10809
10/@@ 10806
kin@@ 10805
Dra@@ 10805
Lightning 10804
humidity 10800
functional 10797
certificate 10797
Friends 10796
veins 10796
eastern 10794
AMD 10794
Asked 10792
authorities 10790
tower 10789
chewing 10788
Written 10787
GPU 10786
TA 10785
Ki@@ 10783
Director 10782
CE 10779
gambling 10776
Tim@@ 10773
RA@@ 10772
og@@ 10772
Morning 10771
accidents 10769
zi@@ 10764
Bed 10763
Process 10761
Steel 10761
tan@@ 10759
Gaming 10758
Newton 10758
novel 10757
distances 10756
det@@ 10754
liked 10750
refuse 10749
supplies 10748
draft 10746
thrown 10742
77@@ 10742
90% 10737
flows 10736
ther 10736
Info 10735
56@@ 10733
distributed 10732
ie@@ 10722
yeah 10719
Style 10719
Text 10714
lin 10712
promise 10711
stolen 10710
TVs 10708
prone 10707
Tue 10705
Criminal 10703
defend 10701
ort 10695
dro@@ 10694
wealthy 10690
Fahrenheit 10690
nutritional 10689
Form 10687
Advice 10687
populations 10678
Electrical 10674
IRS 10674
Touch 10670
transmitted 10669
Entertainment 10664
relate 10664
Coast 10660
surprising 10659
Switch 10659
sickness 10656
ous@@ 10653
continent 10652
bother 10651
Pet@@ 10647
Religion 10647
interface 10646
Depending 10645
pres@@ 10642
Gal@@ 10642
Hillary 10641
UL@@ 10640
faced 10638
Breaking 10637
URL 10635
wn 10634
achieved 10633
entered 10632
Front 10632
racial 10632
reduces 10632
​@@ 10631
Discover 10628
ownership 10625
tations 10625
ere 10623
","@@ 10623
radar 10621
Dar@@ 10621
Issues 10616
ham@@ 10615
spaces 10615
assist 10611
flowing 10610
Communism 10606
ada 10606
academic 10603
dem@@ 10603
destination 10601
Hong 10600
Advanced 10598
technically 10598
touching 10596
deposit 10595
recognition 10594
les@@ 10594
elsewhere 10592
water@@ 10590
por@@ 10589
mistakes 10587
compressed 10585
ences 10581
Play@@ 10575
eu@@ 10573
rational 10572
enters 10570
nicotine 10570
gging 10567
net@@ 10567
torque 10564
ish@@ 10559
worker 10555
tar@@ 10555
Cash 10548
wanting 10546
returned 10545
ening 10543
Server 10543
tradition 10537
establish 10535
Wake 10535
Kill 10530
dynamic 10528
riding 10528
acids 10527
foundation 10524
Hate 10517
aggressive 10516
terminal 10512
cans 10512
fuck 10511
ü@@ 10510
travelling 10507
lam@@ 10506
closest 10505
linear 10500
combine 10495
ological 10495
disappear 10492
Crime 10488
prevents 10488
bankruptcy 10488
accuracy 10487
objective 10487
tear 10487
Options 10486
hel@@ 10484
Fuel 10482
bites 10480
Ham@@ 10478
barrel 10473
day@@ 10470
plot 10470
portable 10470
intensity 10469
Official 10467
Pre 10465
District 10462
bon@@ 10461
fore@@ 10458
sin 10458
serves 10457
reproduce 10456
equations 10455
colleges 10452
Explorer 10439
barrier 10436
89 10433
fication 10424
trash 10424
twenty 10423
asteroid 10423
SO 10418
Final 10415
underlying 10414
thr@@ 10414
Islands 10412
Song 10411
enabled 10409
collected 10405
sphere 10405
restrictions 10404
ani 10404
thermal 10404
folder 10401
Tor@@ 10398
setup 10397
lip 10397
composed 10395
Race 10394
land@@ 10394
SSD 10393
hairs 10393
ek 10392
tuition 10392
reasoning 10391
bles 10387
key@@ 10385
buds 10384
IL 10369
W. 10367
Wine 10366
eli@@ 10362
3/@@ 10359
lar@@ 10359
Die 10359
°C 10359
footage 10357
Tu@@ 10357
Available 10356
fighter 10355
Cro@@ 10355
missed 10352
Loan 10351
Sen@@ 10348
implications 10347
delay 10346
inspired 10345
Storage 10342
hardly 10342
destruction 10342
Cover 10340
Wire 10338
Kitchen 10338
recipes 10337
orbiting 10337
tru@@ 10335
celebrities 10335
NY 10333
fac@@ 10332
len@@ 10332
Happen 10331
off@@ 10328
producers 10327
mystery 10326
Tech@@ 10324
flowers 10323
Physical 10322
nor@@ 10317
mag@@ 10316
garbage 10313
initially 10310
Fri 10308
factory 10308
dia 10305
beam 10305
A.@@ 10304
MP3 10301
transaction 10300
confusion 10300
interaction 10299
dle 10299
consumed 10294
Thu 10290
thumb 10289
kidney 10289
functioning 10288
broad 10284
blade 10283
hood 10279
dairy 10270
offspring 10266
Del@@ 10265
producer 10260
Gay 10259
NEW 10258
inal 10258
boo@@ 10256
ank@@ 10255
conversion 10254
orbits 10254
elling 10253
Visit 10250
Tools 10249
IG@@ 10249
counter@@ 10247
leadership 10247
highway 10247
lawyers 10247
Francisco 10244
apartment 10242
duration 10239
metabolism 10239
latter 10235
lit 10233
gross 10231
racism 10223
penny 10221
Ba@@ 10221
pants 10216
bulbs 10208
Solid 10206
cra@@ 10204
Pingback 10201
Maximum 10199
62 10198
Wood 10193
Agency 10193
firms 10192
bi 10191
Ram@@ 10191
lean 10190
communist 10189
installing 10189
rep@@ 10188
stra@@ 10182
CI@@ 10182
facilities 10179
extend 10178
hosting 10177
53 10175
VE 10174
92 10170
88 10170
tures 10170
android 10166
reveal 10163
Attack 10163
mini 10161
bladder 10158
swing 10155
overcome 10155
Committee 10153
pper 10153
oning 10151
She@@ 10148
Cy@@ 10147
86 10146
Fruit 10145
hoping 10144
NATO 10144
Soda 10144
News@@ 10140
Banks 10139
reflected 10139
sleepy 10136
68 10135
youth 10134
aring 10132
any@@ 10128
59 10125
Burn 10124
MY 10122
vapor 10122
dictionary 10116
engineers 10116
Arts 10113
Mail 10112
filed 10112
pose 10109
Vo@@ 10108
Fantasy 10107
Romney 10105
Helpful 10102
telescope 10102
studio 10096
Increase 10094
let@@ 10093
lol 10092
น@@ 10092
Wild 10089
Rates 10088
gradually 10087
recession 10086
optical 10086
suck 10085
globe 10083
declared 10083
PC@@ 10083
Far@@ 10082
easiest 10081
regard 10077
aka 10075
Login 10075
Boo@@ 10073
je@@ 10069
Links 10066
damn 10065
qualified 10064
Pa@@ 10064
87 10059
67 10058
Syndrome 10056
Chi@@ 10051
Meat 10051
diversity 10050
ining 10049
del 10048
ingredient 10047
shampoo 10046
backed 10043
contracts 10042
Fitness 10041
outlets 10041
wipe 10041
Euro 10040
Sounds 10037
ti 10037
set@@ 10037
matic 10036
guidelines 10035
occasionally 10032
horror 10029
anybody 10027
eling 10026
SI@@ 10023
slight 10023
continuous 10021
Manager 10017
but@@ 10017
sheets 10013
conference 10013
Objects 10013
exit 10013
fri@@ 10011
IA 10011
9/11 10009
finite 10009
Record 10007
contents 10006
Adobe 10005
vomiting 10003
sorts 10002
ric 10002
fraction 10000
journal 9998
approval 9994
dryer 9994
feeding 9991
mainstream 9989
displayed 9983
San@@ 9983
regional 9982
Bluetooth 9980
dent 9980
Send 9979
communications 9979
beard 9979
rank 9978
ae 9977
Healthcare 9976
ps@@ 9974
missiles 9974
popping 9972
radi@@ 9971
¶ 9969
medicines 9968
one@@ 9962
jack 9960
dishes 9959
Professor 9957
fluids 9955
fur 9952
tomorrow 9951
incident 9951
tissues 9950
Tro@@ 9949
93 9948
loads 9946
ected 9946
Clear 9944
Capital 9942
eth@@ 9942
Plants 9941
shelf 9941
corruption 9941
senior 9940
XP 9939
alert 9939
Cu@@ 9938
shops 9938
Sales 9934
Minecraft 9933
polar 9931
bleeding 9930
Bathroom 9926
Colors 9923
regime 9922
ops 9920
Na@@ 9920
Max 9919
Hz 9917
CE@@ 9915
stones 9915
donate 9914
Guy 9913
homeless 9910
loaded 9908
branches 9908
Ger@@ 9907
matches 9907
oils 9904
studied 9903
mil@@ 9901
utility 9900
Swiss 9899
extinct 9898
blurry 9897
DNS 9896
fats 9895
Beach 9894
Names 9891
pushed 9889
fitness 9885
5-@@ 9883
4-@@ 9882
cou@@ 9878
Liquid 9877
Organic 9874
ox@@ 9872
depressed 9870
distinguish 9870
Archive 9869
uck 9868
cleaner 9867
sor@@ 9864
Puerto 9864
foam 9863
Photography 9861
simultaneously 9861
molecule 9860
Psychology 9859
colonies 9859
FL@@ 9858
bee 9858
gut 9856
containers 9854
700 9854
disabled 9853
FR@@ 9853
Olympics 9852
Iron 9851
vulnerable 9851
Pirate 9849
Pur@@ 9847
Academic 9843
ATE 9839
broadband 9839
Power@@ 9835
missions 9834
requirement 9834
ga 9831
arrive 9830
Fu@@ 9830
CNN 9828
dot 9828
connecting 9827
cont@@ 9826
british 9826
Cross 9825
ENT 9825
reserve 9824
Classic 9823
rotating 9820
whilst 9820
EST 9818
time@@ 9817
Revolution 9816
forest 9812
comparing 9811
Events 9810
dial 9810
clip 9809
whales 9809
sty 9806
airline 9806
compound 9806
emotion 9806
Ha@@ 9803
speci@@ 9802
moons 9798
>@@ 9796
Premium 9795
Rule 9788
drag 9787
Holy 9787
:45 9786
Return 9785
fu@@ 9785
ements 9784
Mother 9784
wedding 9783
ruling 9782
Letter 9782
eter 9778
Pet 9778
Guest 9777
examine 9777
ridiculous 9774
cancel 9772
spirit 9772
1997 9771
lbs 9771
van 9770
57 9769
":"@@ 9768
eds 9767
Performance 9767
convicted 9767
officially 9766
Cas@@ 9765
edition 9765
Release 9765
Flat 9764
platforms 9761
Gen@@ 9757
Currently 9757
Vis@@ 9756
joined 9756
loses 9755
transparent 9755
58 9753
Europeans 9750
AIDS 9749
GE 9749
Hawking 9748
ä@@ 9743
spider 9743
flexible 9739
ater 9739
regulation 9738
narrow 9736
bio@@ 9735
Anxiety 9726
Therapy 9725
dar@@ 9723
picking 9721
besides 9721
inate 9720
tutorial 9717
Guitar 9716
lid 9712
Tim 9712
educational 9710
Soap 9709
--@@ 9708
louder 9708
Square 9703
El 9702
exploration 9701
ora 9700
threats 9699
toys 9699
treating 9699
hockey 9698
Straight 9694
cognitive 9693
61 9693
bel@@ 9692
pin@@ 9690
translation 9690
mac@@ 9685
slide 9683
FPS 9679
visiting 9678
injection 9678
handling 9677
hat 9676
glow 9676
displays 9672
ea 9669
zo@@ 9668
separated 9665
preventing 9662
pepper 9661
circular 9660
favourite 9659
Virus 9657
:02 9654
bend 9652
welfare 9649
empire 9649
Zone 9646
accessible 9644
leak 9642
Olympic 9641
ken@@ 9635
ich@@ 9633
infrared 9633
owe 9627
Pat@@ 9624
Amazing 9623
ame 9621
Back@@ 9619
Ear 9619
Q&A 9618
fits 9618
CH 9616
receptors 9616
deeply 9614
ston 9612
focusing 9611
outdoor 9611
zip 9610
productive 9603
reset 9603
copies 9601
ji 9601
musicians 9600
Notes 9598
Laptop 9598
ICE 9597
EDIT 9595
istic 9591
ide 9591
pace 9591
SM@@ 9591
Furthermore 9588
Ok 9587
Especially 9586
Singapore 9586
TH 9585
Sell 9583
Meaning 9581
poisoning 9581
retirement 9580
6% 9579
jaw 9578
tricks 9577
Doctors 9576
Century 9574
granted 9572
flame 9572
sexually 9566
moderate 9565
gers 9563
hybrid 9563
discount 9562
Mirror 9558
suggestions 9556
Estate 9555
GO@@ 9555
minister 9554
consistently 9553
Cook 9553
massage 9552
lasting 9551
Tree 9551
strain 9551
rose 9550
Columbia 9550
Songs 9546
piano 9542
Nazi 9541
neutrons 9541
salty 9540
GHz 9537
cube 9537
nitrogen 9536
11/@@ 9532
Chemical 9530
3d 9529
96 9527
molecular 9527
samples 9527
Besides 9526
Parts 9525
alternatives 9522
2.5 9521
contacts 9519
dropping 9517
ong@@ 9517
Georgia 9514
tens 9509
Switzerland 9507
Tel@@ 9505
Sexual 9505
Labor 9504
7/@@ 9503
Dreams 9500
Dental 9500
ancestors 9499
grab 9498
lake 9498
Acid 9497
errors 9495
sections 9491
5,@@ 9485
edges 9482
ender 9479
perceived 9478
rubbing 9475
Features 9474
ast 9473
Mus@@ 9470
Vote 9468
Cheese 9468
authors 9467
association 9467
rush 9465
Unit 9458
nie 9458
browsing 9457
vocal 9456
Member 9455
hol@@ 9453
Hand@@ 9452
cow 9451
Mary 9450
teens 9448
Subject 9448
Manual 9448
Emergency 9448
ongoing 9447
shi@@ 9447
diamond 9444
Santa 9440
debts 9439
county 9437
saliva 9436
counts 9435
antenna 9435
Whenever 9430
Register 9429
Sy@@ 9428
&apos;s 9423
lethal 9420
eclipse 9420
belong 9418
farther 9416
iTunes 9416
AU@@ 9415
transportation 9414
Surgery 9414
tables 9411
Fight 9411
Address 9409
hackers 9408
ished 9403
angles 9403
replies 9402
killer 9402
tones 9402
diarrhea 9401
syn@@ 9400
91 9400
pad 9398
recycling 9397
poison 9396
:05 9394
enjoyed 9391
Hydrogen 9390
ani@@ 9389
expenses 9389
micro 9388
burst 9387
Ben 9385
ulation 9385
subjects 9385
struck 9380
pressing 9379
atory 9378
happiness 9378
Worth 9377
consideration 9377
Soft 9376
Gallery 9375
challenging 9372
invention 9372
Sweden 9368
peanut 9368
mask 9365
90@@ 9363
Trust 9362
ici@@ 9360
flush 9359
citizenship 9359
cop@@ 9358
Ryan 9358
WITH 9356
combustion 9355
gri@@ 9355
nights 9351
cows 9351
transferred 9350
arts 9350
airplanes 9350
funded 9349
xi@@ 9348
courses 9347
attraction 9345
boot 9342
aking 9339
Unless 9338
:03 9338
enhance 9338
Woman 9336
Gear 9335
Medicare 9333
grain 9332
interference 9332
eve 9330
911 9330
Must 9326
uni@@ 9324
soci@@ 9324
bo 9324
Impact 9322
borders 9322
worlds 9322
transplant 9321
maintaining 9319
Warm 9317
63 9312
winner 9310
TER 9309
н@@ 9309
FA@@ 9309
Pack 9307
Reason 9307
addicted 9306
Solutions 9305
bias 9305
Per 9305
refrigerator 9304
du 9301
Fo@@ 9301
8/@@ 9300
:40 9298
voter 9298
Virtual 9294
г@@ 9294
Person 9293
Reality 9292
Chocolate 9290
interior 9284
ena 9283
Staff 9282
conductor 9278
comprehensive 9276
foil 9273
Airlines 9273
european 9266
brushing 9264
tiv@@ 9262
uck@@ 9262
Electoral 9262
87@@ 9260
ep 9259
yours 9258
precise 9257
Higher 9256
Creative 9255
arrow 9254
Version 9251
pop@@ 9249
architecture 9248
Multiple 9248
wavelength 9247
La 9245
fantasy 9245
^@@ 9243
monetary 9241
Kin@@ 9238
fascinating 9238
Moving 9237
cotton 9237
receives 9232
figured 9232
Duration 9232
alien 9231
knees 9230
py 9228
variation 9228
Atomic 9225
gained 9224
bedroom 9223
Ron 9222
zones 9220
significance 9216
improving 9215
coma 9214
chill 9210
opposition 9209
proved 9208
diverse 9208
wins 9205
earthquake 9204
32@@ 9203
struggling 9199
reg@@ 9197
deserve 9197
spam 9196
Move 9194
GR@@ 9194
Academy 9193
yp@@ 9192
ili@@ 9192
gears 9186
civilization 9186
yer 9180
lessons 9180
Poly@@ 9176
ram 9175
son@@ 9173
mas@@ 9169
explanations 9166
strip 9166
lately 9165
:55 9163
Bul@@ 9162
Regular 9161
airlines 9161
ben@@ 9159
desert 9159
Sar@@ 9158
Sm@@ 9158
Toilet 9158
crowd 9157
Fun@@ 9156
ades 9155
fi 9155
sticks 9151
Batteries 9151
chinese 9150
dos 9149
Nose 9149
eligible 9148
GO 9147
mint 9146
weekly 9144
defendant 9144
debris 9142
tattoo 9142
din@@ 9141
ringing 9140
essay@@ 9139
play@@ 9138
renewable 9134
Several 9134
Baseball 9132
waters 9131
Jim 9130
Brand 9127
woke 9126
alizing 9124
sin@@ 9124
breeding 9121
refugees 9120
Beyond 9118
bury 9118
accounting 9117
Ag@@ 9116
editor 9114
:35 9111
rough 9108
VR 9106
predators 9105
Additionally 9104
UP 9102
L. 9101
Prevent 9100
Wo 9098
tilt 9093
mel@@ 9093
:31 9089
sn@@ 9089
plugs 9087
neuro@@ 9087
participate 9086
nit@@ 9086
illusion 9085
equipped 9084
exp@@ 9084
controller 9084
birthday 9083
yr@@ 9081
Attorney 9081
Hold 9079
notion 9078
improvement 9077
retain 9077
detected 9076
twin 9074
pul@@ 9074
kins 9074
swelling 9074
kar@@ 9073
lasts 9073
carbs 9072
employed 9070
extinction 9068
Mul@@ 9066
Executive 9065
protest 9064
ron@@ 9059
Dutch 9059
Application 9057
conditioning 9054
pairs 9053
ethnic 9052
ffs 9052
Multi 9051
Hill 9050
spelling 9050
extract 9049
jumping 9047
oring 9047
grammar 9047
Mbps 9047
trends 9046
overnight 9046
F. 9045
limitations 9045
pricing 9045
Magnetic 9044
evenly 9044
headed 9043
exam 9042
findings 9041
:32 9040
disagree 9037
Ken@@ 9036
pyramid 9033
Birth 9033
crap 9030
technological 9027
beans 9026
abilities 9024
License 9023
fatigue 9023
toothpaste 9023
�@@ 9021
bail 9020
mature 9018
low@@ 9016
Mode 9016
measurements 9015
nausea 9015
Top@@ 9014
fire@@ 9014
steering 9014
protecting 9012
addictive 9012
desk 9009
roman 9009
antibiotic 9008
distinction 9006
Beauty 9005
abroad 9005
Says 9005
solved 9004
12/@@ 9001
interpretation 9001
chess 9000
zes 8999
Until 8997
rural 8996
lia 8993
assigned 8993
alike 8990
photon 8990
ising 8989
mad 8989
obesity 8986
Express 8985
Steps 8983
OU@@ 8982
к@@ 8979
vel@@ 8979
Stories 8978
power@@ 8977
Mini 8976
69 8976
monitors 8975
smallest 8974
Volume 8973
credits 8971
Risk 8970
Sto@@ 8968
WWII 8966
pun@@ 8966
mucus 8964
immunity 8963
absence 8962
homework 8961
Mountain 8961
Israeli 8957
french 8957
autism 8957
hunt 8956
approaches 8954
remedies 8954
BE 8953
ush@@ 8952
("@@ 8951
oldest 8950
wor@@ 8949
casino 8949
Probably 8948
).@@ 8947
filters 8946
heater 8945
honestly 8942
NOW 8942
Feeling 8940
Sc@@ 8936
Snow 8936
Ball 8933
determining 8930
Squ@@ 8930
minority 8927
ST 8927
stressed 8926
dly 8923
prescribed 8923
sour 8922
enormous 8919
Affordable 8918
nasal 8918
strings 8914
karma 8914
:06 8914
ye 8912
Television 8910
scales 8910
720p 8910
Growth 8908
opens 8907
decides 8907
Cure 8906
LES 8904
Rather 8904
Experience 8903
Harry 8903
yard 8902
allies 8901
regulated 8901
ce@@ 8899
Languages 8898
hard@@ 8898
\/@@ 8898
ze@@ 8897
Schools 8895
ula 8895
URL_6 8894
PA@@ 8893
worn 8893
lig@@ 8892
precisely 8891
earned 8890
mold 8890
Ven@@ 8886
chy 8884
Bor@@ 8883
spec@@ 8883
randomly 8882
separation 8881
Diesel 8881
def@@ 8880
subreddits 8880
malware 8879
relieve 8879
Fil@@ 8877
crashes 8876
typing 8875
Recently 8873
Plant 8872
ala 8870
:07 8868
Bar 8867
TE 8866
Tip 8864
Lyrics 8861
:33 8860
array 8859
All@@ 8857
84 8856
impacts 8855
spiritual 8855
ethics 8854
Wear 8853
arrived 8851
presentation 8849
BL@@ 8848
Property 8846
Mercury 8845
ins@@ 8842
pasta 8842
grades 8841
importantly 8841
:09 8840
fold 8837
tract 8837
Por@@ 8834
bil@@ 8833
threatening 8831
:4@@ 8826
affecting 8826
terrorists 8825
'S 8825
dive 8825
:04 8824
fr@@ 8822
Crash 8819
shirts 8819
Garden 8817
att@@ 8817
:34 8816
fantastic 8816
:58 8815
ore@@ 8814
blank 8813
Stress 8813
continuing 8811
3.5 8811
Co 8808
possession 8808
Auto@@ 8807
appetite 8807
ruled 8801
:01 8798
ö@@ 8797
Collection 8795
concerning 8794
Green@@ 8792
fission 8791
Gift 8791
Water@@ 8791
radius 8790
Grade 8788
Fashion 8786
comic 8786
Tre@@ 8785
proud 8781
Daniel 8779
wavelengths 8778
hacking 8773
PER@@ 8772
heroin 8769
bot@@ 8769
1-@@ 8769
ABC 8766
Mas@@ 8766
Anyway 8763
poll 8763
suits 8763
Eggs 8763
awful 8761
ja 8759
Adult 8758
:59 8757
Wiring 8755
Taiwan 8754
hanging 8754
serial 8752
Barack 8751
lot@@ 8750
hypo@@ 8749
bor@@ 8749
Recent 8742
jar 8742
:36 8741
:57 8741
assumed 8741
euro 8740
uk@@ 8739
TER@@ 8738
lawsuit 8738
Secretary 8736
Sky@@ 8736
BS 8735
laid 8735
tab 8732
UC@@ 8731
Fear 8731
6th 8729
coat 8729
definitions 8727
pilots 8727
� 8726
targets 8726
age@@ 8724
:51 8724
lemon 8723
pes 8721
​ 8720
:49 8718
ll@@ 8718
fails 8717
divorce 8715
insight 8714
Higgs 8712
Crack 8712
synthetic 8711
crystal 8708
clinical 8708
Hall 8705
weights 8703
Fan 8702
dentist 8701
viral 8700
Automatic 8698
Oregon 8698
extensive 8697
discomfort 8694
Wrong 8693
ects 8693
modem 8692
spoke 8691
butt 8691
Practice 8689
laying 8688
useless 8686
theft 8686
smartphones 8685
integrated 8682
Million 8679
hospitals 8671
capabilities 8670
column 8670
Lev@@ 8669
worms 8668
conditioner 8665
Pop@@ 8665
bacterial 8665
pixel 8664
:48 8661
canada 8659
Dig@@ 8659
Hearing 8659
Prince 8654
97 8652
steady 8651
spine 8651
stability 8649
sends 8647
fil@@ 8645
aming 8645
purchases 8645
breeds 8645
fucking 8644
Reg@@ 8642
Graphics 8641
Hawaii 8638
han 8638
wiring 8637
knuckles 8637
Telescope 8635
restore 8635
Bomb 8635
Honey 8634
Created 8631
33@@ 8630
helicopter 8629
popcorn 8628
quicker 8625
deny 8623
founded 8622
bin@@ 8622
Exp@@ 8621
Comm@@ 8620
:08 8618
rockets 8616
Las 8615
Sem@@ 8614
mosquito 8613
actively 8612
Hyper@@ 8611
illnesses 8611
tour 8610
environments 8608
Tar@@ 8606
80% 8604
variables 8604
Chemistry 8603
origins 8603
cas@@ 8602
silly 8601
4/@@ 8600
:52 8599
Among 8599
Places 8597
1996 8597
trap 8596
partial 8595
Bugs 8592
blocking 8591
japan 8590
Phones 8590
mic 8587
:41 8583
apples 8583
facility 8582
amps 8577
yl 8576
ram@@ 8576
sanctions 8574
Brian 8572
Permalink 8571
adapter 8569
tanks 8568
ounce 8564
DIS@@ 8560
fifth 8560
submit 8559
matting 8558
ri 8556
AGE 8555
seal 8548
sensitivity 8547
Socialism 8546
Month 8546
bot 8545
wider 8545
bid 8543
tom@@ 8543
Gro@@ 8542
:46 8542
sto@@ 8536
Jet 8534
lab@@ 8533
ph 8532
Cookies 8529
carriers 8529
Hy@@ 8529
Drinks 8528
Lisa 8523
Rico 8523
WE 8517
furniture 8515
”@@ 8515
CL@@ 8513
visitors 8513
hop 8511
Leg@@ 8510
receiver 8507
discussing 8505
petrol 8505
Dev@@ 8504
Ground 8504
badly 8503
oma 8501
fellow 8500
VE@@ 8499
IF 8497
Waves 8496
captured 8493
carbonated 8493
mp3 8492
inflammation 8492
ll 8490
hook 8489
mp@@ 8487
cle@@ 8485
GOP 8484
patch 8484
Machines 8483
entitled 8483
BA 8481
ko@@ 8481
vaccines 8481
CC@@ 8480
bol@@ 8479
:43 8477
holder 8476
lucid 8472
:44 8469
beats 8466
Listen 8464
ry@@ 8463
:37 8462
€ 8462
Walmart 8462
sticky 8461
real@@ 8459
downloaded 8457
:47 8457
trauma 8457
Boy 8456
Encyclopedia 8453
tra 8453
Possible 8452
darkness 8450
ables 8450
oriented 8449
anism 8449
PH@@ 8448
Detroit 8447
influenced 8444
encounter 8444
founder 8443
Ten@@ 8443
hormone 8442
introduce 8441
bottled 8439
p.m. 8438
Finding 8437
graduate 8437
:42 8435
Shar@@ 8434
Glasses 8434
regulate 8433
ake 8433
Industrial 8432
Six 8431
emp@@ 8429
Protein 8429
mountains 8426
ith 8423
Visa 8422
reviewed 8421
:53 8420
theater 8420
rivers 8419
stein 8417
ITY 8417
gym 8413
europe 8411
peoples 8411
AY 8410
dried 8410
Disorder 8409
ser 8408
attempted 8407
ened 8407
stationary 8406
span 8406
NP 8406
add@@ 8404
Sim@@ 8400
Loc@@ 8399
sat 8398
amp@@ 8396
8% 8394
:39 8394
packages 8393
P. 8392
Marriage 8392
instances 8391
makeup 8390
PP@@ 8390
profitable 8389
Mom 8387
McDonald 8382
G. 8382
:54 8381
:56 8377
Loans 8377
paralysis 8369
targeted 8367
DDoS 8363
tides 8362
asthma 8362
tin@@ 8361
pork 8360
laughing 8359
confirm 8356
curved 8355
CS@@ 8352
hon@@ 8351
Fair 8351
scam 8350
get@@ 8350
Ten 8349
engineer 8347
intellectual 8347
Frank 8345
robot 8345
digest 8344
ures 8342
Mortgage 8342
swear 8340
protests 8336
widespread 8335
Fake 8332
PS4 8331
grand 8330
guard 8330
Overview 8328
ez 8328
Astronomy 8328
Kevin 8328
golden 8328
Coun@@ 8327
pon@@ 8326
Eric 8324
TY 8323
Primary 8321
unconscious 8321
Following 8320
Elizabeth 8320
Comparison 8319
Minimum 8317
writes 8315
newer 8314
associate 8313
oms 8312
Biology 8311
straw 8310
bears 8310
japanese 8310
doc@@ 8309
pointing 8307
Advantages 8304
Playing 8303
claiming 8303
formats 8302
farmers 8299
Neutrality 8298
width 8297
carries 8297
100,000 8296
strict 8293
dramatic 8290
Rain 8290
screw 8288
los 8287
gains 8285
dist@@ 8283
analog 8281
RE 8279
implement 8278
Fact 8278
district 8278
winds 8278
aling 8276
participants 8275
ene 8275
Sat 8274
Enjoy 8274
Relationship 8271
Lim@@ 8271
Holocaust 8271
1995 8270
Med@@ 8270
Apply 8269
longest 8269
25% 8268
Stone 8267
accidentally 8265
Whatever 8265
Planets 8264
FOR@@ 8262
Beautiful 8261
Moreover 8260
Within 8259
Ci@@ 8259
person@@ 8259
luxury 8259
camp 8259
rainbow 8258
Fund 8257
guaranteed 8257
transmit 8256
progressive 8255
attitude 8255
Alaska 8254
decimal 8254
Normal 8252
Commons 8250
flu@@ 8248
val 8248
regards 8247
:38 8247
translate 8247
dislike 8246
marine 8246
yn 8246
120@@ 8245
Pick 8242
ologist 8242
glad 8241
ave 8240
switching 8238
variations 8237
steal 8234
Rem@@ 8233
numb 8233
Degree 8232
confident 8232
laptops 8232
CAN 8232
impression 8230
greenhouse 8230
repeated 8226
Hom@@ 8223
toy 8220
dots 8219
restricted 8219
Rating 8217
pic@@ 8217
remained 8211
invisible 8210
SpaceX 8209
Electronics 8205
buses 8205
Hence 8202
82 8201
observation 8196
aps 8193
Clo@@ 8192
witness 8191
observer 8190
Gender 8189
industries 8187
5,000 8185
Had 8184
Peace 8184
packaging 8184
losses 8182
Soccer 8181
iphone 8179
gener@@ 8178
pay@@ 8176
App@@ 8175
adi@@ 8174
Bell 8174
subscribe 8172
reputation 8171
couples 8171
tering 8171
mic@@ 8169
6/@@ 8169
Base 8167
infinity 8167
TB 8166
Lin@@ 8166
genre 8165
pos@@ 8162
dumb 8162
Message 8162
celebrity 8160
Famous 8158
pencil 8158
Editor 8158
inger 8156
publicly 8155
7th 8155
uranium 8155
Pink 8154
investments 8153
substantial 8152
atmospheric 8149
acking 8144
upcoming 8142
AT&T 8142
boats 8140
shine 8139
Lower 8139
vol@@ 8136
cart 8136
81 8136
Door 8136
exhaust 8135
ethical 8134
grounds 8134
suffered 8130
abstract 8128
eting 8128
trapped 8128
vis@@ 8128
gro@@ 8127
ION 8124
conservation 8122
judges 8122
slavery 8121
Joseph 8121
incorrect 8120
Ka@@ 8119
diving 8116
reproduction 8114
theoretical 8112
dness 8112
aks 8110
violation 8110
sh 8110
Mad@@ 8109
centers 8107
beverage 8105
legalization 8102
Firefox 8102
Found 8102
staring 8102
imagination 8101
Growing 8100
gel 8100
Myth 8100
towers 8099
mice 8098
34@@ 8097
estimates 8096
reflects 8095
Warming 8095
newly 8091
ga@@ 8091
76 8085
limbs 8084
Smoke 8084
dig@@ 8081
Cities 8081
burg 8081
Sanders 8080
gie 8080
cer@@ 8079
110 8078
elevator 8075
pers 8074
wooden 8073
chords 8072
Debate 8071
Stuff 8071
Anything 8071
wounds 8071
Heavy 8070
hopefully 8069
towel 8069
logy 8067
Notice 8065
dev@@ 8065
Hal@@ 8064
mod@@ 8064
diagnosis 8062
tionally 8060
HI@@ 8057
lazy 8054
,"@@ 8054
featured 8053
Corporation 8051
API 8050
girlfriend 8049
13.@@ 8049
sync 8049
:00 8047
Domain 8047
Desktop 8047
wal@@ 8047
Been 8045
Op@@ 8044
orientation 8041
biting 8040
overseas 8039
Work@@ 8039
Parliament 8039
SEO 8038
eBay 8036
partially 8036
withdrawal 8036
tornado 8036
kie 8036
fiscal 8035
vacation 8034
utter 8033
attempting 8032
varying 8032
arg@@ 8028
Net@@ 8025
Protect 8025
font 8023
GM 8022
Explained 8020
boring 8019
sen 8018
83 8016
Mount 8013
Marvel 8013
Whole 8012
rows 8011
з@@ 8010
HERE 8009
Ring 8008
Chief 8007
Sam 8007
tunnel 8006
tubes 8006
sidebar 8005
ought 8005
Bridge 8002
acted 8001
grip 8000
functionality 7998
yield 7997
unfortunately 7991
AK@@ 7990
70@@ 7990
500@@ 7990
TA@@ 7989
nut 7988
possess 7988
heading 7986
None 7986
submitted 7983
runny 7982
algorithms 7981
toxins 7980
HAVE 7976
Coming 7976
Flu 7975
dge 7970
fun@@ 7966
Musk 7962
sec 7957
Satellite 7954
Illinois 7953
criteria 7952
glue 7951
Sleeping 7951
equity 7950
developer 7950
toilets 7950
Hope 7949
HDMI 7948
bonus 7948
congress 7947
ei@@ 7946
Ret@@ 7945
explode 7944
ji@@ 7943
slot 7943
lers 7942
encrypted 7941
needle 7938
freezes 7937
landscape 7936
gn@@ 7936
decreases 7928
Researchers 7927
-2 7926
induced 7926
Inflation 7925
sue 7924
MP 7920
tails 7920
scratching 7920
banana 7919
diamonds 7919
Williams 7918
trac@@ 7918
Brexit 7918
login 7917
economies 7916
Connect 7915
stack 7915
syrup 7915
crude 7913
enables 7913
Taxes 7912
row@@ 7912
bet@@ 7911
stu@@ 7910
priority 7910
uniform 7908
wind@@ 7906
presents 7906
packed 7903
ately 7902
tively 7901
masses 7898
Ed 7895
subscription 7894
Kit 7893
Bio@@ 7892
Dem@@ 7891
Wa@@ 7891
ret@@ 7887
bly 7885
í@@ 7882
Near 7880
cops 7879
damages 7878
lottery 7877
rage 7876
Soci@@ 7876
Alternative 7872
imp@@ 7870
pains 7870
Indeed 7869
blend 7869
solving 7868
interactions 7868
supplement 7867
Plans 7866
40% 7866
compensation 7865
apes 7865
Ali@@ 7865
Airplane 7863
BU@@ 7859
bitter 7858
bulk 7858
spo@@ 7857
Sl@@ 7857
storms 7856
Rich 7855
Netherlands 7855
CGI 7852
replacing 7847
glucose 7846
Battle 7845
certified 7845
worthy 7843
HTML 7843
nar@@ 7843
demonstrate 7839
fought 7838
hill 7836
usa 7835
Matt 7835
Aid 7834
preference 7831
behaviors 7831
paradox 7830
Arabic 7830
solely 7829
lic@@ 7828
celebrate 7828
6,@@ 7826
Wedding 7826
acquire 7823
tendency 7823
visited 7822
ok@@ 7821
Nar@@ 7820
Palestine 7820
dor@@ 7819
argued 7817
Sti@@ 7817
Clock 7816
ington 7815
CT@@ 7814
socially 7814
Bit@@ 7813
ills 7813
tran@@ 7812
golf 7811
neurons 7811
Transfer 7806
Jong 7803
lip@@ 7802
brightness 7801
90s 7798
ny@@ 7798
reveals 7795
coding 7795
alities 7795
fies 7795
resume 7795
tier 7794
litter 7793
forgotten 7792
light@@ 7789
anonymous 7788
Testing 7786
monitoring 7786
Fowler 7785
minimal 7784
precious 7782
De 7782
engaged 7780
Sec@@ 7780
repeatedly 7778
donor 7777
ides 7775
dramatically 7775
Wheel 7774
94 7774
Solution 7773
sum@@ 7772
van@@ 7771
quantities 7770
NYC 7769
gently 7768
Consumer 7768
seller 7767
ss 7766
dig 7765
bleed 7763
registration 7755
Apollo 7754
RSS 7752
qualities 7751
trailer 7749
Down@@ 7747
aters 7747
May@@ 7747
Players 7746
knock 7746
unlock 7745
robots 7745
vinyl 7743
Display 7743
efficiently 7741
tide 7741
illing 7741
1994 7740
settle 7740
GU@@ 7739
Stu@@ 7737
adapt 7736
entity 7735
cloth 7735
tered 7733
Centre 7733
Stocks 7732
rhythm 7732
30% 7731
inequality 7731
hero 7730
Either 7730
freely 7729
Menu 7728
implemented 7727
chew 7727
read@@ 7726
stro@@ 7725
scal@@ 7724
adopt 7724
cro@@ 7724
Hot@@ 7723
gods 7723
blanket 7721
documentary 7718
Meg@@ 7717
Indiana 7717
proposal 7716
appreciated 7716
defines 7716
Flo@@ 7716
pins 7714
entropy 7714
mechanisms 7713
Focus 7711
photo@@ 7709
med@@ 7707
firing 7706
africa 7704
raises 7700
antly 7699
Movement 7699
triangle 7699
germany 7698
pics 7697
Lab 7696
VO@@ 7696
cut@@ 7695
aching 7694
Ears 7694
breasts 7693
Wait 7692
alter 7692
peer 7688
html 7688
Mix 7688
H. 7687
relaxed 7687
Vice 7687
71 7684
pet@@ 7679
Score 7678
snakes 7678
Budget 7676
aids 7675
IF@@ 7674
cubes 7673
.com 7671
Away 7670
Morgan 7669
ulated 7666
°F 7665
Grey 7662
pronunciation 7662
HD@@ 7661
soup 7661
ero@@ 7660
tense 7660
aliens 7659
CP@@ 7659
timing 7659
surveillance 7658
CS 7658
Judge 7658
smokers 7657
ona 7655
ugly 7655
ard@@ 7654
Cleaning 7653
Parents 7650
Bottle 7649
lan@@ 7647
iling 7646
Negative 7644
Generation 7643
qui@@ 7642
Open@@ 7641
islands 7640
nic@@ 7639
impressive 7638
deb@@ 7637
discharge 7637
Syn@@ 7637
showers 7637
Walking 7636
Head@@ 7635
continuously 7631
cos@@ 7631
Course 7630
ud@@ 7630
Sweet 7630
Active 7628
Alex 7627
pulse 7626
walked 7625
क@@ 7624
Easter 7622
jokes 7620
Taylor 7620
possibilities 7620
nowhere 7619
Stand 7617
Circuit 7617
Cameras 7616
Statistics 7614
bumps 7613
Health@@ 7612
controlling 7611
si 7610
Similarly 7609
/0@@ 7608
accomplish 7608
equator 7607
protective 7606
specified 7605
Speech 7605
excuse 7604
requiring 7602
Basics 7601
ero 7601
eyesight 7600
เ@@ 7599
contributions 7597
Off@@ 7596
innovation 7595
Independent 7594
roc@@ 7593
brakes 7593
Dan 7591
Environment 7589
liquor 7588
exceptions 7587
sweating 7586
lunar 7585
effectiveness 7585
Jeff 7585
1990 7584
boom 7584
cookie 7583
ole 7583
smarter 7581
maintained 7580
combinations 7580
permanently 7578
neighborhood 7576
invasion 7576
slip 7574
PS3 7573
magnitude 7573
OUR 7572
prominent 7571
check@@ 7570
underneath 7568
DE 7566
switched 7566
gluten 7564
execution 7563
Cooking 7563
sof@@ 7562
satisfied 7562
Vol@@ 7561
assumption 7560
terror 7560
backup 7560
noticeable 7560
humor 7556
fs 7554
Char@@ 7552
educated 7551
350 7550
dering 7548
margin 7548
fatal 7548
Sense 7547
Fol@@ 7547
genetics 7547
viable 7544
Lesson 7544
า@@ 7542
references 7541
T. 7538
tal@@ 7538
sensors 7536
tus 7535
indicator 7531
sty@@ 7529
hasn’t 7527
Cells 7525
pedal 7525
fried 7521
iPod 7519
180 7518
Multi@@ 7516
Hurt 7516
locate 7516
dom@@ 7515
indicated 7511
wired 7511
ara 7510
attend 7509
fur@@ 7508
ious 7507
Mouth 7506
vet 7505
motivation 7504
DIY 7504
Toronto 7504
calcium 7504
kinda 7503
ans@@ 7503
shave 7502
chamber 7502
Issue 7500
dangers 7500
Snapchat 7499
ump 7497
streams 7497
monopoly 7497
Extra 7495
Paint 7495
qualify 7495
Feed 7494
convenience 7491
Relativity 7489
newspaper 7488
crops 7487
77 7486
CA@@ 7486
signing 7485
Stick 7484
medi@@ 7484
KS 7483
CD@@ 7482
equality 7481
eff@@ 7481
Recovery 7481
ashes 7481
fighters 7481
dic 7478
scheduled 7477
Voyager 7477
Supply 7477
Background 7476
releasing 7476
reactor 7476
IRA 7473
Naturally 7472
Agreement 7471
rail 7471
CO 7470
Photoshop 7470
Knowledge 7469
9% 7467
forcing 7467
behave 7466
mi 7465
Spirit 7461
Ultimate 7461
а 7460
gun@@ 7458
obese 7457
dam@@ 7453
MAR@@ 7453
Improve 7453
Investment 7449
DOES 7449
optimal 7449
Aff@@ 7448
ers@@ 7443
balloons 7441
insights 7438
bow 7438
operated 7436
Driver 7436
Dam@@ 7436
spell 7434
.’ 7434
auto@@ 7433
Norway 7431
eller 7430
Further 7430
bored 7430
hr 7429
identification 7425
Cart@@ 7424
Pennsylvania 7423
hated 7421
Production 7420
kinetic 7419
Members 7418
licensed 7418
Sil@@ 7417
bell 7417
stretching 7417
Democrat 7415
Dual 7415
Rings 7415
washed 7414
imaginary 7414
Changes 7414
hot@@ 7412
photograph 7409
singer 7408
itting 7407
expectations 7407
tis@@ 7407
fle@@ 7406
flour 7406
opt 7405
donation 7405
shade 7405
Tor 7405
rit@@ 7404
Install 7404
DS@@ 7403
Philippines 7401
strategic 7399
capability 7399
blast 7399
committee 7397
photographs 7397
Wor@@ 7397
WordPress 7395
ome 7393
kingdom 7393
cartoon 7393
run@@ 7392
switches 7391
ED@@ 7391
che 7390
GA 7390
nowadays 7389
digit 7389
activated 7388
demands 7388
lanes 7386
9/@@ 7385
bay 7384
80s 7384
trials 7382
som@@ 7381
Thing 7380
Good@@ 7377
joining 7375
ร@@ 7374
opponent 7372
sued 7370
K. 7368
exercising 7367
Van 7364
valve 7364
Det@@ 7363
configuration 7362
handwriting 7361
Mid@@ 7359
Assad 7359
she@@ 7357
attacked 7356
expanded 7356
vinegar 7356
bases 7355
mandatory 7354
comedy 7354
bes 7353
thunder 7352
symptom 7351
Supp@@ 7350
triggers 7350
SA@@ 7349
Alan 7348
uring 7348
tonight 7347
Spicy 7346
correlation 7344
membership 7342
alot 7342
Pregnancy 7342
Ev@@ 7341
intent 7340
Programs 7340
thoroughly 7340
Monitor 7339
manufactured 7339
ental 7338
overweight 7338
eg 7336
GE@@ 7335
HA@@ 7333
joy 7333
Certain 7331
Indonesia 7330
Ban@@ 7329
Tap 7327
sake 7327
cen@@ 7326
Selling 7326
www 7324
crust 7324
ini@@ 7323
vegetable 7321
Juice 7320
lb 7318
dat@@ 7317
gaining 7317
polls 7317
Lines 7316
climb 7315
Chernobyl 7315
OP@@ 7313
sman 7312
ancy 7312
Nation 7305
Lifestyle 7304
hair@@ 7304
asset 7303
aut@@ 7303
unnecessary 7302
Land@@ 7302
adequate 7302
Proof 7302
acquired 7300
1.1 7299
Warner 7299
Ultra 7299
Block 7298
Range 7297
potatoes 7297
prostitution 7297
physician 7296
...... 7294
ст@@ 7293
representative 7293
Tru@@ 7293
chromosomes 7292
burden 7288
fallen 7287
threads 7286
VI@@ 7286
ч@@ 7285
Fle@@ 7285
inks 7285
Pole 7284
snake 7284
intervention 7283
Added 7283
tal 7282
predicted 7281
prevention 7281
Rise 7280
eness 7280
Hands 7279
wheat 7279
Airport 7279
blown 7278
damaging 7277
hoo@@ 7277
reserves 7276
carbohydrates 7275
forums 7272
observations 7271
pa 7270
Mr 7270
:5@@ 7268
ppers 7267
'' 7266
Hell 7265
MC@@ 7264
sis 7264
disp@@ 7264
shoulders 7262
justify 7262
Non@@ 7261
mol@@ 7259
spy 7257
tropical 7256
Doing 7256
Wash 7253
Bankruptcy 7251
cri@@ 7249
Evidence 7248
Ep@@ 7247
unk 7242
preserve 7242
framework 7239
Pin@@ 7237
prints 7234
Track 7234
ases 7232
steak 7232
lakes 7228
adjusted 7224
8th 7224
greek 7222
buyers 7220
Bernie 7219
Da@@ 7219
thes@@ 7218
Expensive 7217
beta 7216
fog 7215
mounted 7215
nan@@ 7213
prisoners 7212
holidays 7212
labeled 7211
collision 7211
mere 7207
Pass 7206
Chat 7204
Hiroshima 7203
Hardware 7202
Han@@ 7202
conversations 7201
pleasant 7201
prof@@ 7200
Ly@@ 7200
Dun@@ 7199
involvement 7199
far@@ 7198
trans 7196
downloads 7195
Break 7193
failing 7191
rap@@ 7191
Expert 7190
astronomers 7190
pit 7186
dozen 7185
Candy 7183
1980 7181
Challenge 7181
18th 7181
sey 7180
300@@ 7179
vocabulary 7178
resulted 7178
Poor 7176
trace 7175
Hen@@ 7175
arm@@ 7174
Opens 7173
flood 7173
myths 7172
:3@@ 7170
pt 7165
I. 7165
Forces 7165
award 7164
Day@@ 7163
Ready 7162
ometer 7162
detection 7161
gather 7160
touched 7159
3.0 7159
ı@@ 7159
discussions 7157
liability 7157
mothers 7156
handy 7155
sky@@ 7154
Rob@@ 7153
cru@@ 7153
Wave 7152
Massachusetts 7151
socialist 7150
jets 7147
investigate 7145
placing 7145
amongst 7145
ranging 7144
Motor 7144
Organization 7143
bacon 7143
passage 7143
rescue 7141
oph@@ 7141
inations 7139
reward 7137
Marine 7137
protocol 7134
insert 7134
protects 7132
Seattle 7132
ado 7131
herself 7131
Weed 7130
weaker 7129
lining 7128
ashed 7127
silence 7127
lish 7126
cores 7126
nest 7126
Addiction 7124
ris 7123
ord@@ 7120
mem@@ 7119
Ex 7118
Believe 7117
Interesting 7117
atter 7117
Weird 7117
0.00 7116
belts 7116
St 7115
construct 7113
generating 7113
IR 7112
IDE 7111
Strong 7111
Berlin 7110
unt 7110
Sli@@ 7109
0% 7108
GIF 7106
Reverse 7106
predictions 7103
Port 7102
Malaysia 7102
Spray 7102
Might 7101
assessment 7100
RED 7100
Hotel 7100
ock 7098
li 7097
paragraph 7096
Past 7095
ail 7095
bullets 7095
ased 7091
78 7088
Key@@ 7087
้@@ 7087
berry 7086
societies 7086
beneath 7086
LTE 7086
restart 7085
proportion 7084
anal 7084
earnings 7083
needles 7083
Antarctica 7081
talent 7081
sustainable 7080
aci@@ 7077
org@@ 7077
MRI 7077
Burning 7077
Gulf 7076
Jer@@ 7075
Round 7075
VER@@ 7074
Tests 7074
offense 7073
4k 7073
IE 7071
tennis 7069
ading 7068
Ul@@ 7066
Origin 7065
show@@ 7065
respectively 7065
lows 7065
rolls 7063
chord 7063
refresh 7063
drum 7063
gged 7062
focuses 7062
ali 7062
appointment 7061
lag 7060
BB@@ 7060
Quote 7059
Recipes 7057
ds@@ 7056
Understand 7054
crossing 7054
F-@@ 7053
Train 7053
equals 7051
accelerate 7049
referendum 7049
rental 7048
anxious 7048
Target 7047
directors 7047
mac 7046
Swe@@ 7045
Savings 7042
respective 7042
Museum 7042
2D 7040
whites 7039
cramps 7038
ush 7036
boyfriend 7035
Charge 7034
PAR@@ 7033
ect@@ 7033
Rev@@ 7029
vomit 7029
Jordan 7025
locking 7023
pot@@ 7022
Studio 7022
elle 7022
ison 7022
acks 7021
Blu@@ 7021
Louis 7020
INE 7019
shaking 7019
programmed 7018
implies 7017
constructed 7015
watches 7015
mit@@ 7015
cruise 7015
mineral 7015
Headphones 7014
Thoughts 7011
loving 7011
dinosaur 7011
ential 7009
ulate 7008
complain 7005
LA@@ 7005
convinced 7005
expiration 7004
sealed 7004
WH@@ 7003
Far 7001
It@@ 7000
Abuse 6999
dra@@ 6998
burnt 6998
volts 6997
module 6996
criticism 6996
queen 6995
viewer 6994
sexy 6994
rap 6994
campaigns 6994
GMT 6993
theorem 6992
calculations 6990
GET 6990
Bacteria 6990
Patrick 6987
Ari@@ 6986
Response 6985
duc@@ 6984
hur@@ 6984
til@@ 6984
stain 6980
Wet 6980
grasp 6979
eful 6978
mos@@ 6976
FL 6976
cope 6975
Iowa 6974
Removal 6971
70% 6971
Saving 6970
Oxygen 6970
Banking 6969
shifts 6967
Calculate 6967
stereo 6966
Yourself 6966
Sport 6966
warfare 6966
icks 6966
concentrate 6964
ration 6964
ays 6963
Typically 6962
ashing 6961
Scottish 6961
Ak@@ 6961
Prize 6961
traction 6961
aster 6960
contemporary 6960
stairs 6960
Customer 6959
ket 6959
sand@@ 6955
insect 6955
vin@@ 6954
han@@ 6954
Naked 6954
Streaming 6953
tingling 6952
avi@@ 6950
islam 6948
meats 6948
john 6947
corrupt 6946
Devices 6946
Speaking 6944
ven 6944
texts 6943
cylinder 6942
chains 6941
asia 6941
insulin 6941
paste 6940
isolated 6940
Gam@@ 6939
albums 6938
Interview 6937
packs 6936
lesser 6935
saturated 6934
HowStuffWorks 6933
may@@ 6932
purely 6932
Raw 6932
Discovery 6931
CRE@@ 6931
lady 6931
manually 6930
14.@@ 6929
christianity 6928
chills 6928
Dave 6927
charity 6926
:0@@ 6926
asian 6925
Mathematics 6925
gb 6924
contest 6923
designer 6922
republican 6921
Summary 6921
Freeze 6921
phrases 6919
twitch 6919
relates 6916
heart@@ 6915
limb 6914
triggered 6912
Gener@@ 6910
Vehicle 6909
lis@@ 6909
″ 6908
varieties 6904
sharks 6904
Alzheimer 6904
theaters 6903
Thinking 6903
verify 6902
coach 6902
ians 6902
slows 6901
Sick 6900
dozens 6899
Operating 6898
beating 6897
behalf 6897
Keeping 6895
Experts 6894
Trans 6893
glands 6893
Wage 6893
RT 6892
emit 6891
Connection 6891
ek@@ 6891
thrust 6888
coke 6888
hub 6886
9th 6886
browsers 6886
DA 6883
iner 6883
sentenced 6883
translated 6882
usion 6882
sits 6882
observable 6882
ab 6879
Trees 6878
microwaves 6878
Radi@@ 6877
poorly 6877
Q. 6876
Vacuum 6876
fier 6873
clue 6871
shifting 6870
collective 6870
ر@@ 6870
contagious 6870
principal 6869
spreading 6869
a.m. 6869
grains 6869
amine 6868
Nails 6868
tured 6868
inhale 6868
อ@@ 6867
TION 6866
Details 6866
dd@@ 6866
vent 6865
avoiding 6865
lamp 6864
Role 6863
daylight 6862
fears 6861
Wow 6861
Tower 6860
punch 6860
stove 6860
sneezing 6860
mouths 6859
tick 6858
arise 6857
vation 6855
radical 6855
Dangerous 6852
Division 6849
regarded 6847
concert 6847
teenagers 6847
proves 6847
BUT 6846
Cli@@ 6846
Breath 6846
Hispanic 6844
una 6844
Halloween 6844
Aqu@@ 6842
twitter 6842
schemes 6841
fancy 6839
Golf 6838
adoption 6838
retailers 6838
enjoying 6836
networking 6835
hat@@ 6834
coughing 6834
lions 6834
yed 6833
sta@@ 6832
itor 6832
Kansas 6832
mosquitoes 6832
Rome 6831
Internal 6830
Rick 6829
Speci@@ 6829
piracy 6828
128 6828
anna 6827
continents 6823
hiccups 6823
irrational 6822
los@@ 6820
deck 6820
utilize 6820
Records 6819
Mining 6819
ishing 6817
Officer 6815
Nobel 6815
geometry 6815
elementary 6813
Religious 6813
Bond 6811
Conservative 6810
Albert 6809
verb 6809
potato 6809
MM@@ 6808
Thailand 6808
signatures 6806
Free@@ 6806
steroids 6806
б@@ 6805
Password 6802
homosexuality 6801
Venezuela 6801
Sore 6800
bla@@ 6799
poker 6799
meets 6799
ager 6798
Featured 6793
overwhelming 6792
Disk 6792
conf@@ 6792
specialized 6790
pronounce 6790
visa 6789
snap 6787
Traditional 6785
ideology 6784
ethnicity 6784
shells 6784
Changing 6782
harsh 6782
Apparently 6780
Ash@@ 6779
Houston 6777
99% 6777
Allergies 6776
Walk 6774
kidneys 6774
returning 6773
illegally 6773
Equipment 6773
offices 6772
Gates 6771
socks 6771
simplest 6770
interpret 6769
preparation 6768
hash 6765
con 6765
ail@@ 6765
hurting 6764
Wii 6763
Planned 6763
Conditions 6762
trusted 6761
bombing 6761
colony 6760
gloves 6759
elif 6757
CBS 6756
West@@ 6754
Jason 6754
dre@@ 6754
preparing 6754
ori 6753
n.d 6753
peripheral 6750
Tour 6750
Dri@@ 6749
fossils 6748
rifle 6748
disability 6747
Viruses 6747
Tur@@ 6746
FROM 6745
--- 6745
defects 6744
Mur@@ 6742
skilled 6742
eps 6741
tivity 6741
﻿@@ 6741
Hospital 6740
ice@@ 6740
expense 6738
FI@@ 6738
oper@@ 6738
und@@ 6737
NBC 6736
advances 6735
Inst@@ 6735
ano@@ 6735
Schedule 6735
Coll@@ 6734
Av@@ 6731
1993 6728
EA 6728
Sarah 6727
Ker@@ 6726
oo 6726
ions 6725
Method 6724
VIDEO 6724
cholesterol 6724
surrounded 6723
Liberal 6723
turkey 6723
Gri@@ 6720
Hole 6719
Billion 6719
WS 6717
74 6716
Stra@@ 6716
10th 6715
pornography 6715
esh 6714
phen@@ 6713
Meet 6712
Awesome 6712
diets 6712
You@@ 6710
bia 6710
Flying 6710
TPP 6706
Treasury 6704
Guard 6703
holders 6701
wr@@ 6701
hearts 6700
ers’ 6699
reflex 6699
Users 6697
trail 6697
knocked 6696
recreational 6696
guest 6694
yeast 6694
shaving 6693
RC 6692
digestion 6692
Strategy 6691
Stream 6691
hemisphere 6691
filing 6690
susceptible 6690
Diamond 6689
strongest 6687
insane 6685
resi@@ 6685
Imp@@ 6684
bicycle 6683
complexity 6682
Purpose 6681
tops 6681
onal 6681
Convert 6681
),@@ 6680
automated 6678
Debit 6676
ily 6676
flower 6673
dum@@ 6673
FacebookShare 6672
lon@@ 6672
serotonin 6672
fade 6672
chromosome 6672
Fri@@ 6670
pH 6669
Tattoo 6669
elled 6667
gauge 6667
Bow@@ 6667
Asleep 6666
WW2 6665
Sample 6664
Limited 6662
defeat 6660
Upload 6660
handful 6659
1.2 6658
iser 6656
Choice 6655
drone 6653
with@@ 6651
characteristic 6651
originate 6651
churches 6650
temporarily 6644
CF@@ 6643
aces 6643
microphone 6643
unpleasant 6641
cloudy 6641
dopamine 6641
rer 6639
trait 6638
How@@ 6637
Aer@@ 6636
Democracy 6634
Cutting 6632
pillow 6631
crave 6630
Tired 6630
Miller 6630
Balance 6629
Tutorial 6629
Shipping 6628
ก@@ 6627
nostril 6626
struc@@ 6625
essence 6625
URL_7 6623
borrow 6620
Convention 6620
hiring 6619
ck 6619
nearest 6618
Qaeda 6618
gamers 6617
tel@@ 6617
forgot 6616
contrary 6615
و@@ 6615
dated 6614
domesticated 6614
stood 6614
Wiki 6613
LS 6613
consist 6613
sim@@ 6612
Seriously 6611
meanings 6610
Pizza 6608
CN@@ 6607
surprisingly 6607
Hours 6605
institution 6604
exc@@ 6604
AAA 6604
Explo@@ 6599
XL 6599
paintings 6598
Lead 6597
shelter 6596
reception 6596
socket 6595
fishing 6594
cartoons 6593
Mari@@ 6592
Tony 6592
Gain 6591
Transmission 6590
Toyota 6590
ree 6588
aded 6587
Nu@@ 6587
compact 6587
mattress 6586
Count 6584
exclusively 6583
torrents 6582
bab@@ 6582
titled 6582
tle 6582
mates 6582
garlic 6582
warrant 6581
assembly 6581
a.@@ 6580
subtle 6580
readily 6578
Starting 6577
Lit@@ 6574
RI@@ 6573
elderly 6573
practically 6571
inv@@ 6570
Henry 6568
exploring 6567
simulation 6567
Basketball 6566
prevalent 6566
yawning 6566
Sel@@ 6565
Wisconsin 6565
Treat 6564
une 6563
ranges 6563
agreements 6562
Nobody 6562
Engines 6562
TwitterShare 6561
reads 6560
personnel 6560
EMP 6559
bridges 6558
prize 6557
mann 6553
FIFA 6552
Diabetes 6552
transfers 6550
mes@@ 6550
anytime 6548
sho@@ 6547
Arctic 6546
Maryland 6545
bald 6545
Submitted 6544
transform 6543
Browse 6540
activate 6539
lo 6538
bitcoins 6537
ng 6536
yogurt 6536
Lawyer 6535
Duty 6534
priced 6534
Suicide 6533
swollen 6533
ball@@ 6532
picks 6528
resolve 6528
Homework 6527
slowing 6527
ama@@ 6527
deer 6527
itching 6526
spouse 6526
Murder 6526
MIN@@ 6525
tub 6525
Spot 6523
Spe@@ 6523
corresponding 6521
recommendations 6520
campus 6520
Elon 6519
analyze 6518
ium 6518
brothers 6518
ust 6516
phenomena 6514
Equ@@ 6514
sophisticated 6513
HDD 6513
buffer 6508
leaf 6507
aimed 6507
ati 6507
turbines 6507
EP 6506
noses 6506
Hour 6505
hopes 6505
preferences 6504
ENT@@ 6503
Sciences 6502
sit@@ 6502
REM 6502
outline 6500
deposits 6498
leap 6498
voc@@ 6497
Crimea 6497
Speaker 6497
temp 6497
Palestinian 6497
orbital 6497
physicists 6496
PCs 6495
requests 6494
SD@@ 6493
collecting 6492
sunset 6492
valued 6491
8,@@ 6491
Papers 6490
Applications 6489
enemies 6489
converter 6487
Event 6486
motor@@ 6486
ert 6485
Bubble 6483
cs 6483
sugars 6483
hasn't 6482
Fukushima 6482
laughter 6481
Accessories 6480
Pokemon 6479
victory 6477
ounds 6475
managers 6474
Ethernet 6474
asteroids 6472
Ads 6470
speaks 6469
big@@ 6469
Hun@@ 6469
singers 6469
appliances 6468
lined 6468
amed 6467
pimples 6466
spinal 6466
ip 6464
gates 6464
deciding 6463
spiral 6461
sli@@ 6461
bent 6461
Dom@@ 6459
kilometers 6459
` 6459
Letters 6458
LSD 6458
yo 6457
Sum@@ 6457
nasty 6456
shades 6455
Sound@@ 6454
outcomes 6453
Vista 6452
Started 6450
Weapons 6449
supposedly 6446
Mod@@ 6446
cooled 6446
passive 6444
ank 6444
UPS 6444
garage 6443
boss 6442
Pra@@ 6442
rier 6442
Immigration 6440
generates 6440
Poland 6440
Websites 6439
fan@@ 6439
ress 6438
Regardless 6438
brighter 6437
DA@@ 6436
clutch 6436
ozone 6436
sells 6433
sheep 6432
promises 6430
vagina 6430
partly 6430
‹ 6429
arch@@ 6429
Dor@@ 6427
supporters 6424
Whit@@ 6424
drought 6421
ов@@ 6420
2,000 6420
hangover 6420
Reduce 6419
ego 6418
Breast 6418
Floor 6418
s- 6417
denied 6417
Forex 6415
Overall 6415
160 6415
smelling 6414
upvotes 6413
cop 6412
ultra 6411
pile 6411
Scale 6410
bounce 6408
torture 6407
Mart@@ 6406
stare 6405
ONLY 6404
cleaned 6404
Extreme 6404
addressed 6403
Remote 6402
Pope 6400
bananas 6400
competing 6399
oming 6397
1991 6397
template 6397
tives 6396
honor 6396
competitors 6396
Frozen 6395
Minnesota 6394
comparable 6394
planetary 6392
Replies 6391
evaluate 6391
mc@@ 6391
abs 6391
gh 6390
od 6390
Prevention 6390
MB@@ 6389
CDs 6388
workplace 6386
Effective 6382
Acne 6382
franchise 6381
sole 6379
Moore 6379
wit@@ 6379
universes 6378
Bit 6378
spl@@ 6376
snack 6375
separately 6374
Cop@@ 6374
mar 6373
't 6373
asi@@ 6373
pupils 6371
Classical 6371
appealing 6370
storing 6370
countless 6369
historic 6368
ander 6366
color@@ 6366
Points 6365
coconut 6365
civilians 6365
resting 6364
Printing 6361
wiki 6361
Networks 6361
Broken 6361
dealer 6360
Drivers 6359
etting 6359
Lock 6357
exempt 6355
motivated 6353
1945 6352
Corporate 6351
abandoned 6351
ough@@ 6350
Hulu 6350
15.@@ 6349
MI@@ 6349
lactose 6349
Otherwise 6348
boundaries 6348
painted 6347
twist 6347
о 6346
pharmaceutical 6345
neural 6345
pie 6344
Reserved 6344
roller 6344
Band 6343
Bees 6341
genuine 6340
drama 6340
Sunni 6339
Seems 6338
Shift 6338
permit 6337
fts 6337
1992 6335
stic 6334
NC 6332
bearing 6331
proxy 6331
HealthTap 6330
Bab@@ 6328
ells 6327
fic@@ 6326
exhausted 6326
describing 6325
Inf@@ 6325
parliament 6325
flesh 6323
representatives 6322
ranks 6320
gle 6320
CAN@@ 6319
Reuters 6318
sooner 6317
coloring 6317
ologists 6316
dealers 6316
Oxford 6315
fro@@ 6315
nude 6315
Tab@@ 6315
shrink 6315
mod 6314
String 6313
productivity 6313
Shot 6313
ting@@ 6311
ond@@ 6310
clubs 6309
Spider 6309
Pool 6308
sam@@ 6308
drying 6307
Seven 6306
melted 6306
settlement 6306
16.@@ 6306
Window 6305
Injury 6304
ains 6304
stop@@ 6301
×@@ 6301
Chart 6300
fights 6300
ask@@ 6299
shame 6298
contribution 6298
ater@@ 6298
towns 6297
Demand 6296
spar@@ 6296
alongside 6296
threatened 6295
poisonous 6294
chargers 6293
VS 6293
Ap@@ 6292
minim@@ 6291
sensory 6291
turbine 6290
KING 6290
transgender 6290
nightmares 6289
akers 6287
Construction 6287
free@@ 6286
Actors 6286
Stat@@ 6285
conservatives 6285
passion 6284
mutations 6284
Gate 6284
stainless 6284
Homo 6283
Turkish 6283
Jay 6282
palm 6282
walks 6280
Micro 6279
ALS 6279
Bureau 6278
م@@ 6278
DJ 6278
dered 6277
Lam@@ 6277
79 6277
Remedies 6277
chers 6276
Google+ 6275
unwanted 6275
Zi@@ 6274
Voting 6273
path@@ 6271
pic 6271
Beef 6270
destructive 6269
Formula 6269
Hydro@@ 6269
ен@@ 6268
shadows 6267
ura 6265
Methods 6263
ouring 6263
Meanwhile 6262
Lots 6262
thereby 6262
patents 6262
clips 6261
Dubai 6261
Horse 6260
Helium 6260
Truck 6259
answering 6258
eld 6257
matching 6255
ami 6254
fe 6254
C++ 6254
Communist 6253
shark 6253
12th 6252
negatively 6251
Medium 6251
grant 6249
sible 6249
entities 6249
Spl@@ 6248
hose 6248
Davis 6248
veterans 6247
Fire@@ 6247
residential 6243
gallons 6243
liberalism 6243
atic 6241
counterparts 6240
S.@@ 6240
apped 6239
Stri@@ 6239
ThisBlogThis!Share 6237
2020 6237
15% 6237
Real@@ 6233
adapted 6233
brilliant 6231
Sort 6230
ku 6230
Game@@ 6230
spelled 6230
Neuro@@ 6230
stuffy 6229
structural 6227
followers 6227
sovereign 6226
pride 6224
PRE@@ 6224
Christopher 6223
ind@@ 6223
cured 6223
Conference 6222
donations 6220
urinate 6220
cereal 6219
Miami 6216
Harvard 6216
Plane 6214
placebo 6214
surge 6213
Fran@@ 6212
convince 6212
Father 6211
layout 6211
gran@@ 6211
Kennedy 6209
Pepsi 6209
mentation 6209
und 6208
browse 6207
indoor 6207
stayed 6206
interfere 6206
cousin 6206
vin 6206
convention 6205
civilizations 6204
ees 6200
GS 6199
meaningful 6198
Justin 6196
secrets 6196
Bear 6195
AW@@ 6195
life@@ 6194
delegates 6192
kets 6191
operates 6191
render 6188
vir@@ 6187
NC@@ 6187
boxing 6185
PE 6184
listing 6184
Ceiling 6184
Simpson 6184
Tank 6182
hitler 6182
intention 6181
Mission 6177
Elements 6176
optic 6175
Muscles 6175
Sand@@ 6173
73 6173
Drop 6173
URE 6172
ris@@ 6172
Oc@@ 6171
enter@@ 6171
tricky 6171
Instant 6170
Num@@ 6170
tible 6169
hygiene 6168
approaching 6166
Fac@@ 6163
ranked 6160
wrist 6160
refund 6159
lied 6159
traded 6158
fla@@ 6155
Russians 6155
politically 6154
laundry 6153
7,@@ 6152
Daylight 6152
lawn 6151
subsequent 6151
Knowing 6150
Photo@@ 6150
Bruce 6150
breakdown 6150
passport 6150
dehydrated 6150
posture 6149
accessories 6147
subscribers 6146
zoom 6146
remedy 6146
representing 6145
gang 6143
scream 6142
ballot 6142
avoided 6142
PR 6141
Warning 6141
sign@@ 6139
olds 6139
Campaign 6138
eted 6138
utes 6136
EC@@ 6135
LP 6135
commitment 6131
ples 6131
Reports 6130
embedded 6130
pulls 6130
managing 6128
ignored 6127
ila 6126
HBO 6126
illa 6125
izes 6123
awkward 6120
ft@@ 6119
AST 6119
disposal 6118
ranking 6117
wel@@ 6116
Environmental 6115
Trying 6114
proportional 6114
sticking 6114
rope 6113
Cou@@ 6113
Egyptian 6113
ICS 6112
ols 6112
58@@ 6111
eyed 6110
rist 6110
Rom@@ 6110
Bread 6110
Soon 6108
Cos@@ 6108
Surface 6107
sought 6106
indication 6105
not@@ 6105
testosterone 6104
60% 6102
succeed 6101
sle@@ 6101
patches 6100
advertisements 6100
bat@@ 6099
casual 6097
gallery 6097
asing 6097
pipeline 6096
Bring 6095
ATM 6094
spoon 6092
oun@@ 6092
chickens 6092
ling@@ 6091
Fit 6091
ISO 6088
ee@@ 6088
noun 6087
pressed 6087
exceed 6087
MLB 6087
consequence 6086
poses 6084
pause 6083
equilibrium 6083
Cycle 6082
rob@@ 6082
Judaism 6082
TIME 6081
Rice 6081
Panama 6081
Genetic 6081
clone 6080
searched 6079
Period 6079
shoe 6077
Dow 6075
intentionally 6075
Len@@ 6074
dol@@ 6073
Reagan 6071
dan 6071
kiss 6070
Highway 6070
blo@@ 6069
Parenthood 6069
rinse 6068
tia 6067
inated 6066
cult 6066
long@@ 6066
emo@@ 6065
windshield 6064
Falling 6063
import 6063
mount 6062
EV@@ 6061
fluoride 6061
guilt 6060
ques 6060
Visual 6060
integration 6059
buried 6059
earliest 6058
fingernails 6058
conflicts 6057
bleach 6057
sustain 6056
Fiction 6055
EF@@ 6054
idi@@ 6054
faint 6053
Cle@@ 6053
rod 6053
Surely 6052
isation 6051
Oscar 6051
itable 6051
Trial 6050
Panels 6050
Essential 6050
Bug 6050
Fro@@ 6049
tized 6049
traumatic 6049
Foot 6048
FX 6047
elite 6047
Sav@@ 6046
influences 6045
overhead 6045
detector 6044
Bird 6043
substitute 6042
ump@@ 6042
Explore 6040
telescopes 6039
satisfaction 6039
Filter 6038
attach 6038
speeding 6038
Positive 6037
ever@@ 6036
royal 6035
Profit 6034
Panel 6034
Lincoln 6033
Poli@@ 6031
Pure 6031
genic 6031
stains 6031
bowel 6031
alleged 6030
resident 6028
availability 6027
rolled 6027
Hemisphere 6026
uncertainty 6025
UM 6025
Nevada 6024
Cannabis 6023
dit@@ 6023
octane 6023
rence 6021
ography 6021
anne 6021
lump 6021
recycled 6021
doses 6021
concentrated 6020
relating 6020
ices 6020
SPE@@ 6019
leather 6019
pockets 6016
arian 6015
examination 6015
bump 6015
Circle 6015
Species 6014
earthquakes 6014
Autism 6013
Lar@@ 6013
human@@ 6012
Pyramid 6010
Portable 6009
reproductive 6008
lovely 6008
O'@@ 6007
spi@@ 6006
cos 6006
fibers 6005
DVDs 6004
ple 6003
Rap@@ 6002
rendering 6002
1984 6001
Boeing 6000
tioning 5997
identifying 5997
deemed 5997
ecting 5996
consensus 5993
Pas@@ 5993
Computing 5992
foot@@ 5992
tactics 5991
BLACK 5990
mers 5989
zy 5988
needing 5985
IST 5985
mutual 5985
Blind 5984
emphasis 5984
Device 5984
decreased 5983
slave 5983
refused 5982
razor 5981
Betting 5981
inspiration 5981
ç@@ 5981
hd 5981
propaganda 5980
Partnership 5980
Powered 5979
Lat@@ 5977
Calculator 5975
·@@ 5974
vers@@ 5973
dehydration 5972
Guns 5972
earning 5971
Carl 5969
leaked 5968
50,000 5968
periodic 5966
DUI 5966
respiratory 5964
Elections 5963
fingerprints 5963
CPUs 5962
ET@@ 5961
BM@@ 5961
ั@@ 5961
PD@@ 5959
Shampoo 5958
Newer 5957
dr 5956
Button 5956
vibrations 5955
simpler 5955
news@@ 5954
Nail 5954
stating 5953
Python 5952
tex@@ 5952
wildlife 5950
chro@@ 5950
Later 5949
leaks 5949
Shopping 5949
ature 5947
dough 5945
EE@@ 5944
oned 5943
romantic 5942
Giant 5941
feminine 5940
nauseous 5939
gums 5939
Neil 5938
Der@@ 5938
401k 5938
printers 5937
horsepower 5937
enced 5936
calculus 5933
Dad 5933
Complex 5931
dispute 5931
17th 5931
frustrating 5930
demonstrated 5930
GMO 5930
bare 5929
jam@@ 5926
Mem@@ 5926
likelihood 5926
catching 5925
sellers 5924
blink 5924
hiding 5923
innovative 5923
Hit 5922
snow@@ 5922
Wood@@ 5922
civilian 5922
canned 5921
Book@@ 5919
Ga@@ 5919
imposed 5918
Citizen 5918
Binary 5917
soviet 5916
declare 5914
crystals 5913
slaves 5912
presidents 5912
bodily 5912
lava 5912
Steven 5911
dump 5911
Wilson 5911
Egg 5911
inj@@ 5910
rie 5910
izer 5909
blooded 5909
Tex@@ 5909
commission 5908
debates 5906
Late 5906
aqu@@ 5906
Nov@@ 5905
circumcision 5904
peaceful 5904
owed 5904
carpet 5904
whiskey 5904
ari 5903
ually 5903
edi@@ 5902
after@@ 5902
Prison 5900
44@@ 5899
rejected 5899
connects 5899
rant 5899
Strength 5898
independently 5897
lobbying 5896
circuits 5896
suggesting 5893
boarding 5892
Matthew 5891
Roll 5891
Pul@@ 5891
Skype 5889
Sheet 5889
Tom@@ 5889
cosmic 5889
hips 5889
salaries 5888
1990s 5886
relaxing 5885
emitted 5885
Fusion 5885
endless 5884
squeeze 5884
Reader 5883
wanna 5883
worship 5883
Pretty 5882
Paradox 5882
amy 5882
Trek 5881
Senior 5880
Shel@@ 5877
republic 5876
mill 5876
classroom 5876
sor 5875
unfair 5874
nom@@ 5874
Writer 5872
bucket 5870
surplus 5869
2019 5869
Fans 5868
Cuban 5868
RNA 5867
inst@@ 5866
diver@@ 5866
repeating 5864
ka@@ 5864
Clothing 5864
justified 5862
dissolve 5862
SL@@ 5862
Log@@ 5860
Nigeria 5859
Kir@@ 5859
promoting 5857
spacetime 5857
14th 5857
foo@@ 5856
manuals 5855
admitted 5855
13th 5855
Experiment 5854
hen@@ 5852
ull 5852
alternate 5851
endangered 5851
vegan 5851
lithium 5850
usi@@ 5850
Missouri 5849
Function 5848
NHL 5847
gentle 5847
ader 5846
Communications 5846
pumps 5846
ра@@ 5845
brow@@ 5844
settled 5843
Stores 5843
Sn@@ 5842
threshold 5841
7% 5841
infant 5841
Torrent 5839
Belly 5839
Gets 5839
legalized 5836
Citizens 5836
creature 5836
Printer 5835
implementation 5833
Tal@@ 5833
swallowing 5832
export 5832
sten@@ 5828
spherical 5828
thirsty 5828
inevitable 5826
agenda 5826
flexibility 5826
Opinion 5825
ym@@ 5825
goo@@ 5824
Needs 5823
1989 5823
1960s 5822
6-@@ 5822
nm 5822
icing 5821
nal 5820
courtesy 5820
Diseases 5820
colleagues 5819
logists 5819
landed 5819
mul@@ 5817
Gray 5817
PlayStation 5817
interactive 5816
wan@@ 5815
remind 5814
Argentina 5814
Charlie 5814
buyer 5813
Rose 5813
hacked 5813
Bet@@ 5813
Oklahoma 5812
shocked 5812
manufacture 5811
asses 5810
Capitalism 5810
Diego 5809
yoga 5808
Outside 5807
Asians 5806
Ol@@ 5805
act@@ 5804
Relief 5804
Luxury 5803
Fa@@ 5803
Pets 5803
announcement 5802
counted 5802
hydrated 5802
Tem@@ 5801
Identity 5801
Sin@@ 5800
JO@@ 5800
atives 5800
Caribbean 5798
Vector 5797
CB@@ 5797
durable 5796
Feet 5795
begun 5794
Thrones 5793
Town 5793
neighbors 5793
9,@@ 5792
expressions 5790
CK 5789
Kid@@ 5789
bb@@ 5789
Object 5786
Dell 5785
Nice 5785
genres 5783
Dallas 5783
wallet 5783
sons 5782
astro@@ 5782
acing 5781
Lets 5779
arrangement 5779
mins 5778
Spec@@ 5778
Advertising 5777
Cel@@ 5777
thicker 5777
Libya 5776
Resolution 5776
navigate 5775
Batman 5775
Pla@@ 5773
blonde 5773
encing 5772
Tricks 5772
ethanol 5772
MR@@ 5771
toll 5771
probe 5771
documented 5770
Gary 5769
Structure 5768
hosts 5768
couch 5768
headphone 5767
resist 5767
clockwise 5767
1980s 5766
discusses 5766
ulating 5766
Keys 5766
Violence 5766
spark 5766
Technical 5765
Sle@@ 5765
alpha 5765
eous 5762
130 5761
flo@@ 5761
hin@@ 5760
creativity 5760
Patent 5759
narrative 5757
operators 5757
memes 5756
199@@ 5756
umes 5754
cock 5753
altered 5753
SN@@ 5753
specialist 5752
Fortunately 5752
Alexander 5752
Few 5751
conver@@ 5751
differentiate 5750
256 5750
Run@@ 5750
Delete 5749
tasting 5749
calculation 5748
Items 5747
Artist 5746
dow@@ 5746
remarkable 5744
α@@ 5742
urs 5742
Wales 5741
Everest 5741
Dear 5740
trips 5740
Creating 5739
meditation 5739
mysterious 5738
dolphins 5738
Indians 5737
supreme 5736
shortly 5735
hey 5734
slice 5734
physiological 5734
Drives 5733
detectors 5733
arranged 5732
Anatomy 5731
ion@@ 5731
tz 5731
abdomen 5731
SIM 5730
8-@@ 5730
payer 5728
enzymes 5728
handled 5727
->@@ 5727
pads 5727
Uses 5726
clarify 5726
Along 5725
Oper@@ 5723
suspended 5722
considerably 5722
analogy 5721
URL_8 5718
Planning 5718
charts 5716
precision 5716
Rand 5715
womb 5715
Secure 5713
Qatar 5713
dom 5713
heck 5712
ves@@ 5712
recycle 5712
bic@@ 5712
Lewis 5711
striking 5711
Spo@@ 5710
fel@@ 5710
advise 5710
Awards 5705
ind 5704
Comic 5704
complications 5702
tab@@ 5702
instruction 5701
Conflict 5701
Turing 5701
proc@@ 5699
permitted 5698
pumping 5698
Nazis 5698
Investing 5697
Resume 5696
Utah 5696
Dinosaurs 5695
motors 5695
swag 5695
ener@@ 5694
minus 5694
sucks 5694
fingerprint 5692
floors 5691
ests 5690
ured 5690
tem@@ 5690
instinct 5690
das 5689
taxed 5689
dead@@ 5688
Dakota 5687
severely 5687
Cross@@ 5687
Animation 5686
ABLE 5685
holy 5684
bis@@ 5682
Alpha 5682
pain@@ 5682
LG 5682
hun@@ 5681
1970s 5681
bun@@ 5681
ester 5681
aya 5681
Looks 5680
lif@@ 5680
membrane 5680
strains 5680
cloning 5680
ounded 5677
home@@ 5676
Presentation 5676
considerable 5673
Edge 5673
Eventually 5673
establishment 5672
shortage 5671
Kri@@ 5670
expectancy 5670
censorship 5668
DN@@ 5666
namely 5665
altogether 5665
I.@@ 5665
sunglasses 5665
dialogue 5664
Crazy 5664
guidance 5664
blur 5662
ance@@ 5661
develops 5661
tos 5660
rash 5660
ound 5660
currents 5659
newsletter 5659
strictly 5657
Hurricane 5657
00:@@ 5657
absorption 5657
Farm 5656
cd 5654
Aircraft 5654
aims 5653
minimize 5652
Es@@ 5652
Waste 5651
Zip 5651
WILL 5650
Compared 5650
applicable 5648
Communication 5647
Weekly 5647
High@@ 5647
cracked 5647
concluded 5646
tuned 5645
bat 5645
Adding 5644
emerging 5642
ached 5641
appearing 5641
Nick 5640
unexpected 5640
absorbs 5639
Storm 5638
lat@@ 5637
Mint 5637
advertise 5636
gamma 5636
adverse 5635
knots 5635
ANY 5634
outdoors 5634
wolves 5634
notifications 5632
ector 5631
Ty@@ 5630
66@@ 5630
asts 5630
Launch 5630
Gold@@ 5628
improvements 5628
Seat 5626
UM@@ 5626
mon 5626
Teen 5626
Holes 5625
U.S 5625
sounding 5625
critics 5623
binding 5623
vein 5623
Ontario 5623
shuttle 5622
Az@@ 5621
beers 5620
cheat 5619
esp@@ 5619
bec@@ 5619
slo@@ 5619
hem@@ 5619
evolving 5618
blu@@ 5618
Shakespeare 5617
nation@@ 5616
emotionally 5612
aria 5610
towels 5610
law@@ 5609
rewards 5608
guides 5608
Jan@@ 5607
uncommon 5607
agging 5606
Brit@@ 5605
16th 5605
arguing 5603
cyber 5603
Tun@@ 5602
dishwasher 5602
gent 5601
compromise 5599
neg@@ 5599
nurse 5599
flashing 5599
800@@ 5598
Sydney 5598
Together 5597
Choosing 5597
assess 5597
privilege 5597
PayPal 5596
Polish 5593
р@@ 5592
Eve 5592
Specifically 5591
harmless 5591
Representatives 5590
zation 5587
sing@@ 5586
segment 5586
Cab@@ 5586
Mario 5585
19.@@ 5584
cache 5584
่@@ 5583
Mol@@ 5582
stats 5582
testicles 5582
IBM 5581
electro@@ 5581
dil@@ 5580
tac@@ 5578
posed 5577
Boost 5577
chin 5575
drones 5573
Hard@@ 5571
guests 5571
Survive 5571
jeans 5571
accepting 5569
characterized 5567
derivatives 5567
standardized 5567
Urban 5567
Uni@@ 5567
delayed 5566
Flu@@ 5565
engaging 5565
mercury 5564
way@@ 5563
contributed 5563
dges 5563
mutation 5563
IES 5562
Pay@@ 5562
After@@ 5562
briefly 5562
Moscow 5562
Tube 5560
experimental 5558
port@@ 5556
injected 5554
Clar@@ 5554
SI 5553
eri@@ 5553
Twin 5552
rude 5552
Dragon 5552
mating 5552
realise 5550
eman 5548
worm 5548
puzzle 5547
Fine 5547
indian 5547
dull 5547
var 5546
fascism 5546
conclude 5545
wherever 5545
Pen 5545
Pepper 5544
vibration 5543
reactors 5543
Cigarettes 5543
sores 5542
15th 5541
Show@@ 5540
belongs 5539
bert 5537
Honda 5536
irrelevant 5536
theoretically 5534
obsessed 5534
65@@ 5533
olive 5533
tray 5533
Zo@@ 5532
ag 5532
Codes 5531
Plug 5530
Format 5530
Theorem 5530
ο@@ 5529
prevented 5528
thro@@ 5528
parameters 5527
watts 5527
ira 5527
defining 5526
Stage 5525
tender 5525
sinus 5525
cy 5524
τ@@ 5524
pursue 5524
tica 5524
mods 5523
lessly 5523
studios 5523
ss@@ 5522
spe@@ 5522
Teaching 5522
pouring 5522
vivid 5522
Canon 5521
bled 5521
Iranian 5521
Pee 5521
treaty 5519
Minutes 5519
Kelly 5519
Senator 5518
्@@ 5518
cited 5517
Housing 5516
taxi 5515
cam 5515
banning 5515
king@@ 5514
io 5514
smoked 5514
strengthen 5514
Activ@@ 5512
140 5512
cave 5512
ms@@ 5512
php 5511
burger 5510
Oven 5510
forecast 5507
trademark 5505
treats 5504
Normally 5504
motorcycle 5504
Hockey 5503
relatives 5502
Spon@@ 5502
flags 5502
Hack 5501
disappeared 5501
violate 5500
LOVE 5499
transistors 5499
quest 5498
historically 5497
Homes 5497
SHO@@ 5496
infl@@ 5494
interviews 5493
Hon@@ 5493
drill 5493
Commonwealth 5492
antimatter 5491
Plasma 5490
ela 5489
phases 5489
Spi@@ 5489
taller 5489
canal 5489
sunny 5486
eats 5486
mars 5485
Keyboard 5485
hotels 5484
cancers 5484
ands 5483
Meth@@ 5482
peeing 5482
prec@@ 5482
pho@@ 5481
Copy 5480
Everyday 5479
reptiles 5479
cabin 5478
Labour 5476
reasonably 5475
multiply 5475
blogs 5473
Deb@@ 5473
responded 5472
ator@@ 5472
Pic@@ 5472
crop 5470
vic@@ 5470
bible 5469
Warren 5468
proton 5468
bra 5467
ania 5466
costly 5465
Mos@@ 5465
dominated 5464
placement 5464
ann 5463
afterwards 5463
clarity 5462
designers 5462
ace@@ 5462
thrive 5462
fax 5461
neutron 5461
1970 5460
Bottom 5460
tale 5460
Rob 5459
hammer 5459
Principle 5458
ruin 5458
SW@@ 5456
py@@ 5455
gar 5454
Signal 5453
rup@@ 5452
sar@@ 5452
Bone 5450
liqu@@ 5448
Emp@@ 5447
reject 5447
supplied 5447
Guys 5446
void 5445
meme 5444
matrix 5443
Toys 5443
Solved 5442
Originally 5442
Jr. 5442
surgical 5442
sunburn 5442
outstanding 5441
jpg 5440
recordings 5440
AND@@ 5438
kan 5438
fines 5438
difficulties 5437
hurricane 5437
Discuss 5436
tre 5436
AB 5435
ix 5435
disgusting 5435
BI@@ 5434
Caffeine 5434
jewelry 5433
investor 5432
Talking 5431
Ang@@ 5431
partnership 5428
alt 5428
nipples 5426
uploaded 5425
Former 5424
acked 5424
Tam@@ 5424
Hip 5424
Survival 5423
But@@ 5421
cav@@ 5421
lowering 5420
whale 5420
Wid@@ 5419
Balls 5419
3000 5418
Task 5418
operator 5418
Throat 5418
Personally 5417
EL 5416
silk 5416
Co. 5412
spends 5411
3,000 5411
ces 5410
Idea 5409
ь@@ 5409
8) 5409
norm 5409
Jun@@ 5409
rpm 5408
laboratory 5408
aving 5407
400@@ 5407
Boys 5407
vibrate 5407
THC 5406
gif 5405
px 5404
populated 5404
peel 5402
Canadians 5402
affairs 5401
brick 5400
Allen 5399
Scandal 5399
offs 5399
uss 5398
diplomatic 5398
ped@@ 5397
modes 5395
Fla@@ 5395
judgment 5394
cavity 5394
originated 5393
spit 5393
Roo@@ 5392
designated 5392
spare 5390
psych@@ 5390
russia 5389
rounds 5389
Dou@@ 5389
ren 5388
External 5388
Cast 5388
oop 5387
plural 5387
ा@@ 5386
bed@@ 5386
bytes 5386
Breakfast 5386
builds 5385
pled 5383
Ban 5382
V. 5381
genital 5381
Him 5379
Law@@ 5378
Tool 5377
hacker 5377
highlights 5377
alls 5377
Vitamins 5377
intuitive 5376
portions 5376
Governor 5375
spac@@ 5374
featuring 5373
Pho@@ 5373
demanding 5373
indoors 5372
bikes 5372
statistical 5371
vit@@ 5370
Admin 5370
tang@@ 5369
forex 5368
cords 5368
assignment 5367
transit 5367
oppose 5366
ark 5363
EM 5363
quiz 5362
Wide 5362
Associated 5360
Coin 5359
False 5359
upwards 5358
pens 5358
drastically 5357
integral 5356
accompanied 5355
migraine 5355
publication 5354
peanuts 5354
stimulate 5353
labour 5353
nec@@ 5352
grand@@ 5351
Shoes 5351
fries 5351
promised 5350
athlete 5347
O2 5347
sapiens 5347
ARY 5346
GP@@ 5344
responding 5344
pigeons 5342
wil@@ 5340
deficiency 5340
Cube 5340
Secrets 5340
Tickets 5338
Router 5337
tar 5337
venom 5337
climates 5336
thinner 5333
vietnam 5332
Prescription 5331
75@@ 5330
Bay@@ 5330
berries 5329
Hil@@ 5329
Organ@@ 5329
Kentucky 5329
Swedish 5327
camps 5327
expands 5325
iss 5324
searches 5323
contributing 5323
Cruise 5323
Damage 5321
Success 5320
amazon 5320
SK@@ 5319
destroying 5318
Mouse 5318
ENTS 5317
routes 5317
Sig@@ 5316
weakness 5315
sex@@ 5314
heaven 5314
99.@@ 5313
metallic 5313
christian 5312
cracks 5311
18.@@ 5310
Called 5310
monkeys 5308
meth@@ 5306
Mic@@ 5305
duties 5305
Reference 5305
Fourth 5305
shiny 5304
Adap@@ 5304
enhanced 5303
enjoyable 5303
celestial 5303
invested 5302
Hay@@ 5302
guards 5302
warranty 5302
night@@ 5302
Ronald 5301
killers 5301
Colon@@ 5300
ho 5300
Ted 5299
body@@ 5299
siblings 5299
cran@@ 5299
congestion 5298
securities 5297
contaminated 5297
optim@@ 5297
Reform 5294
Ped@@ 5294
baked 5294
Suc@@ 5293
converting 5292
australia 5292
vo 5292
ensuring 5292
Cul@@ 5292
occasional 5291
cellphone 5290
ello 5289
Son@@ 5288
boundary 5288
scar 5287
scenarios 5287
adventure 5287
rains 5287
asting 5287
salts 5286
Insects 5286
startup 5285
marry 5283
magazines 5282
poster 5282
meth 5282
overdose 5281
financing 5280
Virgin 5280
ence@@ 5279
Medicaid 5279
Person@@ 5279
explosive 5279
genome 5278
limiting 5277
scars 5275
Optim@@ 5273
puberty 5273
gifts 5271
breath@@ 5271
Periodic 5271
lay@@ 5270
capita 5270
vu 5270
vessel 5268
Adults 5268
Rent 5267
lifespan 5267
tam@@ 5265
distribute 5264
eks 5263
tomato 5262
ens@@ 5262
boiled 5262
menstrual 5260
pigs 5259
imply 5259
ppy 5259
Miss 5259
Gasoline 5258
00:00 5256
P.@@ 5255
constitu@@ 5255
sessions 5255
gal@@ 5254
arr@@ 5254
Updates 5254
submarine 5254
NEWS 5253
Pun@@ 5252
hn 5252
Nic@@ 5252
cel@@ 5251
itter 5251
Monster 5250
promotion 5249
verified 5248
anim@@ 5248
Importance 5248
jurisdiction 5248
visits 5246
mushrooms 5246
scalp 5245
stance 5245
Worst 5245
accelerating 5244
lover 5244
Alabama 5243
HTML5 5242
encouraged 5242
gling 5242
PT 5242
butterflies 5242
trails 5242
ING@@ 5241
evaluation 5240
logist 5240
morality 5240
2.1 5239
upward 5238
Longer 5238
Austin 5237
phon@@ 5236
corners 5236
abnormal 5236
Survey 5236
WORK 5235
86@@ 5235
pp 5234
band@@ 5234
stabili@@ 5233
casinos 5233
jerk 5233
exports 5233
Bis@@ 5233
traditionally 5232
newest 5231
eable 5230
я 5230
executed 5229
timeline 5229
RGB 5228
part@@ 5226
lau@@ 5226
enforce 5225
Neither 5224
Un 5224
webs 5224
bus@@ 5223
stressful 5222
developments 5222
filmed 5222
17.@@ 5221
prohibited 5220
Ali 5220
DAY 5220
sta 5219
infinitely 5218
bark 5216
Inv@@ 5215
vel 5215
Mes@@ 5215
remembering 5215
smoothly 5214
ues 5214
Thanksgiving 5213
ounces 5213
faucet 5212
Sat@@ 5212
publishing 5212
creator 5211
fer 5211
bad@@ 5211
Shell 5211
Lady 5210
Racing 5210
й 5209
sav@@ 5209
Alarm 5209
4.5 5208
Sciencing 5208
Ad 5207
acceptance 5206
Spiders 5206
journalists 5205
lun@@ 5205
tremendous 5205
Paid 5203
shore 5203
solids 5203
Electro@@ 5202
95% 5200
insi@@ 5197
infants 5197
HS 5197
fatty 5197
eliminated 5196
coc@@ 5196
compass 5195
legislative 5195
70s 5195
swe@@ 5194
suggestion 5193
buzz 5193
Americas 5192
whistle 5191
ensures 5191
Concept 5190
judicial 5189
1500 5189
opposing 5189
petition 5188
interval 5187
java 5186
Jon 5186
ankle 5186
Ton@@ 5186
african 5185
podcast 5184
zers 5184
Watching 5184
itated 5184
ancestor 5184
meg@@ 5183
surroundings 5183
crossed 5182
rag@@ 5182
algebra 5182
eline 5182
fers 5182
exhale 5182
wikipedia 5181
seizures 5181
elec@@ 5180
Guides 5180
airports 5179
Delivery 5179
classification 5176
physicist 5175
Lie 5175
ultraviolet 5175
Kal@@ 5174
Hear 5174
committing 5173
Liberty 5173
EDT 5171
cares 5171
laundering 5171
Atlanta 5171
Trucks 5171
orts 5171
Cru@@ 5171
Kindle 5168
mented 5168
C.@@ 5168
lob@@ 5168
Ric@@ 5167
ي@@ 5166
descent 5164
commands 5163
Pap@@ 5163
eyebrows 5163
Gran@@ 5162
discs 5162
PIN 5161
suspected 5161
complaint 5160
stealing 5160
ELI@@ 5159
ometric 5159
irritation 5159
Album 5158
Clothes 5158
spr@@ 5156
Forget 5156
masters 5154
</@@ 5154
Denmark 5153
yo@@ 5153
motherboard 5152
engagement 5152
shaft 5152
cone 5152
consistency 5151
chi 5151
chaos 5151
grapes 5151
ffy 5150
popped 5150
varied 5150
Vinyl 5149
Charger 5149
departments 5149
Pandora 5149
REALLY 5148
midnight 5148
ico 5147
Rot@@ 5147
arbitrary 5146
ective 5146
Population 5145
continually 5144
iest 5144
ABOUT 5144
nity 5144
volcano 5144
Asp@@ 5144
ary@@ 5143
responsibilities 5142
BI 5141
subsidies 5141
Hub 5141
-3 5141
prisons 5141
dwarf 5140
sci@@ 5139
OS@@ 5137
Nam@@ 5137
Tobacco 5137
Length 5136
logged 5136
pale 5135
households 5134
bolt 5134
PhD 5134
Ner@@ 5133
sou@@ 5132
Films 5132
rip 5129
Millions 5127
occupied 5127
ounding 5127
subjective 5124
OUT 5124
Rocket 5124
domains 5123
MENT 5123
Giving 5123
ales 5123
Employment 5122
Stem 5122
240 5120
Life@@ 5120
replied 5119
COMM@@ 5119
VERY 5119
Independence 5119
Germans 5119
ы@@ 5118
quar@@ 5117
disc@@ 5117
wo@@ 5116
Crystal 5116
firearms 5116
occasion 5115
refer@@ 5115
gol@@ 5115
encyclopedia 5115
infringement 5115
Restaurants 5115
necessity 5114
fate 5112
thirty 5112
Cruz 5112
accomplished 5111
monster 5111
literary 5111
Dur@@ 5110
xes 5109
stat@@ 5109
fence 5109
Captain 5109
sword 5109
Anthony 5108
tian 5108
Calculus 5108
SMS 5108
thor@@ 5106
ม@@ 5106
Mona 5105
german 5104
COMP@@ 5104
wrapped 5104
auction 5104
Attacks 5104
cabinet 5104
75% 5103
OP 5103
orn 5103
60s 5103
past@@ 5102
shallow 5102
expecting 5101
Speakers 5101
MHz 5101
asser@@ 5100
right@@ 5100
Sab@@ 5100
t.@@ 5100
thirst 5100
ia@@ 5100
s(@@ 5100
incorporated 5098
Converter 5097
Frequently 5096
recipient 5095
Recipe 5095
Rest@@ 5093
GIFs 5093
sia 5092
apping 5092
Wifi 5092
list@@ 5091
Vari@@ 5090
nightmare 5090
stale 5089
IV@@ 5089
Vehicles 5089
twelve 5088
soy 5088
Brow@@ 5087
warned 5087
Additional 5086
climbing 5086
highlight 5086
coloured 5085
Thought 5084
occasions 5083
highways 5083
Set@@ 5082
disable 5082
monarchy 5081
suicidal 5079
inbreeding 5078
reflective 5078
Resource 5077
Ferguson 5077
Goes 5076
spaced 5076
Fort 5076
survived 5076
suited 5075
inform 5075
sinks 5074
lian 5074
Iceland 5073
Dol@@ 5072
revolutionary 5071
paths 5070
ared 5069
puppy 5069
Lab@@ 5068
125 5068
ough 5068
village 5067
Finland 5066
1.3 5066
tattoos 5066
Bike 5066
Pump 5065
tightly 5064
pes@@ 5064
selective 5064
vy 5063
Rare 5061
tumor 5061
anic 5061
republicans 5060
Comedy 5060
stuffed 5060
Worse 5059
dizziness 5059
dynamics 5057
incentive 5056
я@@ 5055
Seeing 5054
Root 5054
Funds 5053
Portuguese 5053
withdraw 5053
N. 5051
1000@@ 5051
green@@ 5049
rides 5048
awarded 5048
Phoenix 5047
E.@@ 5046
Shirt 5046
Muhammad 5046
ession 5045
merge 5045
Atom 5042
affiliate 5042
Alphabet 5042
Neck 5042
Deaf 5041
Simon 5040
alistic 5040
arteries 5040
consult 5040
alised 5039
SQL 5039
pretend 5038
bypass 5038
1)@@ 5038
Tran@@ 5035
liberals 5035
20,000 5035
acute 5034
ว@@ 5034
dium 5033
strips 5033
mit 5031
Tweet 5031
SC 5031
wa 5030
sexuality 5030
Nearly 5029
PTSD 5029
Dance 5027
differential 5027
arthritis 5027
shootings 5027
satisfying 5026
extraordinary 5025
Excel 5024
similarly 5024
ह@@ 5022
stand@@ 5022
collar 5021
sul@@ 5021
essed 5020
Mechanical 5020
Stations 5019
nursing 5019
mileage 5019
dog@@ 5018
Clearly 5016
peri@@ 5016
Forward 5016
custom@@ 5016
believing 5015
lan 5015
ug@@ 5015
thers 5015
commodity 5013
thy 5012
apo@@ 5012
Bir@@ 5011
Thai 5011
ado@@ 5010
orchestra 5010
Treaty 5010
slowed 5010
amino 5009
Materials 5007
skull 5005
Throughout 5004
boots 5004
Generator 5003
Fill 5002
offset 5002
themes 5002
Critical 5002
differs 5001
oids 5001
anesthesia 5001
Sym@@ 5000
scare 5000
acknowledge 5000
Adderall 5000
coun@@ 4999
adrenaline 4997
improves 4996
selecting 4995
Louisiana 4995
intercourse 4995
newspapers 4993
emerged 4993
Ve@@ 4993
flavored 4993
peppers 4992
p.@@ 4991
11th 4991
shutter 4990
agriculture 4990
і@@ 4989
complaints 4989
Functions 4988
Purchase 4988
explosions 4988
Cry 4988
goosebumps 4988
3.1 4986
economically 4986
Madison 4985
march 4985
Operation 4984
bred 4984
shield 4982
rey 4982
advised 4982
organ@@ 4982
lap 4982
graphs 4981
anda 4979
tism 4979
nam@@ 4978
Flint 4978
Turning 4977
Activity 4977
defence 4975
vanilla 4975
1986 4974
Ey@@ 4974
SOPA 4974
norm@@ 4973
Baking 4973
plastics 4973
Poker 4972
cour@@ 4972
posing 4971
territories 4969
hardest 4969
farms 4968
clogged 4968
dvd 4967
Static 4967
Yoga 4967
365 4966
Brothers 4966
ented 4966
publish 4964
attacking 4964
Assembly 4964
mythology 4964
authorized 4962
Tape 4961
economists 4961
Vintage 4961
Ku@@ 4960
mm@@ 4957
sadness 4957
vegetarian 4957
inappropriate 4956
drift 4956
onions 4956
Beijing 4955
Julian 4955
FT 4954
Affairs 4954
undergo 4954
Happened 4954
wick 4953
Bonds 4953
participation 4953
ailing 4952
Workers 4952
ided 4951
shareholders 4951
Victoria 4950
Ltd. 4950
tunnels 4950
Twitch 4950
evaporate 4949
pel 4948
accessed 4947
coil 4946
nes 4946
biased 4945
ails 4944
archive 4944
oul@@ 4944
DR 4943
dim 4942
WhatsApp 4941
anus 4941
handles 4940
dosage 4940
reversed 4939
COR@@ 4939
ANS 4939
Bla@@ 4938
bankrupt 4938
Built 4937
Beginner 4935
LL@@ 4935
ال@@ 4935
fixing 4934
Jerry 4934
Accounts 4933
mankind 4933
wi 4933
blindness 4933
pools 4933
rounded 4932
Flies 4932
Lessons 4931
astronomy 4931
Flow 4931
lowered 4930
bag@@ 4929
Fighting 4929
scar@@ 4928
Casino 4928
voluntary 4927
YES 4927
philosophical 4926
coating 4926
swi@@ 4925
ician 4924
°@@ 4924
dancing 4923
Blog@@ 4923
potent 4922
dissolved 4921
Above 4921
Cambridge 4920
Bull 4920
incidents 4920
definite 4920
whatsoever 4919
inherited 4919
dian 4919
tomatoes 4919
ibuprofen 4919
Considering 4918
enting 4917
Transportation 4917
hostile 4917
ense 4917
assisted 4917
clap 4917
gathering 4916
instruc@@ 4915
silicon 4915
dale 4915
Cs 4914
ย@@ 4914
owning 4913
FIN@@ 4913
Outdoor 4913
Mun@@ 4913
lease 4913
Bus 4913
weighs 4911
M.@@ 4911
pond 4910
inbox 4910
tun@@ 4910
supp@@ 4908
Tilt 4908
atten@@ 4908
proceed 4907
sporting 4907
SSL 4907
Nom@@ 4907
Ink 4907
Cont@@ 4906
Career 4904
Profile 4904
Arms 4904
20.@@ 4903
sni@@ 4903
usable 4902
bull 4901
Ethics 4901
emic 4901
illustration 4900
optional 4900
martial 4900
EP@@ 4899
sensations 4899
abundant 4899
satisfy 4898
p. 4898
Draw 4897
var@@ 4896
other@@ 4896
penalties 4896
aser 4896
bold 4895
tes@@ 4895
Ry@@ 4895
compress 4894
Ow@@ 4893
cluster 4892
Clouds 4891
blurred 4890
pling 4890
URL_9 4889
packets 4889
Baptist 4889
ACT 4889
parks 4889
dging 4888
D.C. 4887
subconscious 4887
Belt 4886
rick 4885
outbreak 4885
eyelids 4885
Worksheet 4884
Unique 4883
expertise 4880
Forest 4880
seizure 4880
85@@ 4879
headlights 4879
amer 4878
Rs 4877
stretched 4876
lovers 4876
ambient 4876
Rol@@ 4875
NEVER 4875
genius 4874
irs 4873
Cin@@ 4873
600@@ 4872
israel 4872
angs 4872
Raspberry 4872
genocide 4871
feminism 4868
pushes 4868
Console 4867
Washing 4867
distinctive 4867
pops 4865
su 4863
fireworks 4863
break@@ 4862
lock@@ 4862
на@@ 4861
shire 4861
Abstract 4861
eled 4861
inge 4860
abo@@ 4860
pimple 4860
backing 4859
Thr@@ 4859
Celebrity 4859
screws 4858
shy 4858
Gum 4858
antivirus 4857
fal@@ 4856
grading 4856
AMA 4855
Att@@ 4855
rechargeable 4855
Groups 4854
ophobia 4854
intervals 4853
Bran@@ 4852
secured 4852
NT 4852
semen 4850
Measure 4849
Trailer 4849
winners 4849
Podcast 4848
ladies 4848
sound@@ 4848
Disorders 4848
yards 4847
Silk 4847
reflux 4845
Haz@@ 4844
Eli@@ 4844
dash 4843
node 4843
cus 4841
misleading 4841
Eu@@ 4840
Guardian 4840
cage 4840
knives 4840
devastating 4838
LD 4837
projection 4836
Saint 4836
peroxide 4836
TT@@ 4835
â@@ 4835
Factors 4833
Fibonacci 4833
conducting 4833
suspension 4832
Curiosity 4832
Jimmy 4831
Accounting 4830
medieval 4830
inci@@ 4828
Ann@@ 4828
Jennifer 4828
.#@@ 4828
Teacher 4827
bie 4827
imaging 4826
pher@@ 4825
Shooting 4825
.- 4824
prolonged 4824
democrats 4823
flicker 4823
spins 4822
ACT@@ 4821
unstable 4821
pus 4821
Anime 4821
lengths 4820
Prot@@ 4820
advocates 4820
Cute 4819
individually 4819
salad 4819
argues 4818
cartridge 4817
TC 4817
kn@@ 4816
pas@@ 4815
helicopters 4815
Roger 4814
Mississippi 4814
headlines 4814
sunscreen 4814
Rear 4813
liberty 4812
©@@ 4812
Jeremy 4812
zen 4812
MAT@@ 4812
TL@@ 4812
Producer 4812
ere@@ 4812
scissors 4812
splitting 4811
traveled 4810
fitted 4809
legacy 4808
unclear 4808
sel 4807
Load 4806
hottest 4806
candles 4806
Chip 4805
1969 4804
bli@@ 4804
sandwich 4804
encountered 4803
retina 4801
Wat@@ 4801
tackle 4800
onion 4800
cargo 4800
herpes 4800
Settings 4799
contraction 4798
dressing 4798
expose 4798
TP 4797
verbal 4797
110@@ 4797
Friend 4796
UP@@ 4796
ب@@ 4796
Counter 4796
Sir 4796
Bos@@ 4795
[edit 4791
lum@@ 4791
iced 4791
Upon 4790
Philadelphia 4790
oured 4790
Jen@@ 4789
Bags 4789
straightforward 4788
some@@ 4788
WHO 4788
":@@ 4788
att 4788
diff@@ 4788
discipline 4787
scripts 4787
Sof@@ 4787
Jane 4787
Popcorn 4787
B.@@ 4786
Bron@@ 4786
iles 4786
NES 4785
resort 4784
colon 4784
consisting 4784
disturbing 4783
vertically 4783
Cultural 4782
Joint 4782
wat@@ 4778
Baltimore 4778
skinny 4778
Means 4778
palms 4778
Behavior 4778
Shia 4778
hosted 4776
Everybody 4775
blacks 4775
integrity 4775
positively 4775
Drunk 4775
commerce 4774
Denver 4773
cavities 4773
Translation 4772
cravings 4772
Losing 4770
ggle 4770
schizophrenia 4770
Headache 4770
elect 4769
hr@@ 4768
beds 4768
offline 4767
Status 4767
//@@ 4766
Light@@ 4766
recovered 4766
rever@@ 4766
ouse 4766
dietary 4765
Lives 4765
antidepressants 4765
mb 4764
Allergy 4764
ech 4763
lamps 4763
thermostat 4761
crush 4761
elbow 4761
Jonathan 4760
daytime 4760
geo@@ 4759
chlorine 4759
Kind 4759
psycho@@ 4759
vaccinated 4759
DRM 4758
enders 4758
Cer@@ 4758
IB@@ 4758
york 4757
ل@@ 4757
delivers 4757
homemade 4757
exotic 4756
folk 4755
coupons 4755
induce 4755
Con 4754
Scheme 4754
Lou@@ 4753
cinema 4753
attended 4753
Annual 4752
Thir@@ 4752
Colleges 4752
seasonal 4752
Cho@@ 4750
requested 4750
ratios 4749
ress@@ 4749
eas@@ 4748
moist 4748
delivering 4747
LinkedIn 4746
sonic 4746
Bol@@ 4745
Hidden 4745
fitting 4745
LGBT 4744
aver@@ 4743
H.@@ 4743
Bad@@ 4743
Favorite 4742
ANCE 4742
5000 4742
Pin 4741
Calls 4741
Ukrainian 4741
infect 4741
Monsanto 4741
Bottles 4741
hedge 4740
districts 4740
Silent 4740
ax 4740
poli@@ 4739
Rain@@ 4739
Plan@@ 4739
LOW 4737
1979 4737
Optical 4737
tionary 4735
touches 4735
TED 4735
veto 4735
ن@@ 4734
Sources 4733
ML@@ 4733
Delta 4733
Planck 4732
notable 4732
PU@@ 4731
Deals 4730
ean 4730
probable 4730
Constitutional 4729
Harris 4728
Analy@@ 4728
Conf@@ 4727
ghts 4727
Cen@@ 4727
modify 4726
Pull 4726
Bag 4726
flavour 4726
execute 4725
imm@@ 4725
Scal@@ 4725
Setting 4725
thi@@ 4725
WHEN 4725
presidency 4724
ism@@ 4724
heroes 4723
Calorie 4722
Gluten 4721
NHS 4721
coaches 4720
s-@@ 4720
Electromagnetic 4720
jacket 4720
fart 4720
eding 4719
Clinic 4719
eliminating 4718
bir@@ 4718
Corn 4717
Award 4716
nutrient 4716
bloodstream 4716
astronaut 4716
evident 4715
exhibit 4714
Nation@@ 4713
attributed 4713
spirits 4713
blows 4713
IPO 4713
ล@@ 4713
intestines 4713
ACA 4712
WOR@@ 4712
frustrated 4711
Maintenance 4711
Landing 4711
arrival 4711
Colour 4711
Penny 4710
erg@@ 4710
Falls 4710
Nagasaki 4710
Motors 4709
Various 4708
Ds 4708
singles 4707
aired 4706
ture@@ 4705
HT@@ 4705
assumptions 4703
screaming 4703
decreasing 4702
wasted 4701
Hacking 4701
stimulus 4700
meetings 4700
10-@@ 4699
tains 4699
derivative 4698
guessing 4697
Watts 4697
council 4696
Refer@@ 4696
receipt 4696
wiped 4696
stock@@ 4694
Ale@@ 4694
Goo@@ 4694
Bat@@ 4694
1/4 4694
Cellular 4694
buys 4693
inability 4693
soldier 4693
braces 4692
curl 4692
risky 4691
Sharing 4691
jo 4691
directory 4690
suc@@ 4690
Limit 4690
Hopefully 4690
giants 4690
farming 4690
pig 4690
perfume 4690
pirate 4689
Jon@@ 4689
Distance 4688
rack 4688
peers 4687
interpreted 4687
lecture 4687
Dic@@ 4687
Dial@@ 4687
Lottery 4687
Cooling 4686
severity 4685
remembered 4685
doc 4685
NT@@ 4684
1200 4684
Laden 4683
Protocol 4683
battles 4682
Pit@@ 4682
nurses 4682
poured 4682
methane 4682
shipped 4681
Calendar 4681
nationwide 4681
sided 4680
ather@@ 4680
THEY 4679
tuning 4679
bizarre 4678
dilation 4677
tribes 4677
user@@ 4677
slept 4677
embarrassed 4676
violet 4676
thing@@ 4675
Tit@@ 4675
cheapest 4675
aker 4675
र@@ 4674
ool 4674
liable 4673
appointed 4673
43@@ 4673
casting 4673
macro@@ 4672
accommodate 4672
Bitcoins 4671
determination 4671
Charging 4671
Starbucks 4671
ง@@ 4671
hp 4670
fa 4669
cheating 4669
cell@@ 4669
Ghost 4668
MI 4667
serv@@ 4666
rotor 4666
Sweat 4666
Glow 4666
Theme 4665
Minor 4665
scientifically 4664
stimulation 4664
downward 4663
maxim@@ 4662
vodka 4662
EPA 4661
MMA 4661
lier 4660
Lighting 4660
cup@@ 4660
occurrence 4659
malicious 4659
Agent 4658
downs 4657
flash@@ 4657
comple@@ 4657
fing 4656
sucked 4656
Matrix 4655
GL@@ 4655
gy@@ 4653
traditions 4653
Eff@@ 4652
ister 4652
tolerate 4652
imports 4652
Copper 4651
Contribu@@ 4650
KB 4650
!<B> 4649
Ubuntu 4649
Hunt 4649
refined 4648
Nat@@ 4648
prohibition 4646
Providers 4645
projected 4645
hazard 4645
ecosystem 4644
pinterest 4644
tiles 4643
Ratio 4643
aer@@ 4643
Responses 4642
ด@@ 4642
Dick 4641
READ 4641
ordering 4641
OFF 4640
financially 4639
Tablet 4639
Ages 4639
cab@@ 4638
64@@ 4638
Replacement 4637
iter@@ 4637
ago@@ 4635
relies 4635
y’ 4635
Bath 4634
Susan 4634
unconstitutional 4634
Mach@@ 4633
Holiday 4633
Dope 4632
Low@@ 4631
ems 4629
Domestic 4629
road@@ 4629
wer 4627
tici@@ 4627
equi@@ 4626
Mob@@ 4626
character@@ 4625
Portugal 4625
removes 4625
0s 4624
R.@@ 4624
Brands 4624
tioned 4623
Butter 4622
Replace 4622
hall 4622
asers 4620
phobia 4620
leagues 4618
gig@@ 4618
astic 4618
ticism 4618
gathered 4618
attorneys 4618
holocaust 4617
Fel@@ 4616
backward 4616
Lawyers 4616
Horror 4616
Li 4615
Stalin 4615
gent@@ 4615
tery 4614
Jean 4613
specially 4612
Ori@@ 4612
aur@@ 4611
bal 4611
2.2 4611
ASE 4611
class@@ 4610
Parties 4609
liber@@ 4609
Bed@@ 4609
Submit 4607
Likes 4607
kicked 4607
RPM 4607
Ther@@ 4606
Phase 4606
xbox 4606
Strange 4605
Illuminati 4605
lasted 4604
Dan@@ 4604
Geneva 4604
Yemen 4604
1.0 4603
Patients 4603
liter 4603
Swimming 4602
withstand 4601
tap@@ 4601
mortality 4601
fuse 4601
pharmacy 4601
chase 4600
dip 4600
Default 4599
cia 4599
otic 4599
asphalt 4599
raining 4598
Mart 4597
resolved 4597
Apart 4597
Conspiracy 4597
cola 4597
ж@@ 4596
wasting 4595
behavioral 4595
insomnia 4595
elephant 4594
forehead 4594
parasites 4593
Grand@@ 4593
Romans 4592
kernel 4592
draws 4591
Knight 4591
persistent 4590
observing 4589
lism 4589
participating 4588
sighted 4588
coaster 4588
colorful 4588
trafficking 4588
Imgur 4588
masculine 4587
Healing 4587
Coloring 4586
refreshing 4586
profession 4585
े 4584
Newsletter 4584
richest 4584
inherent 4584
Roc@@ 4584
enzyme 4583
Strike 4583
Sci 4583
acidic 4583
migration 4581
rendered 4581
opponents 4580
sometime 4580
TSA 4579
ghost 4578
HR 4578
kings 4578
Confederate 4578
fol@@ 4577
Standing 4575
Frequency 4575
retired 4575
Ay@@ 4575
ART 4575
Enough 4575
Describe 4574
sponsored 4574
pollen 4573
Boxes 4573
microsoft 4572
Blo@@ 4571
Theft 4571
mans 4570
Personality 4570
SY@@ 4569
vet@@ 4569
advertised 4568
Evil 4567
inserted 4567
aggression 4567
magical 4567
fiers 4566
Jack@@ 4566
singularity 4565
barriers 4564
manipulate 4562
borne 4562
Mitt 4561
Wo@@ 4561
acle 4560
quoted 4559
Beat 4559
wood@@ 4559
habitable 4559
Manhattan 4559
Youth 4558
quarters 4558
BEST 4558
emerge 4557
eper 4557
Moon@@ 4556
Trends 4556
atch 4556
mono@@ 4556
Philip 4556
Ig@@ 4556
upright 4555
packaged 4554
bler 4553
turing 4553
Concer@@ 4552
Wolf 4552
cc 4552
usb 4550
dn@@ 4550
curse 4549
stereotypes 4549
alis 4549
influential 4548
e’ 4547
denial 4547
Beatles 4546
bos 4545
melts 4545
.C. 4543
pap@@ 4543
homeopathic 4543
gia 4542
Hoo@@ 4542
Push 4541
appliance 4541
Silicon 4541
Ponzi 4540
creators 4540
orph@@ 4539
saves 4539
ful@@ 4539
Logic 4539
insist 4539
Buddhism 4538
curiosity 4538
Killer 4538
Teach 4537
spying 4537
N.@@ 4536
round@@ 4536
ities 4536
’S 4536
linux 4535
Processor 4535
sig@@ 4535
Artists 4535
Inc@@ 4534
challenged 4534
cousins 4534
lev@@ 4534
quo@@ 4533
<@@ 4533
Pour 4533
snacks 4533
स@@ 4533
Clean@@ 4532
targeting 4532
Pocket 4532
lend 4531
Fore@@ 4531
anniversary 4531
hatred 4531
ration@@ 4531
Option 4530
confuse 4530
Platform 4529
ре@@ 4528
adjustment 4528
Publishing 4528
jumped 4528
resolutions 4527
esti@@ 4527
Sub 4526
WW@@ 4526
Mechanics 4526
Pot@@ 4526
Absolute 4526
glance 4525
that@@ 4525
incoming 4525
altitudes 4525
в 4524
Nevertheless 4522
↑ 4522
ape 4522
Mir@@ 4521
transp@@ 4521
tapes 4520
Graham 4520
desirable 4520
Karma 4520
ku@@ 4518
Ple@@ 4518
>. 4518
vari@@ 4518
ousness 4518
donated 4518
explored 4517
richer 4516
IVE 4516
dra 4515
annually 4514
Gor@@ 4514
esses 4514
excitement 4514
Accident 4513
par 4513
Spectrum 4513
Markets 4512
mir@@ 4512
Com 4512
Planes 4512
Wisdom 4512
triple 4511
asylum 4510
DER 4509
fork 4509
icking 4509
provisions 4509
Sor@@ 4508
Monthly 4507
oa 4506
assistant 4506
09:@@ 4506
bucks 4505
Phillips 4505
GP 4505
aligned 4504
disasters 4504
substantially 4504
chairs 4504
Cali@@ 4504
vending 4504
Unions 4503
Main@@ 4503
Collider 4501
portfolio 4500
Offer 4500
Browser 4500
filming 4500
lick 4499
transformation 4499
herbs 4499
authentic 4498
practicing 4498
DSL 4498
Edited 4497
crack@@ 4496
programme 4495
ITS 4494
Alert 4494
Keywords 4494
shutdown 4493
ignition 4493
igh 4492
scra@@ 4492
icky 4492
Antibiotics 4491
horizontally 4491
acies 4491
fathers 4490
helmet 4490
autom@@ 4489
droplets 4488
stir 4488
indi@@ 4488
kies 4488
Pregnant 4488
Dust 4488
Raising 4487
agrees 4487
aky 4487
Stainless 4487
Born 4486
carb 4486
naps 4486
Allow 4485
ONS 4483
Voltage 4482
alling 4482
focal 4482
transmissions 4482
incorporate 4481
Scar@@ 4481
Except 4481
osphere 4481
clever 4481
agu@@ 4481
Marxism 4481
employ 4480
Historical 4480
TX 4479
chem@@ 4479
teaches 4478
duck 4478
Gun@@ 4477
graphy 4476
compensate 4476
homosexual 4476
Request 4475
Restaurant 4475
shelves 4475
creepy 4474
Peanut 4473
potassium 4472
ireland 4472
gag 4472
impose 4472
Hypo@@ 4471
surround 4471
Jurassic 4471
lacking 4470
Blogs 4470
bies 4470
MacBook 4470
type@@ 4469
Fisher 4469
line@@ 4469
Bail 4469
Roth 4468
Guantanamo 4468
misconception 4467
Putting 4467
Shock 4467
Chronic 4467
ican 4466
warmth 4466
Supplements 4466
alignment 4465
adaptation 4465
WA@@ 4465
wishes 4464
ectomy 4464
how@@ 4463
obligation 4463
inating 4462
Loading 4461
Iraqi 4460
CAR@@ 4460
lef@@ 4460
ility 4460
wel 4460
cent@@ 4459
Neptune 4459
advocate 4458
ky@@ 4458
itted 4458
asters 4457
antibodies 4457
7-@@ 4457
Tax@@ 4456
Aside 4456
there@@ 4456
maximize 4455
owing 4455
attitudes 4455
toss 4455
D.@@ 4455
Heads 4454
Tongue 4454
intersection 4454
respon@@ 4452
CDC 4451
reli@@ 4450
call@@ 4449
Known 4448
Cameron 4447
Postby 4446
continental 4446
eing 4446
distorted 4446
assi@@ 4445
Don 4445
insulation 4445
writ@@ 4444
Bin 4444
flooding 4444
juices 4444
fertility 4443
prediction 4442
fortune 4441
restrict 4441
ushing 4441
discoveries 4440
ignorant 4440
Cyber 4440
NASCAR 4440
cha 4438
habitat 4437
inexpensive 4436
taxpayers 4436
Tennis 4436
reporters 4435
organisation 4434
Turns 4433
dealt 4433
Workout 4432
i7 4432
broader 4431
Plat@@ 4430
jan 4429
posi@@ 4429
Statement 4429
visibility 4428
negotiations 4428
offshore 4427
enterprise 4427
esh@@ 4426
slots 4426
packet 4426
Sticker 4426
1960 4425
bets 4425
ATED 4425
Leaf 4425
eth 4424
Quiz 4424
Cigarette 4424
whis@@ 4424
Ship 4423
59@@ 4423
author@@ 4422
stunning 4422
grease 4422
INGS 4422
amateur 4421
Gordon 4421
Conservatives 4420
Patient 4420
Aw@@ 4420
erection 4420
Sink 4420
Hindi 4419
britain 4418
Identify 4418
Serial 4418
buzzing 4418
Lenses 4418
Scratch 4418
ome@@ 4416
bush 4415
conclusions 4414
Sodium 4414
ame@@ 4413
aves 4411
Dil@@ 4410
audiences 4410
C-@@ 4410
Ingredients 4410
metabolic 4410
premiums 4408
Aluminum 4408
FC 4407
ding@@ 4406
Art@@ 4405
jews 4404
abdominal 4404
basket 4404
timer 4403
shooter 4403
median 4402
Direc@@ 4401
Screen@@ 4401
smo@@ 4401
Terrorism 4401
lesbian 4401
stan@@ 4400
dominate 4399
Concrete 4399
gameplay 4399
gaps 4399
intend 4399
locally 4399
Hunter 4399
Bus@@ 4398
Plate 4398
Liber@@ 4398
recessive 4398
pine 4397
hop@@ 4397
DM@@ 4397
cher@@ 4396
examined 4396
,000@@ 4396
fifty 4395
heights 4395
CBD 4395
Sharp 4394
CI 4394
Luc@@ 4393
Hire 4393
Closed 4393
ó@@ 4393
Loud 4393
refrigerated 4393
s/@@ 4392
Andy 4392
epidemic 4392
russian 4392
fra@@ 4391
spanish 4391
chrome 4391
tle@@ 4390
Database 4389
Particle 4389
colonial 4389
rations 4388
IST@@ 4388
wholesale 4388
J.@@ 4388
Big@@ 4387
inventory 4386
acquisition 4386
bian 4386
submarines 4386
inflammatory 4386
ul 4385
overtime 4385
Unlimited 4385
invade 4384
attributes 4384
BS@@ 4384
performs 4384
fast@@ 4384
best@@ 4384
ASS@@ 4383
farts 4383
Shape 4382
bloody 4382
Disc 4382
**@@ 4382
Frame 4381
punished 4380
Catch 4380
PI 4380
Gol@@ 4379
fare 4379
Valve 4379
Material 4379
vintage 4378
]<B> 4377
vis 4377
Linear 4376
Relations 4375
retro@@ 4375
collide 4375
Rest 4375
fetus 4375
ORY 4374
pigment 4374
Speak 4373
woods 4373
OLED 4373
Grass 4372
Rainbow 4372
1929 4371
tum@@ 4371
newborn 4371
toothbrush 4371
xed 4370
hired 4370
zi 4369
Amy 4368
Ps 4368
Ms 4368
ade@@ 4368
Hadron 4368
bel 4367
exams 4364
Belgium 4364
view@@ 4364
2018@@ 4363
mation 4363
750 4363
athy 4363
Tan@@ 4363
understands 4362
01:@@ 4362
persuasive 4362
Architecture 4362
nas@@ 4362
caring 4362
orted 4362
Congressional 4361
retailer 4361
warnings 4360
nbsp 4360
breach 4358
noon 4358
Sep@@ 4357
Bot@@ 4357
conviction 4357
wolf 4357
inherently 4356
censored 4356
photosynthesis 4355
ancer 4355
compiled 4354
hydrate 4354
senate 4353
graph@@ 4352
automobile 4352
Le 4351
Comple@@ 4351
Howard 4350
pel@@ 4350
consciously 4350
Anderson 4349
b.@@ 4349
heritage 4348
braking 4348
aga 4347
Crimes 4347
Leader 4347
tasty 4347
korea 4346
worrying 4346
Sci@@ 4345
Kat@@ 4345
rotates 4344
Franklin 4344
stems 4343
123 4343
minorities 4343
discounts 4343
ignorance 4343
designing 4342
xy@@ 4342
specs 4342
arch 4341
kel@@ 4341
shing 4341
Chess 4339
Faith 4339
ectors 4339
Models 4339
Viol@@ 4339
angular 4339
accordingly 4338
USSR 4336
balances 4336
Opening 4336
muscular 4336
disappointed 4336
Eng@@ 4335
trim 4335
Taliban 4335
venture 4334
clean@@ 4334
ags 4334
Adapter 4333
therapist 4333
tec 4333
Hop 4333
ov 4332
indicating 4332
overly 4330
т 4329
Inc 4329
imag@@ 4329
birth@@ 4329
yan 4329
plaque 4329
Heidi 4329
masks 4329
Oral 4329
licenses 4328
loo@@ 4327
drank 4327
1972 4326
governor 4326
ε@@ 4326
Legends 4326
aled 4326
Gaza 4324
photographer 4324
blankets 4324
Fair@@ 4323
Operations 4323
Emer@@ 4323
inter 4321
thickness 4321
chloride 4321
utilized 4319
exploded 4318
aked 4317
Cuts 4316
forests 4316
sums 4315
Registered 4315
Region 4314
combining 4314
delicate 4313
nuclei 4313
iss@@ 4312
Conditioner 4311
initiative 4311
nig@@ 4311
manipulation 4311
Atoms 4311
tation 4310
1950s 4310
pray 4310
counterfeit 4309
Duck 4309
dless 4307
HA 4307
Wonder 4307
Pills 4307
cla@@ 4306
dye 4306
thermometer 4306
Businesses 4305
specify 4305
TP@@ 4304
ett 4303
tou@@ 4303
boils 4303
eters 4303
Pain@@ 4303
surgeon 4303
broker 4302
oner 4301
screening 4300
KE 4300
SR@@ 4300
Wells 4299
complaining 4299
slit 4299
08:@@ 4299
Dy@@ 4298
Shor@@ 4298
cartridges 4298
nets 4297
ules 4297
ub 4297
structured 4296
Tennessee 4296
ан@@ 4296
Wol@@ 4296
Cases 4295
ural 4295
comfortably 4294
Standards 4293
Scam 4293
ya@@ 4292
metres 4292
lifted 4291
commentary 4291
jam 4290
california 4290
gue 4289
Mig@@ 4288
Lon@@ 4288
oping 4287
copied 4287
lawsuits 4286
pit@@ 4286
elephants 4286
awards 4285
stereotype 4285
poem 4284
1988 4284
compelling 4284
FT@@ 4283
favorites 4283
Dal@@ 4283
0,@@ 4282
approve 4282
Biggest 4282
USE 4281
Properties 4280
ARS 4280
matched 4280
Teachers 4280
Bom@@ 4279
coll@@ 4279
england 4279
ค@@ 4278
Encryption 4277
symmetry 4277
,000,000 4277
edible 4277
Furniture 4276
NSFW 4276
Mystery 4275
Ppt 4275
aux 4275
rim 4275
induction 4274
problematic 4274
dim@@ 4273
gues 4273
ango 4272
Xautoman 4272
citation 4271
realm 4270
Columbus 4270
Bru@@ 4270
conductors 4270
BP 4268
Cape 4267
Kid 4267
wool 4267
omet@@ 4266
Exercises 4266
ginger 4266
MATTER 4266
es.@@ 4265
Jan. 4265
high@@ 4265
Bonus 4265
Pel@@ 4265
OD 4264
deviation 4264
inferior 4264
× 4262
accountable 4261
\(@@ 4261
Wind@@ 4261
exchanges 4260
calculating 4260
Dimension 4260
Goldman 4259
bait 4259
Gene 4258
Rab@@ 4258
Torrents 4257
Fruits 4257
feat 4257
artwork 4256
warn 4255
converts 4255
ald 4255
hz 4255
recognise 4254
prosecution 4254
pension 4252
F1 4252
fallacy 4251
Nixon 4251
Shadow 4251
rig@@ 4251
bench 4251
worksheet 4251
Pos@@ 4250
Maker 4250
Curious 4250
comply 4249
volumes 4247
Desert 4247
e(@@ 4247
ext@@ 4247
Collins 4246
Potter 4244
Gen 4244
horn 4243
heats 4242
Kra@@ 4242
Correct 4241
Skills 4241
capitalist 4241
immigrant 4241
soluble 4240
cruel 4240
Lucid 4240
autonomous 4240
Arti@@ 4239
Investig@@ 4239
thru 4238
Miles 4236
Gel 4234
nonsense 4234
Levels 4234
Border 4234
cardio 4234
encies 4233
ota 4233
compatibility 4233
Cracking 4233
PHP 4232
Javascript 4232
Arthur 4232
lightly 4232
canadian 4231
article@@ 4231
infectious 4231
meta 4231
expire 4230
ा 4230
crushed 4230
Brief 4230
ents@@ 4230
occupation 4230
NY@@ 4230
libraries 4229
ection@@ 4228
Jam@@ 4228
aver 4228
Projects 4227
Expect 4227
pressures 4227
anded 4226
feeds 4226
playback 4226
marketplace 4225
tragedy 4225
Dollars 4225
sunrise 4225
dick 4224
prop@@ 4224
sail 4224
King@@ 4223
Alien 4223
Fever 4223
taboo 4222
idle 4221
reflecting 4220
Bee 4219
lending 4218
osing 4218
throttle 4218
Recommended 4217
kl@@ 4217
irregular 4217
Federation 4217
Ele@@ 4217
Chewing 4217
offenders 4217
butterfly 4215
spill 4215
mug 4215
Facial 4215
Cables 4215
aying 4214
Arkansas 4213
launching 4213
homeopathy 4213
audi@@ 4212
neighbor 4212
dou@@ 4212
mortgages 4211
2)@@ 4211
Retail 4211
spreads 4211
tel 4210
Flickr 4209
demonstrates 4209
shutting 4209
Revenue 4208
▼ 4208
Sean 4208
gence 4207
ZIP 4207
Bass 4206
ted@@ 4206
Indic@@ 4206
HDTV 4205
seeks 4205
embarrassing 4205
reportedly 4205
ALI@@ 4205
ez@@ 4205
marriages 4205
spir@@ 4203
fills 4203
Austria 4203
Thunder 4203
><@@ 4203
basement 4203
inertia 4203
Huge 4200
ribs 4200
progression 4200
cycling 4199
nia 4198
Ble@@ 4198
suppliers 4198
stering 4197
ACE 4197
doctrine 4197
von 4197
emission 4197
Boy@@ 4195
empathy 4195
speculation 4195
rectangular 4195
tornadoes 4195
MC 4194
Hero 4194
REAL 4194
drums 4194
standpoint 4194
desperate 4193
Houses 4193
museum 4193
colds 4192
irony 4191
gi 4191
haha 4191
ANT 4191
FF@@ 4190
sequ@@ 4190
essing 4190
mandate 4190
folded 4190
Messages 4189
fix@@ 4189
gin 4188
tist 4187
79@@ 4187
singular 4187
primates 4186
vague 4185
Braille 4185
brain@@ 4184
Individual 4184
4chan 4184
announce 4183
starter 4183
§ 4183
Documents 4182
tization 4182
borrowing 4181
volt 4181
abused 4181
sustained 4181
profound 4181
Long@@ 4181
Costs 4180
Opera 4180
universally 4179
imported 4179
Ze@@ 4178
testimony 4178
ik@@ 4178
Counting 4178
ight 4177
Divi@@ 4177
plea 4177
boson 4176
stamp 4176
Voter 4176
Intermediate 4174
pra@@ 4173
Mandarin 4173
firearm 4173
hung 4173
lex 4173
twe@@ 4172
naming 4172
hollow 4171
Lum@@ 4171
FAQs 4170
ety 4170
piss 4169
Festival 4169
TI 4169
comics 4169
initi@@ 4168
Determine 4168
Odds 4168
fresh@@ 4168
bothered 4168
Purple 4167
lex@@ 4166
disposable 4166
rub@@ 4166
smoker 4164
generators 4164
NS@@ 4163
wakes 4163
compliance 4162
Jury 4162
BMW 4162
aning 4162
propeller 4162
addressing 4161
ripe 4161
Vegetables 4160
advertisers 4160
correction 4159
achieving 4159
vibrating 4159
Clinical 4159
Mostly 4158
constitutes 4158
CERN 4158
embrace 4158
Var@@ 4156
rat 4156
Smo@@ 4155
erase 4155
investigating 4153
publishers 4153
steer 4153
legalize 4152
Latino 4152
220 4152
Satan 4152
Sand 4152
Khan 4151
regi@@ 4151
Firstly 4151
kh@@ 4150
coalition 4150
violations 4149
Flash@@ 4149
arc 4149
affir@@ 4149
Yesterday 4148
Wright 4148
Sou@@ 4148
Shut 4148
intolerance 4148
repairs 4147
ь 4146
CM@@ 4146
Literature 4146
radios 4146
smith 4145
GRO@@ 4145
Perry 4144
Draft 4144
Quad@@ 4143
ux 4143
Esc@@ 4143
lm@@ 4143
cleared 4143
eta 4142
Factory 4142
Aaron 4141
76@@ 4141
brew 4141
traders 4140
polish 4140
filtered 4140
Psycho@@ 4139
grinding 4139
polarized 4138
omes 4138
Bec@@ 4137
arises 4137
ρ@@ 4137
exam@@ 4136
logically 4136
wonders 4135
gem@@ 4135
scoring 4134
agricultural 4134
tipping 4134
jer@@ 4133
province 4133
Rape 4133
poetry 4132
1920 4132
dd 4132
dna 4131
Cart 4129
username 4128
Repeat 4128
Fighter 4128
){@@ 4127
regulatory 4126
ni 4126
dependence 4125
careers 4125
preview 4124
Tiger 4124
Camp 4124
Exclusive 4123
tened 4123
incest 4123
keyboards 4123
onom@@ 4122
thirds 4122
Torque 4122
reminder 4122
Kate 4121
Bin@@ 4121
entrance 4121
Mid 4121
stake 4120
centered 4120
stiff 4120
nostrils 4120
pleased 4119
Ltd 4119
Luckily 4119
inclined 4118
VIS@@ 4118
Fraud 4117
clearer 4117
Sher@@ 4117
cum@@ 4117
25th 4117
alternating 4116
comment@@ 4116
1987 4116
Brush 4116
batch 4115
Exposure 4115
ñ@@ 4115
awhile 4115
preserved 4114
anks 4112
Scientist 4112
tuna 4112
Rh@@ 4112
Breathing 4111
starving 4110
Bun@@ 4110
Princess 4110
ebay 4110
lasers 4110
Potential 4109
itch@@ 4109
Paying 4109
paper@@ 4109
Chase 4109
je 4109
beginners 4108
ls@@ 4108
shifted 4108
ital@@ 4108
recommends 4108
HOME 4107
cart@@ 4107
rot 4107
tex 4106
inmates 4106
Stack 4105
master@@ 4105
beaches 4105
cliff 4105
Vancouver 4105
Entry 4104
distortion 4104
Occupy 4104
mut@@ 4104
eu 4104
congressional 4103
Keystone 4103
formulas 4102
profiles 4101
pubic 4101
gal 4100
provision 4100
Deposit 4100
Night@@ 4100
yr 4100
deprivation 4099
Tokyo 4099
eter@@ 4099
WA 4099
jum@@ 4099
plac@@ 4098
Deep@@ 4096
balancing 4096
frustration 4096
ook 4095
statute 4095
sweeteners 4095
celebrated 4095
moths 4094
Canc@@ 4094
Adams 4093
hes@@ 4093
phy@@ 4092
freshwater 4092
distress 4091
researcher 4091
Pentagon 4091
involuntary 4091
dge@@ 4090
dism@@ 4090
Sus@@ 4090
NI@@ 4090
Astro@@ 4089
2017@@ 4089
1900 4089
nomination 4088
Veterans 4088
extends 4088
intr@@ 4088
salmon 4088
curves 4087
beams 4087
Alliance 4087
Son 4086
stall 4086
Required 4085
Authority 4084
ght 4084
programmers 4083
absurd 4083
IGHT 4083
Hybrid 4083
ao 4083
Avenue 4083
Fuck 4082
odors 4082
Celebrities 4081
U. 4080
Wealth 4079
deliberately 4079
accordance 4078
Hat@@ 4078
sci 4078
graphical 4078
Robin 4077
HS@@ 4077
Uploaded 4077
vents 4077
Buzz@@ 4077
Breathe 4077
snoring 4077
Retirement 4076
coupon 4076
Maine 4075
ler@@ 4075
runway 4075
Sprint 4075
antibacterial 4074
Rid@@ 4074
fat@@ 4074
neo 4073
Failure 4073
Finger 4073
humid 4073
toast 4072
Resistance 4072
firmly 4072
wid@@ 4071
Engineer 4070
--T--Why 4070
Bil@@ 4070
Lemon 4069
Itch 4069
Amps 4068
VER 4067
Francis 4067
Buffalo 4067
Dank 4067
ille 4066
dialects 4066
,’ 4065
sies 4065
Galaxies 4064
flames 4064
squint 4064
1985 4063
secre@@ 4063
clause 4063
1.4 4062
Absolutely 4062
spices 4061
opia 4061
ADD 4061
Ants 4061
who@@ 4060
aint 4060
ROM 4060
Listening 4060
BMI 4060
360@@ 4060
Treatments 4059
Enterprise 4058
fluctuate 4057
Spar@@ 4057
Bud@@ 4056
trillions 4056
Hem@@ 4056
cringe 4055
)(@@ 4055
felony 4055
cranes 4055
mur@@ 4054
ght@@ 4054
Shuttle 4054
onia 4054
robust 4053
Part@@ 4053
umps 4053
launches 4053
Manchester 4052
Degrees 4052
cones 4052
One@@ 4051
0.5 4051
Color@@ 4051
==@@ 4050
solo 4050
credited 4049
ree@@ 4049
cooperation 4049
ece 4048
Chips 4047
MIT 4046
stigma 4046
Nokia 4046
Jokes 4045
GTA 4045
meds 4045
Nelson 4044
arti@@ 4044
e_@@ 4043
lah 4043
Characters 4043
nel 4042
Mayweather 4042
Processing 4040
scri@@ 4040
Diff@@ 4040
[/@@ 4039
Aug. 4039
Chain 4038
anity 4038
Video@@ 4037
als@@ 4037
16:@@ 4036
LIKE 4036
publisher 4036
2.4 4036
shiver 4036
acoustic 4035
Likewise 4035
ishes 4035
rover 4035
Hosting 4034
displaying 4034
organize 4033
Chairman 4032
&apos;t 4032
reporter 4032
beginner 4031
Myths 4031
open@@ 4031
Massage 4031
trump 4029
Rising 4029
illi@@ 4028
defl@@ 4027
OL 4027
mimic 4027
Ever@@ 4026
sco@@ 4026
epic 4026
Lau@@ 4026
supermarket 4025
confirmation 4024
copyrighted 4024
Hampshire 4023
premise 4023
29.@@ 4023
terminology 4023
Coo@@ 4022
nes@@ 4022
teenager 4022
Algebra 4022
Tonight 4022
Recycling 4022
12-@@ 4022
Falcon 4022
Bright 4022
Sho@@ 4021
jazz 4020
OT@@ 4020
notation 4020
deductible 4020
goat 4020
Messenger 4019
vul@@ 4019
excel 4018
Singing 4018
ELL 4017
ancestry 4017
Sing 4017
counties 4017
Volkswagen 4016
Suppose 4015
Hide 4015
LEDs 4015
evaporation 4015
Voices 4014
burgers 4014
alia 4013
commented 4013
masturbation 4013
tification 4012
sounded 4012
nouns 4012
Avengers 4011
Share@@ 4010
320 4010
bats 4010
Pil@@ 4010
Tracking 4008
runners 4007
GPUs 4007
gas@@ 4006
plat@@ 4005
zo 4005
izz@@ 4005
−@@ 4004
atable 4004
brackets 4003
intensive 4003
|| 4003
Raise 4002
Sea@@ 4002
Fir@@ 4001
pric@@ 4001
screen@@ 4000
hipster 4000
mouthwash 3999
God@@ 3999
oranges 3998
copying 3998
Fan@@ 3997
plic@@ 3997
flew 3997
^2 3996
mes 3996
Martial 3996
dest 3996
BT 3996
Awareness 3995
stranger 3995
COUN@@ 3995
Heating 3994
donors 3994
Cricket 3994
Friendly 3994
messaging 3994
24/7 3993
door@@ 3992
Genesis 3992
Semi 3991
PowerPoint 3991
meteor 3991
Distribution 3990
repeal 3989
Invest 3988
1.6 3986
perf@@ 3986
encouraging 3986
Pot 3986
imbalance 3986
Cock@@ 3985
disabilities 3985
word@@ 3985
Greeks 3985
ISH 3985
Charter 3985
hrs 3985
uting 3984
puppies 3984
formally 3983
USPS 3983
uniforms 3983
izers 3983
nukes 3983
harvest 3983
itors 3982
sixth 3982
ffer@@ 3982
Lex@@ 3982
cement 3982
cockroaches 3982
02:@@ 3981
SEE 3981
c. 3981
PI@@ 3981
cricket 3980
drew 3980
Ticket 3980
favorable 3979
Greatest 3979
Cav@@ 3979
optimization 3978
Pill 3978
ت@@ 3978
cast@@ 3978
watermelon 3978
genders 3977
Lecture 3976
favour 3976
Inten@@ 3975
amplifier 3975
exceptional 3975
fet@@ 3974
Serv@@ 3974
Item 3974
thyroid 3974
Conver@@ 3974
packing 3973
scanner 3972
cyber@@ 3972
cros@@ 3972
iPhones 3972
curvature 3972
Haw@@ 3972
Comics 3972
transparency 3972
transformed 3971
ambi@@ 3971
box@@ 3971
unrelated 3970
icy 3970
visually 3969
breeze 3969
Survi@@ 3967
alty 3967
greens 3967
explicit 3966
divisions 3966
recommendation 3966
Psych@@ 3966
GRE@@ 3966
Mad 3964
fracking 3964
105 3963
organisations 3963
Equations 3963
hurricanes 3963
researching 3962
intact 3962
Cocaine 3962
Units 3960
rest@@ 3960
eves 3959
Zimbabwe 3959
ignoring 3959
oxy@@ 3959
fluorescent 3958
thermodynamics 3958
partisan 3958
enforced 3958
WATCH 3958
licensing 3957
Eight 3957
Mega 3957
Fat@@ 3956
Lens 3955
Essentially 3954
updating 3952
Soul 3952
89@@ 3951
hil@@ 3951
fundamentally 3950
aly 3950
shar@@ 3950
1950 3949
defensive 3949
Networking 3949
orth@@ 3949
soaps 3949
itary 3949
genuinely 3948
compromised 3948
fications 3948
admission 3948
Fifth 3948
Geographic 3948
illustrate 3947
Quick@@ 3947
itating 3947
asi 3946
Beta 3946
rev@@ 3946
exterior 3946
Lot 3945
booking 3945
NJ 3944
ISM 3944
leaking 3943
prote@@ 3943
negotiate 3943
dividing 3942
Wallpaper 3942
stom@@ 3942
cubic 3942
tions@@ 3941
probes 3941
Matters 3940
Cotton 3940
Armstrong 3940
Universities 3939
Studios 3939
Appro@@ 3939
Generic 3939
Lion 3938
cing 3938
nickel 3938
Ran@@ 3937
mach@@ 3937
detergent 3937
drilling 3937
CK@@ 3936
Creation 3936
Mani@@ 3936
Cleveland 3935
dissertation 3935
ejaculation 3935
Tattoos 3935
ied 3934
Assuming 3934
craving 3934
conception 3934
zen@@ 3934
swap 3933
tweet 3933
world@@ 3933
geographic 3933
Ken 3933
treadmill 3933
precipitation 3933
microscope 3933
Aut@@ 3932
bub@@ 3931
w/ 3931
drip 3931
Conservation 3931
coordinate 3931
lor@@ 3931
obama 3929
Africans 3929
Prof@@ 3928
outward 3928
cite 3927
URL_10 3927
x86 3927
Quite 3926
drove 3926
Check@@ 3926
erie 3926
sper@@ 3926
Genocide 3926
kits 3925
anta 3925
Tires 3925
documentation 3924
د@@ 3924
replicate 3924
Toy 3924
flashes 3924
ints 3923
leman 3923
grave 3923
adjusting 3923
1983 3921
disks 3921
een 3920
Already 3920
CLO@@ 3920
proving 3920
0000@@ 3920
communicating 3920
Quit 3919
Ross 3918
ESS@@ 3918
wan 3918
Carter 3918
Piece 3918
Interior 3918
scholars 3917
align 3916
Sco@@ 3916
moles 3915
cosmetic 3914
chil@@ 3913
SER@@ 3913
reck@@ 3913
Leg 3913
cryptocurrency 3912
hooked 3911
Centers 3911
cir@@ 3911
cum 3911
Animated 3911
mass@@ 3910
alled 3910
educate 3910
flashlight 3910
shortest 3910
mun@@ 3910
hats 3909
feathers 3909
ida 3908
subway 3908
bending 3908
activists 3907
rival 3907
spice 3907
facilitate 3907
feces 3907
slope 3906
Equal 3906
vert 3906
introducing 3905
cin@@ 3905
anatomy 3904
GM@@ 3903
С@@ 3903
routinely 3903
sciences 3902
parliamentary 3902
exe 3902
imagery 3902
64-bit 3901
declined 3901
ials 3901
promising 3901
Upper 3901
Missing 3900
AU 3900
rubs 3899
bud@@ 3899
isolation 3899
Titan 3899
Plu@@ 3898
42@@ 3898
ส@@ 3897
acles 3896
deserves 3896
cover@@ 3896
trailers 3896
journalist 3895
450 3895
oes 3894
cardiac 3894
merger 3893
feder@@ 3892
15:@@ 3892
stimuli 3892
Equi@@ 3891
wers 3891
Cap 3891
Potato 3891
repel 3890
Superman 3889
editors 3888
04:@@ 3888
RIGHT 3888
supplier 3888
Poop 3888
Gmail 3887
Piano 3887
crashed 3886
Rou@@ 3886
Wal 3886
Lawrence 3886
Relationships 3885
lee 3884
ign@@ 3884
Underwater 3884
Wise 3884
Equity 3883
Lack 3883
ridge 3882
omy 3882
NCAA 3882
AI@@ 3881
operational 3881
QR 3881
Infinite 3881
passionate 3880
openly 3880
LAN 3880
elevated 3880
vaginal 3880
swell 3880
aping 3879
mid-@@ 3879
Polar 3879
ection 3878
Ratings 3878
Pitch 3878
lowing 3878
hl 3878
uns 3878
hiroshima 3877
armor 3876
considers 3875
whit@@ 3875
softer 3875
stamps 3875
BB 3874
Assange 3874
chan@@ 3874
Athletes 3874
contra@@ 3873
Cyber@@ 3873
ITE 3872
abundance 3872
genitals 3872
weekends 3872
Snow@@ 3871
mentions 3871
Fixed 3871
failures 3870
subatomic 3870
revenues 3869
cow@@ 3869
texting 3869
sinuses 3869
governing 3868
dear 3868
goats 3868
rods 3868
Mosquito 3868
comet 3867
CPR 3867
Shake 3866
c.@@ 3866
fictional 3866
ult 3866
Airplanes 3866
onset 3864
shakespeare 3864
MO 3864
spaceship 3864
poorer 3863
sucking 3863
oses 3863
mines 3862
س@@ 3862
reas@@ 3862
som 3861
mand@@ 3860
unity 3860
uts 3859
blisters 3859
OH 3858
rifles 3858
hallucinations 3858
cheeks 3857
produc@@ 3857
underwear 3857
fructose 3857
yrs 3856
har 3855
marking 3855
threw 3855
entation 3854
aki 3853
Match 3853
sugary 3853
Chem@@ 3853
Assault 3853
crashing 3852
Split 3851
contributes 3851
allegedly 3851
maj@@ 3851
scams 3851
Contrac@@ 3851
unaware 3851
Kon@@ 3850
Craft 3850
combines 3850
Diamonds 3850
molten 3850
webpage 3849
eck 3849
Larry 3848
Anne 3848
second@@ 3848
marker 3847
Lag@@ 3846
LIVES 3846
Proper 3845
Hamilton 3845
Mine 3844
Kel@@ 3844
Emotional 3844
politician 3844
Socialist 3843
Certainly 3843
dominance 3843
Pilot 3843
flammable 3843
instincts 3843
denominations 3843
60fps 3843
Command 3842
folding 3842
respected 3842
MON@@ 3841
07:@@ 3841
Hunger 3841
69@@ 3841
rh@@ 3841
entries 3840
DRE@@ 3840
fool 3839
CSS 3839
Jeffrey 3839
Gall@@ 3839
fis@@ 3839
explores 3838
throws 3838
Rad@@ 3838
connector 3838
à 3838
harassment 3838
Wiki@@ 3837
charcoal 3837
maintains 3836
atively 3836
custody 3836
arguably 3835
asted 3835
Attracted 3835
biography 3834
Armed 3834
`s 3834
Divorce 3834
hail 3834
lime 3833
Compression 3833
broadcasting 3832
Russell 3831
clicks 3831
SP 3830
tivism 3830
chlor@@ 3830
Allahu 3830
Minute 3829
hydraulic 3829
Break@@ 3829
catholic 3827
parti@@ 3827
realism 3827
Renewable 3826
psychologist 3826
damp 3826
elevation 3826
shocking 3825
Lakes 3825
listened 3824
poo 3824
Ah 3824
circumference 3824
Tumblr 3822
Abraham 3822
unfortunate 3822
Comparing 3821
Testament 3821
lint 3821
Takes 3820
po 3820
cancelled 3820
runner 3820
Radar 3820
ja@@ 3819
bn 3819
nazi 3819
Tiny 3819
sheer 3819
elli 3819
30,000 3819
aj@@ 3819
Powder 3819
ND@@ 3818
binge 3818
marrow 3818
ories 3817
VC 3816
volunteer 3816
Mirrors 3816
personalities 3815
Smartphone 3815
GA@@ 3815
ution 3814
ope 3813
presumably 3813
Assistant 3813
Vatican 3813
Powerful 3813
Doors 3813
Greenland 3813
textbooks 3812
gifs 3812
Evol@@ 3812
Burger 3811
HELP 3810
INTER@@ 3810
ALLY 3810
child@@ 3810
Anim@@ 3810
nodes 3809
gation 3809
verdict 3809
Lan@@ 3808
Ministry 3808
thorough 3807
Kim@@ 3807
Swift 3807
breaker 3807
itis 3807
legi@@ 3806
Bou@@ 3806
dB 3806
BA@@ 3805
Fiscal 3805
fuzzy 3805
devil 3805
Doc@@ 3804
Collapse 3804
Phil 3804
Vladimir 3804
ambulance 3804
registry 3804
lord 3803
yms 3803
Grammar 3803
Rescue 3802
obtaining 3801
minded 3801
transmitter 3801
cools 3801
mist@@ 3801
controllers 3800
futures 3799
scanning 3799
Musical 3799
Serious 3799
alisation 3798
adv@@ 3798
fleet 3798
direc@@ 3797
unsure 3797
block@@ 3797
insult 3797
Bones 3796
inten@@ 3796
crawl 3796
Selection 3796
Bite 3796
dol 3795
inging 3794
grounded 3794
ballistic 3794
Oliver 3793
INT@@ 3793
Headaches 3793
fibre 3793
nationalism 3792
objectives 3791
swipe 3791
arrives 3791
tongues 3791
Dro@@ 3791
clay 3790
surviving 3790
prostate 3789
elaborate 3789
Gross 3789
Wing 3789
Legs 3789
Dynamic 3788
Flip 3788
contractors 3788
invited 3787
angled 3787
aa 3787
List@@ 3787
multiplication 3787
Junk 3786
mornings 3786
TF@@ 3785
Pound 3785
af 3785
95@@ 3785
Dreaming 3785
dex 3785
rists 3785
Get@@ 3784
Earlier 3784
Luke 3784
waist 3784
Highest 3783
Gil@@ 3782
Rac@@ 3782
recur@@ 3781
ddle 3781
here@@ 3781
Vel@@ 3781
Meal 3781
Tes@@ 3781
eon 3781
Connecticut 3780
spite 3780
extracted 3780
Thermal 3780
Birthday 3780
sampling 3779
Dawn 3777
nick@@ 3777
Employee 3777
Downloads 3777
dam 3777
slim 3776
Josh 3776
moistur@@ 3775
entertaining 3775
Adventure 3775
न@@ 3774
rants 3774
Character 3774
Ec@@ 3774
sinking 3772
Cake 3772
Program@@ 3771
Dat@@ 3771
Specific 3771
deepest 3770
i5 3770
Done 3769
lec@@ 3769
this@@ 3769
assassination 3769
Technologies 3768
hazardous 3768
cardboard 3768
disadvantage 3767
locker 3767
Shark 3766
bipolar 3766
responds 3765
sanitizer 3765
Installation 3764
rics 3764
UT 3763
03:@@ 3762
administered 3762
Genetically 3762
implants 3762
Explanation 3761
stal@@ 3761
remotely 3761
accumulate 3761
Stewart 3761
Metro 3760
Maj@@ 3760
manned 3759
Quebec 3759
harmony 3758
Gur@@ 3758
Sonic 3758
Lithium 3757
Neo 3757
courage 3757
Pir@@ 3757
Vol 3756
achievement 3756
witnesses 3756
Commerce 3755
patience 3755
enabling 3755
Contents 3754
Andromeda 3754
Dress 3754
headset 3754
heaters 3754
plausible 3753
tize 3753
scroll 3753
Permanent 3753
Meme 3752
Marathon 3751
bullying 3751
Melt 3750
Laugh 3750
Position 3749
curriculum 3749
tain@@ 3748
artistic 3748
hunter 3747
Stanley 3747
comprised 3747
impacted 3747
pointer 3747
Ah@@ 3746
Fab@@ 3744
Trip 3744
Karl 3743
Suddenly 3743
ि@@ 3742
Laboratory 3742
lac@@ 3742
respiration 3742
icker 3741
01/@@ 3740
xx 3740
MAN 3740
artificially 3740
clinic 3740
mies 3739
nish 3739
lawmakers 3739
occup@@ 3739
synthesis 3739
snot 3739
knot 3738
agged 3738
viagra 3738
lightweight 3738
prompt 3737
verbs 3737
grace 3736
Present 3735
Template 3735
william 3735
appreciation 3735
ebook 3735
markers 3735
painkillers 3735
mos 3733
penetrate 3733
Py@@ 3732
moon@@ 3731
unsafe 3731
strangers 3731
donating 3730
Employees 3730
UI 3730
hydration 3730
transferring 3729
fasting 3729
ORS 3729
relaxation 3729
coupled 3728
defeated 3728
advertisement 3728
invaded 3728
noisy 3728
1800 3727
Euro@@ 3727
factor@@ 3726
pitches 3726
ggy 3726
Michelle 3725
query 3725
rust 3725
impaired 3725
dial@@ 3724
Walker 3723
multiplayer 3723
By@@ 3722
teenage 3721
Directory 3721
springs 3721
inject 3721
Feb. 3720
shakes 3720
ห@@ 3720
osa 3720
soak 3719
è@@ 3719
ingo 3719
Penis 3719
Row 3719
Painting 3718
ancing 3718
HDR 3718
ysis 3718
affair 3718
yields 3717
PG 3717
MAN@@ 3717
Prior 3717
Nick@@ 3717
deployed 3716
comb@@ 3716
saltwater 3716
Editing 3715
extensions 3715
nicely 3715
BER@@ 3715
anny 3715
Gig@@ 3714
UK@@ 3714
Suff@@ 3713
turtles 3713
Infrared 3713
defending 3712
reminds 3712
Path@@ 3712
coff@@ 3712
LIVE 3711
theatre 3711
predator 3711
actu@@ 3710
Origins 3710
eries 3710
Eclipse 3710
ema 3710
predic@@ 3709
trajectory 3709
TOP 3709
LOT 3709
reliability 3709
listeners 3709
Alice 3708
Wr@@ 3708
dude 3708
ิ@@ 3708
Missile 3707
outdated 3707
idation 3707
Triangle 3707
fountain 3707
foster 3706
Parallel 3706
Beginners 3705
cartels 3705
Happening 3705
conjunction 3705
earphones 3705
ning@@ 3705
tabs 3704
Kom@@ 3704
prejudice 3704
bean 3704
Pearl 3704
Exist 3704
commodities 3703
illed 3703
OT 3702
78@@ 3702
attachment 3702
stream@@ 3702
shorts 3702
athletic 3701
descriptions 3701
oxide 3701
routers 3700
Any@@ 3700
Ashley 3699
mas 3699
homeowners 3698
seas 3698
Rush 3697
scratched 3697
attending 3696
easing 3696
crowded 3696
rocky 3696
forwards 3696
Lift 3696
Rub@@ 3696
BER 3695
MPH 3695
rig 3695
Sandy 3695
ICAL 3694
Kit@@ 3694
slices 3693
Ski@@ 3693
ament 3693
cease 3692
orb@@ 3692
Spy 3691
Cir@@ 3691
Forms 3691
blinking 3691
noodles 3691
hyp@@ 3691
feasible 3690
establishing 3690
Stanford 3690
24.@@ 3690
Duke 3690
rebels 3690
kettle 3690
wines 3690
whe@@ 3689
104 3689
worries 3689
pennies 3689
addicts 3689
Transport 3688
gon@@ 3688
faulty 3688
Ligh@@ 3688
Amanda 3687
Thousands 3687
folders 3687
UD 3686
}}@@ 3686
energetic 3685
investigations 3685
strokes 3685
leaning 3685
Mit@@ 3685
rigid 3685
toddler 3685
IMF 3684
protesters 3684
06:@@ 3684
comprehend 3684
Powers 3683
DP 3683
sacrifice 3683
Abortion 3683
frost 3683
Greg 3682
Smart@@ 3682
\"@@ 3681
heartbeat 3681
primaries 3680
factories 3680
Estab@@ 3680
epi@@ 3679
..@@ 3679
bans 3679
foul 3678
mail@@ 3678
Macs 3677
positioned 3677
isms 3676
allegations 3675
formations 3675
ual 3674
Poll 3674
Journey 3674
obligations 3673
duplicate 3673
ont 3673
slippery 3673
prisoner 3673
त@@ 3672
oath 3672
duction 3670
oon 3670
sat@@ 3670
Nowadays 3669
kes@@ 3669
erc@@ 3669
alise 3669
fist 3669
vectors 3668
house@@ 3668
hike 3668
Heart@@ 3668
bedtime 3668
dings 3667
quad@@ 3667
scents 3667
Accep@@ 3667
ی@@ 3667
Cent@@ 3666
LOL 3666
akin 3666
jumps 3665
pass@@ 3665
Ann 3665
hates 3665
Urine 3665
knob 3664
6,000 3664
omer@@ 3664
beside 3663
Volts 3663
alkaline 3663
LL 3663
ackers 3662
Craig 3662
Shirts 3662
petroleum 3661
was@@ 3661
encourages 3660
ship@@ 3660
hunters 3660
Imperial 3659
Glo@@ 3659
Lob@@ 3659
able@@ 3658
Strategies 3658
outlook 3658
osh 3658
diaphragm 3658
Metric 3658
Theater 3658
Roof 3658
4,000 3657
O. 3657
TRE@@ 3656
Interestingly 3656
tha 3656
Rocks 3656
Chair 3656
pos 3655
Define 3655
barrels 3655
toaster 3655
1982 3654
invasive 3654
RU@@ 3654
HubPages 3654
kk@@ 3654
additives 3654
bruise 3654
inputs 3653
lever 3653
globally 3653
deodorant 3652
Stuck 3652
Tablets 3652
Enter@@ 3651
Oct. 3651
Benjamin 3650
elastic 3650
Oz 3650
25.@@ 3650
invent 3649
Navigation 3648
desires 3648
Hunting 3647
pec@@ 3647
contamination 3647
colon@@ 3647
steep 3646
OM@@ 3646
sal 3646
burner 3646
atin 3642
Fossil 3642
modeling 3642
tural 3642
chooses 3642
บ@@ 3642
);@@ 3642
stum@@ 3641
opathy 3640
amm@@ 3639
turbo 3639
ows 3639
Symbol 3639
dressed 3639
WAS 3638
guided 3638
ww@@ 3637
PT@@ 3637
collapsed 3636
eco 3635
ucks 3635
consultation 3635
aspirin 3635
take@@ 3635
sober 3635
ud 3634
Ky@@ 3634
rar 3634
Payment 3633
vi 3633
indigenous 3633
Const@@ 3632
explicitly 3631
arians 3631
safest 3631
Econom@@ 3631
demonstration 3631
â€@@ 3630
cakes 3630
iller 3629
ogue 3629
hype 3629
HTC 3629
And@@ 3629
NA 3629
questioning 3628
Tire 3628
Sul@@ 3628
COL@@ 3628
Laura 3627
has@@ 3627
filledAsset 3627
neighborhoods 3627
kil@@ 3627
Height 3626
tele@@ 3625
agon 3625
Lunar 3625
ат@@ 3624
μ@@ 3623
Woods 3623
Coins 3622
raid 3622
Analog 3622
automation 3621
BOOK 3621
Dec. 3621
journalism 3621
prayer 3621
terrestrial 3621
ror@@ 3621
insured 3620
indicators 3619
tual 3619
23.@@ 3619
icles 3619
-4 3619
Enforcement 3619
Lef@@ 3619
Catholics 3618
tiger 3618
Dream@@ 3617
IO@@ 3617
Spread 3617
eci@@ 3617
activation 3617
imperative 3615
Customers 3615
inas 3614
coated 3614
health@@ 3614
executives 3613
Blade 3613
jelly 3613
fting 3613
Freezing 3613
neat 3612
textbook 3612
completing 3612
gur@@ 3611
caution 3611
Crown 3610
ames 3610
Feedback 3610
appeals 3610
transported 3610
reci@@ 3609
VI 3609
separ@@ 3608
AA@@ 3608
Max@@ 3608
suffers 3607
cheek 3607
crawling 3607
intern@@ 3606
url 3606
XX@@ 3606
mistaken 3606
scre@@ 3606
sovereignty 3605
sequences 3605
Solve 3605
Gambling 3605
Turbo 3604
chang@@ 3604
Rig@@ 3604
UFC 3604
Us@@ 3604
Hur@@ 3603
Massive 3603
taxation 3603
efs 3603
[...]
